{
  "eos": 42835, 
  "UNK": 1, 
  "the": 2, 
  ",": 3, 
  ".": 4, 
  "of": 5, 
  "and": 6, 
  "to": 7, 
  "in": 8, 
  "a": 9, 
  "is": 10, 
  "for": 11, 
  "that": 12, 
  "on": 13, 
  "@-@": 14, 
  "with": 15, 
  "this": 16, 
  "be": 17, 
  "it": 18, 
  "are": 19, 
  "as": 20, 
  "we": 21, 
  "by": 22, 
  "I": 23, 
  "will": 24, 
  "have": 25, 
  "&quot;": 26, 
  "not": 27, 
  "you": 28, 
  "(": 29, 
  ")": 30, 
  "which": 31, 
  "from": 32, 
  "at": 33, 
  "&apos;s": 34, 
  "European": 35, 
  "an": 36, 
  "has": 37, 
  ":": 38, 
  "or": 39, 
  "-": 40, 
  "all": 41, 
  "our": 42, 
  "can": 43, 
  "was": 44, 
  "Commission": 45, 
  "also": 46, 
  "its": 47, 
  "but": 48, 
  "more": 49, 
  "their": 50, 
  "your": 51, 
  "would": 52, 
  "/": 53, 
  "there": 54, 
  "been": 55, 
  "one": 56, 
  "EU": 57, 
  "they": 58, 
  "if": 59, 
  "Mr": 60, 
  "should": 61, 
  "new": 62, 
  "these": 63, 
  "other": 64, 
  "&apos;": 65, 
  "must": 66, 
  "Member": 67, 
  "Council": 68, 
  "only": 69, 
  "States": 70, 
  "do": 71, 
  "so": 72, 
  "very": 73, 
  "President": 74, 
  "time": 75, 
  "Union": 76, 
  "about": 77, 
  "up": 78, 
  "like": 79, 
  "?": 80, 
  "what": 81, 
  "Europe": 82, 
  ";": 83, 
  "countries": 84, 
  "no": 85, 
  "when": 86, 
  "such": 87, 
  "into": 88, 
  "who": 89, 
  "any": 90, 
  "out": 91, 
  "people": 92, 
  "us": 93, 
  "well": 94, 
  "between": 95, 
  "Parliament": 96, 
  "were": 97, 
  "first": 98, 
  "some": 99, 
  "than": 100, 
  "use": 101, 
  "information": 102, 
  "report": 103, 
  "need": 104, 
  "now": 105, 
  "most": 106, 
  "work": 107, 
  "my": 108, 
  "many": 109, 
  "make": 110, 
  "support": 111, 
  "%": 112, 
  "his": 113, 
  "important": 114, 
  "take": 115, 
  "he": 116, 
  "two": 117, 
  "them": 118, 
  "policy": 119, 
  "market": 120, 
  "!": 121, 
  "made": 122, 
  "because": 123, 
  "years": 124, 
  "those": 125, 
  "over": 126, 
  "after": 127, 
  "economic": 128, 
  "development": 129, 
  "where": 130, 
  "under": 131, 
  "way": 132, 
  "year": 133, 
  "however": 134, 
  "hotel": 135, 
  "world": 136, 
  "may": 137, 
  "just": 138, 
  "had": 139, 
  "public": 140, 
  "system": 141, 
  "being": 142, 
  "even": 143, 
  "how": 144, 
  "...": 145, 
  "through": 146, 
  "order": 147, 
  "therefore": 148, 
  "part": 149, 
  "area": 150, 
  "within": 151, 
  "see": 152, 
  "both": 153, 
  "here": 154, 
  "today": 155, 
  "right": 156, 
  "services": 157, 
  "political": 158, 
  "am": 159, 
  "against": 160, 
  "possible": 161, 
  "good": 162, 
  "could": 163, 
  "place": 164, 
  "country": 165, 
  "international": 166, 
  "rights": 167, 
  "national": 168, 
  "measures": 169, 
  "same": 170, 
  "social": 171, 
  "then": 172, 
  "number": 173, 
  "high": 174, 
  "de": 175, 
  "does": 176, 
  "financial": 177, 
  "available": 178, 
  "level": 179, 
  "since": 180, 
  "2": 181, 
  "own": 182, 
  "used": 183, 
  "without": 184, 
  "Commissioner": 185, 
  "products": 186, 
  "future": 187, 
  "able": 188, 
  "free": 189, 
  "long": 190, 
  "much": 191, 
  "want": 192, 
  "set": 193, 
  "further": 194, 
  "Community": 195, 
  "during": 196, 
  "before": 197, 
  "process": 198, 
  "already": 199, 
  "find": 200, 
  "still": 201, 
  "case": 202, 
  "view": 203, 
  "last": 204, 
  "1": 205, 
  "particular": 206, 
  "including": 207, 
  "proposal": 208, 
  "different": 209, 
  "end": 210, 
  "each": 211, 
  "energy": 212, 
  "data": 213, 
  "quality": 214, 
  "based": 215, 
  "point": 216, 
  "said": 217, 
  "areas": 218, 
  "ensure": 219, 
  "human": 220, 
  "agreement": 221, 
  "great": 222, 
  "cooperation": 223, 
  "fact": 224, 
  "s": 225, 
  "service": 226, 
  "access": 227, 
  "while": 228, 
  "help": 229, 
  "common": 230, 
  "know": 231, 
  "provide": 232, 
  "say": 233, 
  "me": 234, 
  "three": 235, 
  "situation": 236, 
  "State": 237, 
  "course": 238, 
  "business": 239, 
  "every": 240, 
  "aid": 241, 
  "too": 242, 
  "law": 243, 
  "cannot": 244, 
  "room": 245, 
  "Committee": 246, 
  "get": 247, 
  "believe": 248, 
  "day": 249, 
  "action": 250, 
  "means": 251, 
  "rules": 252, 
  "citizens": 253, 
  "best": 254, 
  "taken": 255, 
  "trade": 256, 
  "small": 257, 
  "3": 258, 
  "question": 259, 
  "protection": 260, 
  "example": 261, 
  "issue": 262, 
  "security": 263, 
  "debate": 264, 
  "necessary": 265, 
  "next": 266, 
  "given": 267, 
  "programme": 268, 
  "think": 269, 
  "offers": 270, 
  "clear": 271, 
  "sector": 272, 
  "why": 273, 
  "large": 274, 
  "full": 275, 
  "following": 276, 
  "city": 277, 
  "give": 278, 
  "change": 279, 
  "decision": 280, 
  "current": 281, 
  "company": 282, 
  "million": 283, 
  "better": 284, 
  "main": 285, 
  "state": 286, 
  "companies": 287, 
  "United": 288, 
  "put": 289, 
  "far": 290, 
  "needs": 291, 
  "problems": 292, 
  "adopted": 293, 
  "offer": 294, 
  "Hotel": 295, 
  "10": 296, 
  "basis": 297, 
  "legal": 298, 
  "position": 299, 
  "health": 300, 
  "another": 301, 
  "issues": 302, 
  "whether": 303, 
  "&#91;": 304, 
  "few": 305, 
  "conditions": 306, 
  "rooms": 307, 
  "&#93;": 308, 
  "together": 309, 
  "working": 310, 
  "production": 311, 
  "The": 312, 
  "problem": 313, 
  "come": 314, 
  "growth": 315, 
  "go": 316, 
  "role": 317, 
  "research": 318, 
  "making": 319, 
  "again": 320, 
  "second": 321, 
  "certain": 322, 
  "group": 323, 
  "present": 324, 
  "term": 325, 
  "life": 326, 
  "e": 327, 
  "located": 328, 
  "open": 329, 
  "Minister": 330, 
  "systems": 331, 
  "non": 332, 
  "real": 333, 
  "industry": 334, 
  "back": 335, 
  "4": 336, 
  "form": 337, 
  "specific": 338, 
  "particularly": 339, 
  "shall": 340, 
  "using": 341, 
  "general": 342, 
  "account": 343, 
  "management": 344, 
  "please": 345, 
  "special": 346, 
  "transport": 347, 
  "local": 348, 
  "continue": 349, 
  "around": 350, 
  "third": 351, 
  "her": 352, 
  "control": 353, 
  "framework": 354, 
  "environment": 355, 
  "down": 356, 
  "5": 357, 
  "authorities": 358, 
  "Germany": 359, 
  "government": 360, 
  "terms": 361, 
  "region": 362, 
  "result": 363, 
  "re@@": 364, 
  "activities": 365, 
  "Treaty": 366, 
  "progress": 367, 
  "Court": 368, 
  "budget": 369, 
  "become": 370, 
  "respect": 371, 
  "projects": 372, 
  "vote": 373, 
  "legislation": 374, 
  "always": 375, 
  "power": 376, 
  "less": 377, 
  "Group": 378, 
  "global": 379, 
  "project": 380, 
  "major": 381, 
  "implementation": 382, 
  "once": 383, 
  "hope": 384, 
  "un@@": 385, 
  "did": 386, 
  "women": 387, 
  "children": 388, 
  "&amp;": 389, 
  "stay": 390, 
  "crisis": 391, 
  "line": 392, 
  "&apos;t": 393, 
  "various": 394, 
  "competition": 395, 
  "several": 396, 
  "towards": 397, 
  "per": 398, 
  "experience": 399, 
  "period": 400, 
  "US": 401, 
  "food": 402, 
  "increase": 403, 
  "water": 404, 
  "i": 405, 
  "especially": 406, 
  "subject": 407, 
  "institutions": 408, 
  "create": 409, 
  "single": 410, 
  "key": 411, 
  "called": 412, 
  "private": 413, 
  "close": 414, 
  "let": 415, 
  "whole": 416, 
  "regional": 417, 
  "economy": 418, 
  "policies": 419, 
  "German": 420, 
  "approach": 421, 
  "thank": 422, 
  "effective": 423, 
  "provided": 424, 
  "proposals": 425, 
  "fully": 426, 
  "resources": 427, 
  "proposed": 428, 
  "yet": 429, 
  "Directive": 430, 
  "matter": 431, 
  "due": 432, 
  "field": 433, 
  "Mrs": 434, 
  "members": 435, 
  "safety": 436, 
  "interest": 437, 
  "regard": 438, 
  "done": 439, 
  "site": 440, 
  "environmental": 441, 
  "centre": 442, 
  "House": 443, 
  "found": 444, 
  "+": 445, 
  "strategy": 446, 
  "among": 447, 
  "concerned": 448, 
  "price": 449, 
  "start": 450, 
  "employment": 451, 
  "welcome": 452, 
  "forward": 453, 
  "directive": 454, 
  "investment": 455, 
  "least": 456, 
  "en": 457, 
  "look": 458, 
  "old": 459, 
  "until": 460, 
  "include": 461, 
  "taking": 462, 
  "itself": 463, 
  "efforts": 464, 
  "often": 465, 
  "importance": 466, 
  "2009": 467, 
  "costs": 468, 
  "range": 469, 
  "air": 470, 
  "allow": 471, 
  "20": 472, 
  "website": 473, 
  "meeting": 474, 
  "Affairs": 475, 
  "hand": 476, 
  "markets": 477, 
  "product": 478, 
  "training": 479, 
  "individual": 480, 
  "having": 481, 
  "application": 482, 
  "results": 483, 
  "she": 484, 
  "o": 485, 
  "according": 486, 
  "money": 487, 
  "really": 488, 
  "value": 489, 
  "modern": 490, 
  "list": 491, 
  "society": 492, 
  "opinion": 493, 
  "resolution": 494, 
  "provides": 495, 
  "going": 496, 
  "China": 497, 
  "opportunity": 498, 
  "staff": 499, 
  "improve": 500, 
  "standards": 501, 
  "something": 502, 
  "page": 503, 
  "technology": 504, 
  "although": 505, 
  "days": 506, 
  "rapporteur": 507, 
  "technical": 508, 
  "family": 509, 
  "above": 510, 
  "addition": 511, 
  "wish": 512, 
  "customers": 513, 
  "short": 514, 
  "risk": 515, 
  "rather": 516, 
  "internal": 517, 
  "off": 518, 
  "call": 519, 
  "parties": 520, 
  "thus": 521, 
  "recent": 522, 
  "education": 523, 
  "regions": 524, 
  "total": 525, 
  "building": 526, 
  "negotiations": 527, 
  "name": 528, 
  "30": 529, 
  "currently": 530, 
  "play": 531, 
  "enjoy": 532, 
  "away": 533, 
  "contact": 534, 
  "ask": 535, 
  "programmes": 536, 
  "location": 537, 
  "months": 538, 
  "responsibility": 539, 
  "home": 540, 
  "ladies": 541, 
  "excellent": 542, 
  "personal": 543, 
  "gentlemen": 544, 
  "15": 545, 
  "finally": 546, 
  "known": 547, 
  "press": 548, 
  "France": 549, 
  "software": 550, 
  "things": 551, 
  "requirements": 552, 
  "2010": 553, 
  "principle": 554, 
  "little": 555, 
  "responsible": 556, 
  "tax": 557, 
  "6": 558, 
  "points": 559, 
  "procedure": 560, 
  "step": 561, 
  "required": 562, 
  "four": 563, 
  "greater": 564, 
  "solution": 565, 
  "related": 566, 
  "developing": 567, 
  "might": 568, 
  "address": 569, 
  "cases": 570, 
  "12": 571, 
  "groups": 572, 
  "reform": 573, 
  "regulation": 574, 
  "existing": 575, 
  "2000": 576, 
  "text": 577, 
  "essential": 578, 
  "2007": 579, 
  "wide": 580, 
  "amendments": 581, 
  "2008": 582, 
  "quite": 583, 
  "questions": 584, 
  "rate": 585, 
  "others": 586, 
  "agree": 587, 
  "Madam": 588, 
  "attention": 589, 
  "Presidency": 590, 
  "achieve": 591, 
  "content": 592, 
  "impact": 593, 
  "needed": 594, 
  "him": 595, 
  "bring": 596, 
  "concerning": 597, 
  "operation": 598, 
  "makes": 599, 
  "light": 600, 
  "prices": 601, 
  "appropriate": 602, 
  "cost": 603, 
  "difficult": 604, 
  "co": 605, 
  "in@@": 606, 
  "network": 607, 
  "EUR": 608, 
  "design": 609, 
  "la": 610, 
  "times": 611, 
  "additional": 612, 
  "states": 613, 
  "clearly": 614, 
  "Russia": 615, 
  "objectives": 616, 
  "force": 617, 
  "show": 618, 
  "natural": 619, 
  "€": 620, 
  "favour": 621, 
  "funds": 622, 
  "reason": 623, 
  "context": 624, 
  "left": 625, 
  "young": 626, 
  "simply": 627, 
  "serious": 628, 
  "strong": 629, 
  "relations": 630, 
  "indeed": 631, 
  "climate": 632, 
  "Members": 633, 
  "developed": 634, 
  "capital": 635, 
  "complete": 636, 
  "behalf": 637, 
  "sustainable": 638, 
  "assistance": 639, 
  "cultural": 640, 
  "note": 641, 
  "visit": 642, 
  "S@@": 643, 
  "7": 644, 
  "concerns": 645, 
  "easy": 646, 
  "agreed": 647, 
  "changes": 648, 
  "involved": 649, 
  "Article": 650, 
  "decisions": 651, 
  "significant": 652, 
  "meet": 653, 
  "es": 654, 
  "y": 655, 
  "town": 656, 
  "share": 657, 
  "along": 658, 
  "past": 659, 
  "side": 660, 
  "central": 661, 
  "8": 662, 
  "Internet": 663, 
  "across": 664, 
  "upon": 665, 
  "peace": 666, 
  "workers": 667, 
  "plan": 668, 
  "interests": 669, 
  "member": 670, 
  "date": 671, 
  "established": 672, 
  "longer": 673, 
  "deal": 674, 
  "World": 675, 
  "positive": 676, 
  "freedom": 677, 
  "version": 678, 
  "foreign": 679, 
  "s@@": 680, 
  "themselves": 681, 
  "*": 682, 
  "nature": 683, 
  "objective": 684, 
  "directly": 685, 
  "held": 686, 
  "solutions": 687, 
  "five": 688, 
  "sea": 689, 
  "euro": 690, 
  "minutes": 691, 
  "democracy": 692, 
  "A@@": 693, 
  "P@@": 694, 
  "communication": 695, 
  "request": 696, 
  "potential": 697, 
  "low": 698, 
  "online": 699, 
  "consumers": 700, 
  "Republic": 701, 
  "_": 702, 
  "border": 703, 
  "views": 704, 
  "aim": 705, 
  "agreements": 706, 
  "partners": 707, 
  "50": 708, 
  "m": 709, 
  "direct": 710, 
  "final": 711, 
  "Justice": 712, 
  "International": 713, 
  "French": 714, 
  "2006": 715, 
  "soon": 716, 
  "apply": 717, 
  "events": 718, 
  "dialogue": 719, 
  "joint": 720, 
  "democratic": 721, 
  "integration": 722, 
  "C@@": 723, 
  "beautiful": 724, 
  "initiative": 725, 
  "jobs": 726, 
  "words": 727, 
  "d": 728, 
  "effect": 729, 
  "Italy": 730, 
  "early": 731, 
  "almost": 732, 
  "priority": 733, 
  "11": 734, 
  "fundamental": 735, 
  "throughout": 736, 
  "benefit": 737, 
  "ed": 738, 
  "Spain": 739, 
  "user": 740, 
  "&apos;@@": 741, 
  "lead": 742, 
  "pay": 743, 
  "event": 744, 
  "took": 745, 
  "road": 746, 
  "via": 747, 
  "consider": 748, 
  "language": 749, 
  "kind": 750, 
  "keep": 751, 
  "B@@": 752, 
  "decided": 753, 
  "either": 754, 
  "heart": 755, 
  "guests": 756, 
  "T@@": 757, 
  "promote": 758, 
  "develop": 759, 
  "situated": 760, 
  "facilities": 761, 
  "sure": 762, 
  "created": 763, 
  "enough": 764, 
  "takes": 765, 
  "agricultural": 766, 
  "knowledge": 767, 
  "though": 768, 
  "top": 769, 
  "regarding": 770, 
  "later": 771, 
  "actions": 772, 
  "designed": 773, 
  "history": 774, 
  "century": 775, 
  "majority": 776, 
  "feel": 777, 
  "goods": 778, 
  "person": 779, 
  "funding": 780, 
  "active": 781, 
  "commitment": 782, 
  "success": 783, 
  "exchange": 784, 
  "population": 785, 
  "Turkey": 786, 
  "car": 787, 
  "near": 788, 
  "Government": 789, 
  "ago": 790, 
  "A": 791, 
  "never": 792, 
  "house": 793, 
  "levels": 794, 
  "pages": 795, 
  "follow": 796, 
  "outside": 797, 
  "K@@": 798, 
  "G@@": 799, 
  "remain": 800, 
  "increased": 801, 
  "Development": 802, 
  "g@@": 803, 
  "standard": 804, 
  "receive": 805, 
  "living": 806, 
  "D@@": 807, 
  "comes": 808, 
  "reach": 809, 
  "ing": 810, 
  "run": 811, 
  "capacity": 812, 
  "procedures": 813, 
  "included": 814, 
  "looking": 815, 
  "focus": 816, 
  "live": 817, 
  "Bank": 818, 
  "practice": 819, 
  "provisions": 820, 
  "25": 821, 
  "amount": 822, 
  "type": 823, 
  "k@@": 824, 
  "civil": 825, 
  "2005": 826, 
  "package": 827, 
  "users": 828, 
  "principles": 829, 
  "guarantee": 830, 
  "care": 831, 
  "&#124;": 832, 
  "higher": 833, 
  "voted": 834, 
  "art": 835, 
  "breakfast": 836, 
  "performance": 837, 
  "media": 838, 
  "everything": 839, 
  "external": 840, 
  "June": 841, 
  "extremely": 842, 
  "fight": 843, 
  "thanks": 844, 
  "relevant": 845, 
  "reduce": 846, 
  "true": 847, 
  "L@@": 848, 
  "treatment": 849, 
  "t@@": 850, 
  "leading": 851, 
  "war": 852, 
  "seen": 853, 
  "includes": 854, 
  "al": 855, 
  "consumer": 856, 
  "community": 857, 
  "concern": 858, 
  "General": 859, 
  "basic": 860, 
  "below": 861, 
  "opportunities": 862, 
  "supply": 863, 
  "e@@": 864, 
  "Office": 865, 
  "2004": 866, 
  "land": 867, 
  "restaurant": 868, 
  "Lisbon": 869, 
  "100": 870, 
  "parts": 871, 
  "N@@": 872, 
  "EC": 873, 
  "works": 874, 
  "M@@": 875, 
  "age": 876, 
  "ten": 877, 
  "creation": 878, 
  "achieved": 879, 
  "industrial": 880, 
  "demand": 881, 
  "actually": 882, 
  "team": 883, 
  "d@@": 884, 
  "rates": 885, 
  "check": 886, 
  "presented": 887, 
  "unique": 888, 
  "military": 889, 
  "er": 890, 
  "contribution": 891, 
  "2003": 892, 
  "received": 893, 
  "space": 894, 
  "stage": 895, 
  "providing": 896, 
  "half": 897, 
  "equipment": 898, 
  "cross": 899, 
  "ever": 900, 
  "24": 901, 
  "carried": 902, 
  "music": 903, 
  "click": 904, 
  "recently": 905, 
  "turn": 906, 
  "doing": 907, 
  "increasing": 908, 
  "lot": 909, 
  "South": 910, 
  "friendly": 911, 
  "traditional": 912, 
  "reports": 913, 
  "9": 914, 
  "V@@": 915, 
  "idea": 916, 
  "professional": 917, 
  "draft": 918, 
  "accept": 919, 
  "understand": 920, 
  "billion": 921, 
  "etc": 922, 
  "der": 923, 
  "release": 924, 
  "en@@": 925, 
  "week": 926, 
  "di@@": 927, 
  "allows": 928, 
  "act": 929, 
  "E@@": 930, 
  "F@@": 931, 
  "thing": 932, 
  "built": 933, 
  "file": 934, 
  "response": 935, 
  "stability": 936, 
  "certainly": 937, 
  "Convention": 938, 
  "added": 939, 
  "add": 940, 
  "applications": 941, 
  "December": 942, 
  "effects": 943, 
  "reasons": 944, 
  "book": 945, 
  "prevent": 946, 
  "enlargement": 947, 
  "de@@": 948, 
  "H@@": 949, 
  "features": 950, 
  "review": 951, 
  "setting": 952, 
  "America": 953, 
  "job": 954, 
  "man": 955, 
  "mentioned": 956, 
  "men": 957, 
  "party": 958, 
  "considered": 959, 
  "values": 960, 
  "C": 961, 
  "culture": 962, 
  "return": 963, 
  "km": 964, 
  "governments": 965, 
  "perhaps": 966, 
  "2001": 967, 
  "instead": 968, 
  "limited": 969, 
  "try": 970, 
  "2002": 971, 
  "body": 972, 
  "connection": 973, 
  "program": 974, 
  "t": 975, 
  "successful": 976, 
  "American": 977, 
  "customer": 978, 
  "aspects": 979, 
  "labour": 980, 
  "face": 981, 
  "background": 982, 
  "big": 983, 
  "l": 984, 
  "hours": 985, 
  "enable": 986, 
  "O@@": 987, 
  "c@@": 988, 
  "bar": 989, 
  "model": 990, 
  "y@@": 991, 
  "challenges": 992, 
  "reached": 993, 
  "latest": 994, 
  "i@@": 995, 
  "Africa": 996, 
  "move": 997, 
  "send": 998, 
  "Agreement": 999, 
  "comfortable": 1000, 
  "famous": 1001, 
  "nothing": 1002, 
  "hard": 1003, 
  "beach": 1004, 
  "remains": 1005, 
  "despite": 1006, 
  "East": 1007, 
  "nuclear": 1008, 
  ".@@": 1009, 
  "choice": 1010, 
  "mail": 1011, 
  "internet": 1012, 
  "overall": 1013, 
  "ideal": 1014, 
  "previous": 1015, 
  "night": 1016, 
  "efficient": 1017, 
  "benefits": 1018, 
  "led": 1019, 
  "lack": 1020, 
  "organisations": 1021, 
  "balance": 1022, 
  "Regulation": 1023, 
  "gas": 1024, 
  "submitted": 1025, 
  "station": 1026, 
  "aware": 1027, 
  "oil": 1028, 
  "sectors": 1029, 
  "committee": 1030, 
  "innovation": 1031, 
  "former": 1032, 
  "instruments": 1033, 
  "z@@": 1034, 
  "Economic": 1035, 
  "commercial": 1036, 
  "web": 1037, 
  "read": 1038, 
  "accession": 1039, 
  "moment": 1040, 
  "New": 1041, 
  "movement": 1042, 
  "matters": 1043, 
  "Greece": 1044, 
  "TV": 1045, 
  "waste": 1046, 
  "completely": 1047, 
  "ways": 1048, 
  "o@@": 1049, 
  "original": 1050, 
  "R@@": 1051, 
  "shows": 1052, 
  "writing": 1053, 
  "everyone": 1054, 
  "material": 1055, 
  "32": 1056, 
  "quickly": 1057, 
  "steps": 1058, 
  "conference": 1059, 
  "series": 1060, 
  "Fund": 1061, 
  "beginning": 1062, 
  "ers": 1063, 
  "fishing": 1064, 
  "regards": 1065, 
  "asked": 1066, 
  "choose": 1067, 
  "amendment": 1068, 
  "di": 1069, 
  "000": 1070, 
  "medium": 1071, 
  "possibility": 1072, 
  "Mediterranean": 1073, 
  "six": 1074, 
  "contains": 1075, 
  "details": 1076, 
  "entire": 1077, 
  "13": 1078, 
  "conclusions": 1079, 
  "highly": 1080, 
  "Central": 1081, 
  "re": 1082, 
  "similar": 1083, 
  "contribute": 1084, 
  "infrastructure": 1085, 
  "u@@": 1086, 
  "rule": 1087, 
  "coming": 1088, 
  "self": 1089, 
  "priorities": 1090, 
  "protect": 1091, 
  "independent": 1092, 
  "criteria": 1093, 
  "travel": 1094, 
  "ate": 1095, 
  "stop": 1096, 
  "purpose": 1097, 
  "supported": 1098, 
  "perfect": 1099, 
  "UN": 1100, 
  "March": 1101, 
  "p@@": 1102, 
  "equipped": 1103, 
  "annual": 1104, 
  "game": 1105, 
  "office": 1106, 
  "pool": 1107, 
  "furthermore": 1108, 
  "monitoring": 1109, 
  "discussion": 1110, 
  "holiday": 1111, 
  "Austria": 1112, 
  "Foreign": 1113, 
  "simple": 1114, 
  "reduction": 1115, 
  "le": 1116, 
  "businesses": 1117, 
  "whose": 1118, 
  "m@@": 1119, 
  "Ireland": 1120, 
  "er@@": 1121, 
  "transparency": 1122, 
  "v@@": 1123, 
  "fair": 1124, 
  "financing": 1125, 
  "an@@": 1126, 
  "18": 1127, 
  "creating": 1128, 
  "May": 1129, 
  "integrated": 1130, 
  "table": 1131, 
  "sense": 1132, 
  "moreover": 1133, 
  "English": 1134, 
  "W@@": 1135, 
  "activity": 1136, 
  "September": 1137, 
  "f@@": 1138, 
  "mean": 1139, 
  "No": 1140, 
  "card": 1141, 
  "October": 1142, 
  "persons": 1143, 
  "brought": 1144, 
  "Brussels": 1145, 
  "implemented": 1146, 
  "legislative": 1147, 
  "don": 1148, 
  "study": 1149, 
  "efficiency": 1150, 
  "14": 1151, 
  "al@@": 1152, 
  "document": 1153, 
  "sound": 1154, 
  "seems": 1155, 
  "implement": 1156, 
  "walk": 1157, 
  "b@@": 1158, 
  "function": 1159, 
  "January": 1160, 
  "el": 1161, 
  "size": 1162, 
  "UK": 1163, 
  "image": 1164, 
  "construction": 1165, 
  "forms": 1166, 
  "Policy": 1167, 
  "approved": 1168, 
  "reforms": 1169, 
  "B": 1170, 
  "calls": 1171, 
  "prepared": 1172, 
  "assessment": 1173, 
  "shown": 1174, 
  "mind": 1175, 
  "published": 1176, 
  "materials": 1177, 
  "double": 1178, 
  "initiatives": 1179, 
  "comprehensive": 1180, 
  "pressure": 1181, 
  "gives": 1182, 
  "credit": 1183, 
  "40": 1184, 
  "behind": 1185, 
  "July": 1186, 
  "expected": 1187, 
  "applied": 1188, 
  "effort": 1189, 
  "complex": 1190, 
  "largest": 1191, 
  "structural": 1192, 
  "agenda": 1193, 
  "improving": 1194, 
  "huge": 1195, 
  "files": 1196, 
  "ch@@": 1197, 
  "answer": 1198, 
  "style": 1199, 
  "written": 1200, 
  "establish": 1201, 
  "computer": 1202, 
  "documents": 1203, 
  "analysis": 1204, 
  "partner": 1205, 
  "nor": 1206, 
  "require": 1207, 
  "charge": 1208, 
  "ability": 1209, 
  "property": 1210, 
  "distribution": 1211, 
  "payment": 1212, 
  "a@@": 1213, 
  "Italian": 1214, 
  "direction": 1215, 
  "regulations": 1216, 
  "requires": 1217, 
  "sites": 1218, 
  "minimum": 1219, 
  "poverty": 1220, 
  "accordance": 1221, 
  "competitive": 1222, 
  "k": 1223, 
  "�": 1224, 
  "search": 1225, 
  "hotels": 1226, 
  "scientific": 1227, 
  "technologies": 1228, 
  "b": 1229, 
  "rest": 1230, 
  "November": 1231, 
  "guest": 1232, 
  "$": 1233, 
  "Berlin": 1234, 
  "16": 1235, 
  "reviews": 1236, 
  "beyond": 1237, 
  "competitiveness": 1238, 
  "c": 1239, 
  "source": 1240, 
  "growing": 1241, 
  "center": 1242, 
  "leave": 1243, 
  "elements": 1244, 
  "ensuring": 1245, 
  "unfortunately": 1246, 
  "digital": 1247, 
  "banks": 1248, 
  "mobile": 1249, 
  "produced": 1250, 
  "test": 1251, 
  "board": 1252, 
  "keyword": 1253, 
  "safe": 1254, 
  "u": 1255, 
  "li@@": 1256, 
  "paid": 1257, 
  "structure": 1258, 
  "emissions": 1259, 
  "status": 1260, 
  "summer": 1261, 
  "und": 1262, 
  "participation": 1263, 
  "speed": 1264, 
  "avoid": 1265, 
  "anti": 1266, 
  "rural": 1267, 
  "easily": 1268, 
  "Spanish": 1269, 
  "statement": 1270, 
  "strengthen": 1271, 
  "1999": 1272, 
  "enter": 1273, 
  "ground": 1274, 
  "violence": 1275, 
  "tools": 1276, 
  "elections": 1277, 
  "Poland": 1278, 
  "conflict": 1279, 
  "agriculture": 1280, 
  "link": 1281, 
  "came": 1282, 
  "j@@": 1283, 
  "allowed": 1284, 
  "II": 1285, 
  "cause": 1286, 
  "I@@": 1287, 
  "relation": 1288, 
  "equal": 1289, 
  "started": 1290, 
  "closed": 1291, 
  "aims": 1292, 
  "Social": 1293, 
  "reference": 1294, 
  "giving": 1295, 
  "crucial": 1296, 
  "relating": 1297, 
  "categories": 1298, 
  "star": 1299, 
  "representatives": 1300, 
  "Secretary": 1301, 
  "target": 1302, 
  "n@@": 1303, 
  "plans": 1304, 
  "strategic": 1305, 
  "administrative": 1306, 
  "ts": 1307, 
  "places": 1308, 
  "die": 1309, 
  "practical": 1310, 
  "damage": 1311, 
  "l@@": 1312, 
  "accommodation": 1313, 
  "humanitarian": 1314, 
  "adoption": 1315, 
  "North": 1316, 
  "speak": 1317, 
  "00": 1318, 
  "produce": 1319, 
  "front": 1320, 
  "video": 1321, 
  "floor": 1322, 
  "J@@": 1323, 
  "popular": 1324, 
  "Rights": 1325, 
  "scope": 1326, 
  "National": 1327, 
  "improved": 1328, 
  "ated": 1329, 
  "official": 1330, 
  "Kingdom": 1331, 
  "operating": 1332, 
  "et": 1333, 
  "innovative": 1334, 
  "nice": 1335, 
  "British": 1336, 
  "post": 1337, 
  "partnership": 1338, 
  "types": 1339, 
  "farmers": 1340, 
  "sent": 1341, 
  "ar@@": 1342, 
  "pleased": 1343, 
  "bus": 1344, 
  "developments": 1345, 
  "D": 1346, 
  "maximum": 1347, 
  "lower": 1348, 
  "build": 1349, 
  "aimed": 1350, 
  "solidarity": 1351, 
  "April": 1352, 
  "clean": 1353, 
  "opening": 1354, 
  "budgetary": 1355, 
  "terrorism": 1356, 
  "si@@": 1357, 
  "cohesion": 1358, 
  "consequences": 1359, 
  "cover": 1360, 
  "school": 1361, 
  "®": 1362, 
  "instrument": 1363, 
  "adopt": 1364, 
  "ti@@": 1365, 
  "committed": 1366, 
  "task": 1367, 
  "atmosphere": 1368, 
  "carry": 1369, 
  "message": 1370, 
  "bed": 1371, 
  "h@@": 1372, 
  "guidelines": 1373, 
  "compromise": 1374, 
  "tool": 1375, 
  "links": 1376, 
  "starting": 1377, 
  "ation": 1378, 
  "island": 1379, 
  "variety": 1380, 
  "Czech": 1381, 
  "encourage": 1382, 
  "reading": 1383, 
  "establishment": 1384, 
  "highest": 1385, 
  "Netherlands": 1386, 
  "-@@": 1387, 
  "average": 1388, 
  "transfer": 1389, 
  "THE": 1390, 
  "base": 1391, 
  "unemployment": 1392, 
  "Conference": 1393, 
  "airport": 1394, 
  "concept": 1395, 
  "code": 1396, 
  "ready": 1397, 
  "affected": 1398, 
  "Western": 1399, 
  "immediately": 1400, 
  "employees": 1401, 
  "offered": 1402, 
  "T": 1403, 
  "Z@@": 1404, 
  "se": 1405, 
  "lines": 1406, 
  "expressed": 1407, 
  "des": 1408, 
  "Programme": 1409, 
  "sometimes": 1410, 
  "contacts": 1411, 
  "challenge": 1412, 
  "option": 1413, 
  "forces": 1414, 
  "intended": 1415, 
  "implementing": 1416, 
  "became": 1417, 
  "promoting": 1418, 
  "GDP": 1419, 
  "processes": 1420, 
  "bank": 1421, 
  "enterprises": 1422, 
  "operations": 1423, 
  "discussions": 1424, 
  "measure": 1425, 
  "networks": 1426, 
  "sales": 1427, 
  "fields": 1428, 
  "interested": 1429, 
  "class": 1430, 
  "mainly": 1431, 
  "fisheries": 1432, 
  "scale": 1433, 
  "5@@": 1434, 
  "decide": 1435, 
  "numerous": 1436, 
  "reduced": 1437, 
  "section": 1438, 
  "OF": 1439, 
  "contract": 1440, 
  "download": 1441, 
  "coordination": 1442, 
  "leaders": 1443, 
  "x": 1444, 
  "cities": 1445, 
  "secondly": 1446, 
  "ro@@": 1447, 
  "provision": 1448, 
  "borders": 1449, 
  "n": 1450, 
  "risks": 1451, 
  "daily": 1452, 
  "Market": 1453, 
  "confidence": 1454, 
  "debt": 1455, 
  "offering": 1456, 
  "extent": 1457, 
  "apartment": 1458, 
  "powers": 1459, 
  "drive": 1460, 
  "sub": 1461, 
  "conclusion": 1462, 
  "distance": 1463, 
  "stand": 1464, 
  "te": 1465, 
  "ideas": 1466, 
  "languages": 1467, 
  "illegal": 1468, 
  "draw": 1469, 
  "Service": 1470, 
  "covered": 1471, 
  "p": 1472, 
  "interesting": 1473, 
  "electronic": 1474, 
  "detailed": 1475, 
  "players": 1476, 
  "commitments": 1477, 
  "late": 1478, 
  "reality": 1479, 
  "express": 1480, 
  "17": 1481, 
  "worldwide": 1482, 
  "phone": 1483, 
  "wine": 1484, 
  "tell": 1485, 
  "death": 1486, 
  "month": 1487, 
  "historical": 1488, 
  "caused": 1489, 
  "da": 1490, 
  "useful": 1491, 
  "6@@": 1492, 
  "lives": 1493, 
  "effectively": 1494, 
  "supporting": 1495, 
  "round": 1496, 
  "secure": 1497, 
  "methods": 1498, 
  "alternative": 1499, 
  "likely": 1500, 
  "advantage": 1501, 
  "firstly": 1502, 
  "4@@": 1503, 
  "goes": 1504, 
  "Security": 1505, 
  "options": 1506, 
  "weeks": 1507, 
  "item": 1508, 
  "Russian": 1509, 
  "finance": 1510, 
  "sources": 1511, 
  "regime": 1512, 
  "crime": 1513, 
  "met": 1514, 
  "dis@@": 1515, 
  "administration": 1516, 
  "Israel": 1517, 
  "rise": 1518, 
  "practices": 1519, 
  "IP": 1520, 
  "maintain": 1521, 
  "traffic": 1522, 
  "bodies": 1523, 
  "Vice": 1524, 
  "justice": 1525, 
  "child": 1526, 
  "ourselves": 1527, 
  "U@@": 1528, 
  "join": 1529, 
  "consultation": 1530, 
  "restaurants": 1531, 
  "poor": 1532, 
  "fish": 1533, 
  "WTO": 1534, 
  "g": 1535, 
  "tomorrow": 1536, 
  "animal": 1537, 
  "expect": 1538, 
  "learn": 1539, 
  "processing": 1540, 
  "del": 1541, 
  "60": 1542, 
  "income": 1543, 
  "Ms": 1544, 
  "raised": 1545, 
  "green": 1546, 
  "EIB": 1547, 
  "otherwise": 1548, 
  "ri@@": 1549, 
  "introduced": 1550, 
  "discussed": 1551, 
  "planning": 1552, 
  "cut": 1553, 
  "relationship": 1554, 
  "Association": 1555, 
  "students": 1556, 
  "Portugal": 1557, 
  "Japan": 1558, 
  "entry": 1559, 
  "extra": 1560, 
  "closely": 1561, 
  "8@@": 1562, 
  "introduction": 1563, 
  "&apos;ll": 1564, 
  "voting": 1565, 
  "goal": 1566, 
  "supports": 1567, 
  "circumstances": 1568, 
  "st@@": 1569, 
  "nevertheless": 1570, 
  "increasingly": 1571, 
  "delivery": 1572, 
  "items": 1573, 
  "colleagues": 1574, 
  "ar": 1575, 
  "obligations": 1576, 
  "payments": 1577, 
  "que": 1578, 
  "7@@": 1579, 
  "Nations": 1580, 
  "sufficient": 1581, 
  "method": 1582, 
  "hold": 1583, 
  "fine": 1584, 
  "red": 1585, 
  "Ministers": 1586, 
  "granted": 1587, 
  "news": 1588, 
  "strengthening": 1589, 
  "word": 1590, 
  "vital": 1591, 
  "village": 1592, 
  "currency": 1593, 
  "Sweden": 1594, 
  "selection": 1595, 
  "19": 1596, 
  "train": 1597, 
  "refer": 1598, 
  "park": 1599, 
  "talk": 1600, 
  "film": 1601, 
  "discrimination": 1602, 
  "apartments": 1603, 
  "begin": 1604, 
  "laws": 1605, 
  "signed": 1606, 
  "Chinese": 1607, 
  "experts": 1608, 
  "ones": 1609, 
  "domestic": 1610, 
  "institutional": 1611, 
  "fast": 1612, 
  "Paris": 1613, 
  "friends": 1614, 
  "accepted": 1615, 
  "discuss": 1616, 
  "Party": 1617, 
  "limit": 1618, 
  "saying": 1619, 
  "Windows": 1620, 
  "27": 1621, 
  "S": 1622, 
  "rich": 1623, 
  "alone": 1624, 
  "ra@@": 1625, 
  "or@@": 1626, 
  "animals": 1627, 
  "victims": 1628, 
  "Romania": 1629, 
  "historic": 1630, 
  "happy": 1631, 
  "fall": 1632, 
  "probably": 1633, 
  "Belgium": 1634, 
  "broad": 1635, 
  "Ukraine": 1636, 
  "co@@": 1637, 
  "21": 1638, 
  "Centre": 1639, 
  "proper": 1640, 
  "participants": 1641, 
  "stated": 1642, 
  "generally": 1643, 
  "concrete": 1644, 
  "recommendations": 1645, 
  "clients": 1646, 
  "quiet": 1647, 
  "listed": 1648, 
  "reducing": 1649, 
  "Luxembourg": 1650, 
  "namely": 1651, 
  "influence": 1652, 
  "=": 1653, 
  "substantial": 1654, 
  "0": 1655, 
  "parking": 1656, 
  "congratulate": 1657, 
  "West": 1658, 
  "vehicles": 1659, 
  "2013": 1660, 
  "compared": 1661, 
  "es@@": 1662, 
  "Trade": 1663, 
  "lost": 1664, 
  "associated": 1665, 
  "chance": 1666, 
  "placed": 1667, 
  "continued": 1668, 
  "comments": 1669, 
  "server": 1670, 
  "followed": 1671, 
  "establishing": 1672, 
  "be@@": 1673, 
  "authority": 1674, 
  "considerable": 1675, 
  "usually": 1676, 
  "represent": 1677, 
  "protected": 1678, 
  "February": 1679, 
  "represents": 1680, 
  "purposes": 1681, 
  "head": 1682, 
  "opened": 1683, 
  "bit": 1684, 
  "Iraq": 1685, 
  "selected": 1686, 
  "at@@": 1687, 
  "linked": 1688, 
  "thought": 1689, 
  "defined": 1690, 
  "India": 1691, 
  "visitors": 1692, 
  "scheme": 1693, 
  "meetings": 1694, 
  "plant": 1695, 
  "medical": 1696, 
  "pre": 1697, 
  "concluded": 1698, 
  "machine": 1699, 
  "separate": 1700, 
  "mountain": 1701, 
  "0@@": 1702, 
  "specifically": 1703, 
  "uses": 1704, 
  "email": 1705, 
  "Y@@": 1706, 
  "anything": 1707, 
  "se@@": 1708, 
  "le@@": 1709, 
  "marketing": 1710, 
  "tourism": 1711, 
  "regular": 1712, 
  "London": 1713, 
  "critical": 1714, 
  "w@@": 1715, 
  "Action": 1716, 
  "informed": 1717, 
  "duty": 1718, 
  "organised": 1719, 
  "demands": 1720, 
  "sports": 1721, 
  "expenditure": 1722, 
  "E": 1723, 
  "worked": 1724, 
  "improvement": 1725, 
  "fiscal": 1726, 
  "Sea": 1727, 
  "investigation": 1728, 
  "University": 1729, 
  "managed": 1730, 
  "compliance": 1731, 
  "den": 1732, 
  "on@@": 1733, 
  "1998": 1734, 
  "trading": 1735, 
  "collection": 1736, 
  "manner": 1737, 
  "shopping": 1738, 
  "running": 1739, 
  "fixed": 1740, 
  "regulatory": 1741, 
  "paper": 1742, 
  "got": 1743, 
  "Asia": 1744, 
  "SMEs": 1745, 
  "consumption": 1746, 
  "22": 1747, 
  "police": 1748, 
  "changed": 1749, 
  "mention": 1750, 
  "operators": 1751, 
  "Eastern": 1752, 
  "participate": 1753, 
  "stress": 1754, 
  "200": 1755, 
  "prior": 1756, 
  "insurance": 1757, 
  "heard": 1758, 
  "skills": 1759, 
  "families": 1760, 
  "AG": 1761, 
  "figures": 1762, 
  "producers": 1763, 
  "organisation": 1764, 
  "9@@": 1765, 
  "earlier": 1766, 
  "Environment": 1767, 
  "sets": 1768, 
  "morning": 1769, 
  "referred": 1770, 
  "correct": 1771, 
  "session": 1772, 
  "doubt": 1773, 
  "recognition": 1774, 
  "games": 1775, 
  "sized": 1776, 
  "facing": 1777, 
  "targets": 1778, 
  "Prime": 1779, 
  "failure": 1780, 
  "extensive": 1781, 
  "origin": 1782, 
  "80": 1783, 
  "ates": 1784, 
  "O": 1785, 
  "r@@": 1786, 
  "IT": 1787, 
  "trying": 1788, 
  "player": 1789, 
  "wanted": 1790, 
  "images": 1791, 
  "launched": 1792, 
  "GmbH": 1793, 
  "serve": 1794, 
  "difficulties": 1795, 
  "http": 1796, 
  "export": 1797, 
  "suitable": 1798, 
  "lies": 1799, 
  "X": 1800, 
  "governance": 1801, 
  "Middle": 1802, 
  "sign": 1803, 
  "speaking": 1804, 
  "over@@": 1805, 
  "candidate": 1806, 
  "ations": 1807, 
  "am@@": 1808, 
  "absolutely": 1809, 
  "pass": 1810, 
  "Bulgaria": 1811, 
  "investments": 1812, 
  "bathroom": 1813, 
  "structures": 1814, 
  "comply": 1815, 
  "exist": 1816, 
  "criminal": 1817, 
  "understanding": 1818, 
  "Federal": 1819, 
  "economies": 1820, 
  "z": 1821, 
  "recovery": 1822, 
  "founded": 1823, 
  "os": 1824, 
  "garden": 1825, 
  "500": 1826, 
  "ating": 1827, 
  "combat": 1828, 
  "evidence": 1829, 
  "larger": 1830, 
  "Iran": 1831, 
  "Switzerland": 1832, 
  "loss": 1833, 
  "swimming": 1834, 
  "select": 1835, 
  "street": 1836, 
  "monetary": 1837, 
  "les": 1838, 
  "promotion": 1839, 
  "degree": 1840, 
  "Strategy": 1841, 
  "raise": 1842, 
  "functions": 1843, 
  "um": 1844, 
  "port": 1845, 
  "components": 1846, 
  "presence": 1847, 
  "ahead": 1848, 
  "immigration": 1849, 
  "ge@@": 1850, 
  "powerful": 1851, 
  "arrangements": 1852, 
  "2020": 1853, 
  "feature": 1854, 
  "fund": 1855, 
  "announced": 1856, 
  "automatically": 1857, 
  "record": 1858, 
  "comfort": 1859, 
  "welcomes": 1860, 
  "African": 1861, 
  "minute": 1862, 
  "San": 1863, 
  "positions": 1864, 
  "Euro": 1865, 
  "Agriculture": 1866, 
  "urban": 1867, 
  "membership": 1868, 
  "learning": 1869, 
  "h": 1870, 
  "generation": 1871, 
  "plants": 1872, 
  "www.@@": 1873, 
  "Research": 1874, 
  "pre@@": 1875, 
  "infringement": 1876, 
  "walking": 1877, 
  "City": 1878, 
  "flexibility": 1879, 
  "23": 1880, 
  "Park": 1881, 
  "@": 1882, 
  "born": 1883, 
  "white": 1884, 
  "unless": 1885, 
  "worth": 1886, 
  "hour": 1887, 
  "becoming": 1888, 
  "getting": 1889, 
  "consideration": 1890, 
  "th@@": 1891, 
  "began": 1892, 
  "talking": 1893, 
  "tourist": 1894, 
  "says": 1895, 
  "properly": 1896, 
  "el@@": 1897, 
  "e.g.": 1898, 
  "played": 1899, 
  "appear": 1900, 
  "ski": 1901, 
  "Europeans": 1902, 
  "studies": 1903, 
  "per@@": 1904, 
  "3@@": 1905, 
  ".com": 1906, 
  "con@@": 1907, 
  "track": 1908, 
  "territory": 1909, 
  "Public": 1910, 
  "1997": 1911, 
  "yourself": 1912, 
  "inside": 1913, 
  "advanced": 1914, 
  "stock": 1915, 
  "buildings": 1916, 
  "whom": 1917, 
  "defence": 1918, 
  "Hungary": 1919, 
  "mutual": 1920, 
  "controls": 1921, 
  "continues": 1922, 
  "outcome": 1923, 
  "thousands": 1924, 
  "playing": 1925, 
  "menu": 1926, 
  "purchase": 1927, 
  "shared": 1928, 
  "closer": 1929, 
  "agencies": 1930, 
  "2011": 1931, 
  "installation": 1932, 
  "Cyprus": 1933, 
  "AND": 1934, 
  "significantly": 1935, 
  "asylum": 1936, 
  "wants": 1937, 
  "path": 1938, 
  "applies": 1939, 
  "als": 1940, 
  "trust": 1941, 
  "differences": 1942, 
  "&apos;re": 1943, 
  "Health": 1944, 
  "evening": 1945, 
  "buy": 1946, 
  "fresh": 1947, 
  "evaluation": 1948, 
  "love": 1949, 
  "easier": 1950, 
  "propose": 1951, 
  "r": 1952, 
  "exclusive": 1953, 
  "facilitate": 1954, 
  "men@@": 1955, 
  "inter@@": 1956, 
  "stable": 1957, 
  "operational": 1958, 
  "Energy": 1959, 
  "combined": 1960, 
  "tabled": 1961, 
  "save": 1962, 
  "August": 1963, 
  "as@@": 1964, 
  "flexible": 1965, 
  "approval": 1966, 
  "Barcelona": 1967, 
  "precisely": 1968, 
  "ly": 1969, 
  "Greek": 1970, 
  "achieving": 1971, 
  "bad": 1972, 
  "Al@@": 1973, 
  "respond": 1974, 
  "ting": 1975, 
  "summit": 1976, 
  "binding": 1977, 
  "immediate": 1978, 
  "prevention": 1979, 
  "terrace": 1980, 
  "modified": 1981, 
  "negative": 1982, 
  "south": 1983, 
  "spend": 1984, 
  "laid": 1985, 
  "transparent": 1986, 
  "electricity": 1987, 
  "sides": 1988, 
  "mechanism": 1989, 
  "balanced": 1990, 
  "allowing": 1991, 
  "Agency": 1992, 
  "initial": 1993, 
  "mobility": 1994, 
  "dealing": 1995, 
  "presidency": 1996, 
  "exercise": 1997, 
  "High": 1998, 
  "Amendment": 1999, 
  "exactly": 2000, 
  "remember": 2001, 
  "im@@": 2002, 
  "ter@@": 2003, 
  "wrong": 2004, 
  "ist": 2005, 
  "follows": 2006, 
  "speech": 2007, 
  "served": 2008, 
  "phase": 2009, 
  "programs": 2010, 
  "ab@@": 2011, 
  "mission": 2012, 
  "Paper": 2013, 
  "spending": 2014, 
  "map": 2015, 
  "threat": 2016, 
  "actual": 2017, 
  "it@@": 2018, 
  "yes": 2019, 
  "Summit": 2020, 
  "waters": 2021, 
  "spirit": 2022, 
  "customs": 2023, 
  "acts": 2024, 
  "ban": 2025, 
  "element": 2026, 
  "ver@@": 2027, 
  "considers": 2028, 
  "proceedings": 2029, 
  "ac@@": 2030, 
  "won": 2031, 
  "fellow": 2032, 
  "else": 2033, 
  "motion": 2034, 
  "declaration": 2035, 
  "gave": 2036, 
  "helpful": 2037, 
  "Information": 2038, 
  "completed": 2039, 
  "sport": 2040, 
  "inform": 2041, 
  "guarantees": 2042, 
  "anyone": 2043, 
  "numbers": 2044, 
  "sitting": 2045, 
  "normal": 2046, 
  "ambitious": 2047, 
  "photo": 2048, 
  "La": 2049, 
  "continuing": 2050, 
  "Finland": 2051, 
  "individuals": 2052, 
  "rapid": 2053, 
  "R": 2054, 
  "noted": 2055, 
  "L": 2056, 
  "cars": 2057, 
  "happen": 2058, 
  "neither": 2059, 
  "planned": 2060, 
  "net": 2061, 
  "tasks": 2062, 
  "Croatia": 2063, 
  "telephone": 2064, 
  "is@@": 2065, 
  "introduce": 2066, 
  "sub@@": 2067, 
  "registered": 2068, 
  "statements": 2069, 
  "peaceful": 2070, 
  "ad@@": 2071, 
  "seek": 2072, 
  "goals": 2073, 
  "core": 2074, 
  "advice": 2075, 
  "Kosovo": 2076, 
  "represented": 2077, 
  "obviously": 2078, 
  "science": 2079, 
  "campaign": 2080, 
  "contrary": 2081, 
  "Plan": 2082, 
  "70": 2083, 
  "possibilities": 2084, 
  "relate": 2085, 
  "factors": 2086, 
  "adequate": 2087, 
  "90": 2088, 
  "court": 2089, 
  "Web": 2090, 
  "definition": 2091, 
  "1996": 2092, 
  "po@@": 2093, 
  "species": 2094, 
  "G": 2095, 
  "taxation": 2096, 
  "client": 2097, 
  "difference": 2098, 
  "seem": 2099, 
  "instance": 2100, 
  "{": 2101, 
  "Green": 2102, 
  "deliver": 2103, 
  "em@@": 2104, 
  "thinking": 2105, 
  "spent": 2106, 
  "i.e.": 2107, 
  "X@@": 2108, 
  "Re@@": 2109, 
  "entirely": 2110, 
  "intervention": 2111, 
  "28": 2112, 
  "operate": 2113, 
  "In@@": 2114, 
  "mechanisms": 2115, 
  "extended": 2116, 
  "camera": 2117, 
  "suggest": 2118, 
  "tour": 2119, 
  "Amsterdam": 2120, 
  "availability": 2121, 
  "warm": 2122, 
  "sale": 2123, 
  "ber@@": 2124, 
  "firm": 2125, 
  "deep": 2126, 
  "formal": 2127, 
  "corporate": 2128, 
  "Representative": 2129, 
  "dangerous": 2130, 
  "strongly": 2131, 
  "Irish": 2132, 
  "metres": 2133, 
  "urgent": 2134, 
  "season": 2135, 
  "functioning": 2136, 
  "deficit": 2137, 
  "winter": 2138, 
  "seven": 2139, 
  "bilateral": 2140, 
  "failed": 2141, 
  "institution": 2142, 
  "went": 2143, 
  "un": 2144, 
  "wonderful": 2145, 
  "Framework": 2146, 
  "permanent": 2147, 
  "bi@@": 2148, 
  "addressed": 2149, 
  "typical": 2150, 
  "preparation": 2151, 
  "advance": 2152, 
  "models": 2153, 
  "screen": 2154, 
  "genuine": 2155, 
  "USA": 2156, 
  "2012": 2157, 
  "300": 2158, 
  "drawn": 2159, 
  "attractive": 2160, 
  "Services": 2161, 
  "monitor": 2162, 
  "experienced": 2163, 
  "box": 2164, 
  "technological": 2165, 
  "requested": 2166, 
  "renewable": 2167, 
  "election": 2168, 
  "politics": 2169, 
  "..": 2170, 
  "VAT": 2171, 
  "enables": 2172, 
  "picture": 2173, 
  "detail": 2174, 
  "connected": 2175, 
  "lo@@": 2176, 
  "perspective": 2177, 
  "rail": 2178, 
  "independence": 2179, 
  "advertising": 2180, 
  "applicable": 2181, 
  "delegation": 2182, 
  "union": 2183, 
  "steel": 2184, 
  "Palestinian": 2185, 
  "parliamentary": 2186, 
  "claims": 2187, 
  "obtain": 2188, 
  "appears": 2189, 
  "launch": 2190, 
  "seriously": 2191, 
  "update": 2192, 
  "mo@@": 2193, 
  "bringing": 2194, 
  "dimension": 2195, 
  "2@@": 2196, 
  "limits": 2197, 
  "45": 2198, 
  "combination": 2199, 
  "disease": 2200, 
  "becomes": 2201, 
  "Denmark": 2202, 
  "identified": 2203, 
  "Board": 2204, 
  "character": 2205, 
  "}": 2206, 
  "An@@": 2207, 
  "prepare": 2208, 
  "kitchen": 2209, 
  "database": 2210, 
  "entitled": 2211, 
  "aspect": 2212, 
  "ted": 2213, 
  "ci@@": 2214, 
  "manage": 2215, 
  "approximately": 2216, 
  "1995": 2217, 
  "1.@@": 2218, 
  "ship": 2219, 
  "devices": 2220, 
  "railway": 2221, 
  "hear": 2222, 
  "vehicle": 2223, 
  "leader": 2224, 
  "translation": 2225, 
  "improvements": 2226, 
  "machines": 2227, 
  "voice": 2228, 
  "35": 2229, 
  "carefully": 2230, 
  "opposition": 2231, 
  "discover": 2232, 
  "ne@@": 2233, 
  "article": 2234, 
  "nearly": 2235, 
  "houses": 2236, 
  "communities": 2237, 
  "fraud": 2238, 
  "refugees": 2239, 
  "requests": 2240, 
  "M": 2241, 
  "welcomed": 2242, 
  "relax": 2243, 
  "examples": 2244, 
  "moving": 2245, 
  "television": 2246, 
  "equality": 2247, 
  "War": 2248, 
  "contain": 2249, 
  "contracts": 2250, 
  "registration": 2251, 
  "covers": 2252, 
  "fuel": 2253, 
  "sensitive": 2254, 
  "changing": 2255, 
  "fun": 2256, 
  "platform": 2257, 
  "26": 2258, 
  "shops": 2259, 
  "hands": 2260, 
  "hot": 2261, 
  "display": 2262, 
  "spacious": 2263, 
  "qualified": 2264, 
  "ons": 2265, 
  "reliable": 2266, 
  "released": 2267, 
  "x@@": 2268, 
  "F": 2269, 
  "In": 2270, 
  "reception": 2271, 
  "Human": 2272, 
  "la@@": 2273, 
  "restructuring": 2274, 
  "district": 2275, 
  "estate": 2276, 
  "yesterday": 2277, 
  "Management": 2278, 
  "format": 2279, 
  "calling": 2280, 
  "whilst": 2281, 
  "obligation": 2282, 
  "compensation": 2283, 
  "accounts": 2284, 
  "condition": 2285, 
  "Communication": 2286, 
  "storage": 2287, 
  "description": 2288, 
  "beds": 2289, 
  "Austrian": 2290, 
  "stands": 2291, 
  "multi": 2292, 
  "substances": 2293, 
  "courses": 2294, 
  "votes": 2295, 
  "System": 2296, 
  "brand": 2297, 
  "Swiss": 2298, 
  "pleasant": 2299, 
  "reasonable": 2300, 
  "resulting": 2301, 
  "grounds": 2302, 
  "dedicated": 2303, 
  "proposes": 2304, 
  "wishes": 2305, 
  "restrictions": 2306, 
  "elected": 2307, 
  "forget": 2308, 
  "biggest": 2309, 
  "extend": 2310, 
  "DE": 2311, 
  "ant": 2312, 
  "strategies": 2313, 
  "attempt": 2314, 
  "impossible": 2315, 
  "responsibilities": 2316, 
  "letter": 2317, 
  "primary": 2318, 
  "ma@@": 2319, 
  "tradition": 2320, 
  "migration": 2321, 
  "ans": 2322, 
  "pro@@": 2323, 
  "black": 2324, 
  "described": 2325, 
  "industries": 2326, 
  "conduct": 2327, 
  "outstanding": 2328, 
  "truly": 2329, 
  "intention": 2330, 
  "maintenance": 2331, 
  "consistent": 2332, 
  "north": 2333, 
  "zone": 2334, 
  "helping": 2335, 
  "Financial": 2336, 
  "shop": 2337, 
  "charged": 2338, 
  "te@@": 2339, 
  "gain": 2340, 
  "et@@": 2341, 
  "determined": 2342, 
  "cards": 2343, 
  "identify": 2344, 
  "situations": 2345, 
  "firms": 2346, 
  "names": 2347, 
  "thereby": 2348, 
  "told": 2349, 
  "middle": 2350, 
  "Ministry": 2351, 
  "to@@": 2352, 
  "manufacturing": 2353, 
  "diversity": 2354, 
  "vision": 2355, 
  "greatest": 2356, 
  "notes": 2357, 
  "confirmed": 2358, 
  "notice": 2359, 
  "à": 2360, 
  "exhibition": 2361, 
  "emergency": 2362, 
  "compatible": 2363, 
  "convinced": 2364, 
  "ongoing": 2365, 
  "kept": 2366, 
  "burden": 2367, 
  "31": 2368, 
  "son": 2369, 
  "contained": 2370, 
  "effectiveness": 2371, 
  "involving": 2372, 
  "P": 2373, 
  "vi@@": 2374, 
  "submit": 2375, 
  "affect": 2376, 
  "weapons": 2377, 
  "pollution": 2378, 
  "issued": 2379, 
  "architecture": 2380, 
  "coffee": 2381, 
  "sch@@": 2382, 
  "manufacturers": 2383, 
  "contributions": 2384, 
  "Airport": 2385, 
  "resort": 2386, 
  "religious": 2387, 
  "ni@@": 2388, 
  "sanctions": 2389, 
  "mandate": 2390, 
  "fire": 2391, 
  "transition": 2392, 
  "seeking": 2393, 
  "pictures": 2394, 
  "himself": 2395, 
  "myself": 2396, 
  "physical": 2397, 
  "Turkish": 2398, 
  "enhance": 2399, 
  "Dutch": 2400, 
  "disposal": 2401, 
  "chosen": 2402, 
  "Investment": 2403, 
  "testing": 2404, 
  "Christian": 2405, 
  "unacceptable": 2406, 
  "dynamic": 2407, 
  "fear": 2408, 
  "Latin": 2409, 
  "presentation": 2410, 
  "affairs": 2411, 
  "wood": 2412, 
  "bear": 2413, 
  "liability": 2414, 
  "previously": 2415, 
  "imports": 2416, 
  "successfully": 2417, 
  "surface": 2418, 
  "God": 2419, 
  "reservation": 2420, 
  "factor": 2421, 
  "satellite": 2422, 
  "York": 2423, 
  "aircraft": 2424, 
  "ous": 2425, 
  "putting": 2426, 
  "happened": 2427, 
  "om@@": 2428, 
  "ancient": 2429, 
  "shower": 2430, 
  "awareness": 2431, 
  "Ar@@": 2432, 
  "nearby": 2433, 
  "remove": 2434, 
  "packages": 2435, 
  "gender": 2436, 
  "assist": 2437, 
  "th": 2438, 
  "grant": 2439, 
  "forced": 2440, 
  "naturally": 2441, 
  "desire": 2442, 
  "sun": 2443, 
  "guide": 2444, 
  "driving": 2445, 
  "smaller": 2446, 
  "v": 2447, 
  "schools": 2448, 
  "delivered": 2449, 
  "sp@@": 2450, 
  "extension": 2451, 
  "enormous": 2452, 
  "apart": 2453, 
  "mass": 2454, 
  "cuisine": 2455, 
  "f": 2456, 
  "brings": 2457, 
  "category": 2458, 
  "claim": 2459, 
  "remaining": 2460, 
  "paragraph": 2461, 
  "host": 2462, 
  "unable": 2463, 
  "involvement": 2464, 
  "amounts": 2465, 
  "association": 2466, 
  "Debian": 2467, 
  "accessible": 2468, 
  "agency": 2469, 
  "talks": 2470, 
  "exports": 2471, 
  "op@@": 2472, 
  "delay": 2473, 
  "gi@@": 2474, 
  "ad": 2475, 
  "judicial": 2476, 
  "keeping": 2477, 
  "ch": 2478, 
  "beaches": 2479, 
  "trip": 2480, 
  "comment": 2481, 
  "valid": 2482, 
  "CD": 2483, 
  "emphasis": 2484, 
  "combating": 2485, 
  "Vienna": 2486, 
  "est": 2487, 
  "transaction": 2488, 
  "ine": 2489, 
  "break": 2490, 
  "expression": 2491, 
  "door": 2492, 
  "arrival": 2493, 
  "installed": 2494, 
  "surrounding": 2495, 
  "opinions": 2496, 
  "reply": 2497, 
  "Rome": 2498, 
  "register": 2499, 
  "existence": 2500, 
  "investors": 2501, 
  "Funds": 2502, 
  "drugs": 2503, 
  "spread": 2504, 
  "29": 2505, 
  "recognised": 2506, 
  "primarily": 2507, 
  "communications": 2508, 
  "relatively": 2509, 
  "temporary": 2510, 
  "conclude": 2511, 
  "V": 2512, 
  "consensus": 2513, 
  "meters": 2514, 
  "patients": 2515, 
  "elegant": 2516, 
  "mark": 2517, 
  "Press": 2518, 
  "examine": 2519, 
  "Regional": 2520, 
  "flight": 2521, 
  "contents": 2522, 
  "depth": 2523, 
  "plus": 2524, 
  "consists": 2525, 
  "booking": 2526, 
  "weight": 2527, 
  "respective": 2528, 
  "enforcement": 2529, 
  "yang": 2530, 
  "reaching": 2531, 
  "eight": 2532, 
  "amongst": 2533, 
  "17@@": 2534, 
  "ings": 2535, 
  "passed": 2536, 
  "pointed": 2537, 
  "Linux": 2538, 
  "guaranteed": 2539, 
  "feed": 2540, 
  "passengers": 2541, 
  "appeal": 2542, 
  "diseases": 2543, 
  "whatever": 2544, 
  "reflect": 2545, 
  "carbon": 2546, 
  "decades": 2547, 
  "unit": 2548, 
  "Constitution": 2549, 
  "capable": 2550, 
  "river": 2551, 
  "except": 2552, 
  "Con@@": 2553, 
  "recommend": 2554, 
  "coast": 2555, 
  "us@@": 2556, 
  "asking": 2557, 
  "Business": 2558, 
  "depending": 2559, 
  "expertise": 2560, 
  "meaning": 2561, 
  "centres": 2562, 
  "button": 2563, 
  "ka": 2564, 
  "faced": 2565, 
  "era": 2566, 
  "1@@": 2567, 
  "maritime": 2568, 
  "Protection": 2569, 
  "statistics": 2570, 
  "color": 2571, 
  "liberalisation": 2572, 
  "causes": 2573, 
  "attacks": 2574, 
  "é@@": 2575, 
  "officials": 2576, 
  "consequently": 2577, 
  "&gt;": 2578, 
  "PC": 2579, 
  "holidays": 2580, 
  "engine": 2581, 
  "taxes": 2582, 
  "sort": 2583, 
  "signal": 2584, 
  "totally": 2585, 
  "finding": 2586, 
  "Report": 2587, 
  "so@@": 2588, 
  "assets": 2589, 
  "directives": 2590, 
  "surrounded": 2591, 
  "ec@@": 2592, 
  "title": 2593, 
  "leadership": 2594, 
  "saw": 2595, 
  "attack": 2596, 
  "ur@@": 2597, 
  "foot": 2598, 
  "organization": 2599, 
  "Employment": 2600, 
  "fighting": 2601, 
  "competence": 2602, 
  "invited": 2603, 
  "youth": 2604, 
  "der@@": 2605, 
  "par@@": 2606, 
  "honourable": 2607, 
  "Charter": 2608, 
  "visa": 2609, 
  "beauty": 2610, 
  "ce": 2611, 
  "banking": 2612, 
  "representative": 2613, 
  "imposed": 2614, 
  "Democrats": 2615, 
  "radio": 2616, 
  "leads": 2617, 
  "Area": 2618, 
  "Mar@@": 2619, 
  "da@@": 2620, 
  "tackle": 2621, 
  "window": 2622, 
  "Co@@": 2623, 
  "relaxing": 2624, 
  "Afghanistan": 2625, 
  "tests": 2626, 
  "device": 2627, 
  "luxury": 2628, 
  "determine": 2629, 
  "books": 2630, 
  "older": 2631, 
  "do@@": 2632, 
  "inflation": 2633, 
  "route": 2634, 
  "memory": 2635, 
  "identity": 2636, 
  "tried": 2637, 
  "pension": 2638, 
  "ke": 2639, 
  "constantly": 2640, 
  "win": 2641, 
  "focused": 2642, 
  "ap@@": 2643, 
  "mid": 2644, 
  "stocks": 2645, 
  "acceptable": 2646, 
  "heavy": 2647, 
  "0.@@": 2648, 
  "Swedish": 2649, 
  "equally": 2650, 
  "protecting": 2651, 
  "Single": 2652, 
  "recommendation": 2653, 
  "sh@@": 2654, 
  "requirement": 2655, 
  "dan": 2656, 
  "acquisition": 2657, 
  "artists": 2658, 
  "rightly": 2659, 
  "sold": 2660, 
  "arms": 2661, 
  "story": 2662, 
  "Museum": 2663, 
  "perfectly": 2664, 
  "St.": 2665, 
  "expectations": 2666, 
  "interface": 2667, 
  "H": 2668, 
  "charges": 2669, 
  "square": 2670, 
  "competent": 2671, 
  "largely": 2672, 
  "orders": 2673, 
  "involve": 2674, 
  "shares": 2675, 
  "treated": 2676, 
  "increases": 2677, 
  "Decision": 2678, 
  "ic": 2679, 
  "1994": 2680, 
  "multiple": 2681, 
  "entered": 2682, 
  "Finance": 2683, 
  "glass": 2684, 
  "And": 2685, 
  "residence": 2686, 
  "chain": 2687, 
  "fruit": 2688, 
  "von": 2689, 
  "ina": 2690, 
  "updated": 2691, 
  "merely": 2692, 
  "Deputy": 2693, 
  "latter": 2694, 
  "attractions": 2695, 
  "meat": 2696, 
  "Polish": 2697, 
  "Transport": 2698, 
  "16@@": 2699, 
  "profit": 2700, 
  "remind": 2701, 
  "southern": 2702, 
  "abroad": 2703, 
  "recommended": 2704, 
  "ECU": 2705, 
  "forest": 2706, 
  "Ro@@": 2707, 
  "Common": 2708, 
  "race": 2709, 
  "install": 2710, 
  "holding": 2711, 
  "qu@@": 2712, 
  "someone": 2713, 
  "object": 2714, 
  "Canada": 2715, 
  "mm": 2716, 
  "write": 2717, 
  "obvious": 2718, 
  "explain": 2719, 
  "sell": 2720, 
  "handling": 2721, 
  "van": 2722, 
  "All": 2723, 
  "barriers": 2724, 
  "mountains": 2725, 
  "sts": 2726, 
  "landscape": 2727, 
  "indicated": 2728, 
  "piece": 2729, 
  "ships": 2730, 
  "under@@": 2731, 
  "ge": 2732, 
  "ex@@": 2733, 
  "trafficking": 2734, 
  "constructive": 2735, 
  "obtained": 2736, 
  "2014": 2737, 
  "smoking": 2738, 
  "Structural": 2739, 
  "photos": 2740, 
  "collective": 2741, 
  "volume": 2742, 
  "lake": 2743, 
  "waiting": 2744, 
  "booking.com": 2745, 
  "advantages": 2746, 
  "church": 2747, 
  "disaster": 2748, 
  "buffet": 2749, 
  "dealt": 2750, 
  "é": 2751, 
  "rapidly": 2752, 
  "welfare": 2753, 
  "encouraging": 2754, 
  "Pact": 2755, 
  "passenger": 2756, 
  "nations": 2757, 
  "looks": 2758, 
  "75": 2759, 
  "excessive": 2760, 
  "controlled": 2761, 
  "colleague": 2762, 
  "Safety": 2763, 
  "Center": 2764, 
  "experiences": 2765, 
  "Slovenia": 2766, 
  "recognise": 2767, 
  "resolve": 2768, 
  "Schengen": 2769, 
  "touch": 2770, 
  "ultimately": 2771, 
  "&apos;ve": 2772, 
  "tobacco": 2773, 
  "schemes": 2774, 
  "Protocol": 2775, 
  "fi@@": 2776, 
  "judgment": 2777, 
  "Partnership": 2778, 
  "personally": 2779, 
  "ca": 2780, 
  "no@@": 2781, 
  "corruption": 2782, 
  "ing@@": 2783, 
  "vulnerable": 2784, 
  "president": 2785, 
  "tri@@": 2786, 
  "figure": 2787, 
  "privacy": 2788, 
  "10@@": 2789, 
  "Guest": 2790, 
  "pi@@": 2791, 
  "texts": 2792, 
  "Cooperation": 2793, 
  "stone": 2794, 
  "shape": 2795, 
  "Enterprise": 2796, 
  "urge": 2797, 
  "settlement": 2798, 
  "White": 2799, 
  "bars": 2800, 
  "appointed": 2801, 
  "People": 2802, 
  "ol@@": 2803, 
  "maintained": 2804, 
  "ta@@": 2805, 
  "ze": 2806, 
  "mi@@": 2807, 
  "ties": 2808, 
  "articles": 2809, 
  "discussing": 2810, 
  "Lithuania": 2811, 
  "15@@": 2812, 
  "named": 2813, 
  "Club": 2814, 
  "Free": 2815, 
  "providers": 2816, 
  "flow": 2817, 
  "inclusion": 2818, 
  "suffering": 2819, 
  "N": 2820, 
  "furnished": 2821, 
  "ha@@": 2822, 
  "politicians": 2823, 
  "Fisheries": 2824, 
  "bath": 2825, 
  "exists": 2826, 
  "ent": 2827, 
  "engineering": 2828, 
  "units": 2829, 
  "conducted": 2830, 
  "Food": 2831, 
  "du": 2832, 
  "valuable": 2833, 
  "sustainability": 2834, 
  "ou@@": 2835, 
  "su@@": 2836, 
  "helps": 2837, 
  "exceptional": 2838, 
  "subsidies": 2839, 
  "contemporary": 2840, 
  "sharing": 2841, 
  "actively": 2842, 
  "Slovakia": 2843, 
  "millions": 2844, 
  "farm": 2845, 
  "maintaining": 2846, 
  "bo@@": 2847, 
  "turned": 2848, 
  "store": 2849, 
  "marked": 2850, 
  "regularly": 2851, 
  "club": 2852, 
  "helped": 2853, 
  "emerging": 2854, 
  "stronger": 2855, 
  "Education": 2856, 
  "strength": 2857, 
  "mis@@": 2858, 
  "noise": 2859, 
  "chemical": 2860, 
  "golf": 2861, 
  "output": 2862, 
  "highlight": 2863, 
  "award": 2864, 
  "transactions": 2865, 
  "Baltic": 2866, 
  "Grand": 2867, 
  "ACP": 2868, 
  "unto": 2869, 
  "Agenda": 2870, 
  "ES": 2871, 
  "producing": 2872, 
  "den@@": 2873, 
  "Red": 2874, 
  "Microsoft": 2875, 
  "hence": 2876, 
  "Rooms": 2877, 
  "enhanced": 2878, 
  "define": 2879, 
  "length": 2880, 
  "copy": 2881, 
  "Korea": 2882, 
  "kinds": 2883, 
  "spaces": 2884, 
  "websites": 2885, 
  "K": 2886, 
  "Portuguese": 2887, 
  "Institute": 2888, 
  "Rules": 2889, 
  "pleasure": 2890, 
  "versions": 2891, 
  "assess": 2892, 
  "runs": 2893, 
  "healthy": 2894, 
  "creative": 2895, 
  "speakers": 2896, 
  "car@@": 2897, 
  "spring": 2898, 
  "automatic": 2899, 
  "09": 2900, 
  "Pro@@": 2901, 
  "undertaken": 2902, 
  "skin": 2903, 
  "ana": 2904, 
  "constitute": 2905, 
  "ung": 2906, 
  "pursue": 2907, 
  "drawing": 2908, 
  "lose": 2909, 
  "destination": 2910, 
  "besides": 2911, 
  "audio": 2912, 
  "duties": 2913, 
  "stations": 2914, 
  "out@@": 2915, 
  "covering": 2916, 
  "leaving": 2917, 
  "error": 2918, 
  "ot@@": 2919, 
  "moved": 2920, 
  "expensive": 2921, 
  "2015": 2922, 
  "quick": 2923, 
  "strict": 2924, 
  "Director": 2925, 
  "Britain": 2926, 
  "Y": 2927, 
  "constant": 2928, 
  "ta": 2929, 
  "opposite": 2930, 
  "occasion": 2931, 
  "universal": 2932, 
  "quarter": 2933, 
  "default": 2934, 
  "terrorist": 2935, 
  "blue": 2936, 
  "watch": 2937, 
  "1990": 2938, 
  "rejected": 2939, 
  "nation": 2940, 
  "intellectual": 2941, 
  "depends": 2942, 
  "fail": 2943, 
  "Ver@@": 2944, 
  "ter": 2945, 
  "fill": 2946, 
  "IN": 2947, 
  "Company": 2948, 
  "onto": 2949, 
  "newly": 2950, 
  "owned": 2951, 
  "2.@@": 2952, 
  "ism": 2953, 
  "vast": 2954, 
  "Mo@@": 2955, 
  "Japanese": 2956, 
  "w": 2957, 
  "financed": 2958, 
  "ds": 2959, 
  "determination": 2960, 
  "exclusively": 2961, 
  "milk": 2962, 
  "organizations": 2963, 
  "NATO": 2964, 
  "st": 2965, 
  "reserve": 2966, 
  "applying": 2967, 
  "soft": 2968, 
  "author": 2969, 
  "preparing": 2970, 
  "conflicts": 2971, 
  "counter": 2972, 
  "drug": 2973, 
  "treaty": 2974, 
  "suppliers": 2975, 
  "das": 2976, 
  "wind": 2977, 
  "mode": 2978, 
  "Car@@": 2979, 
  "offices": 2980, 
  "Brazil": 2981, 
  "cutting": 2982, 
  "felt": 2983, 
  "feeling": 2984, 
  "ent@@": 2985, 
  "standing": 2986, 
  "notified": 2987, 
  "Copenhagen": 2988, 
  "ment": 2989, 
  "Serbia": 2990, 
  "ally": 2991, 
  "Roma": 2992, 
  "solve": 2993, 
  "suite": 2994, 
  "Monetary": 2995, 
  "convenient": 2996, 
  "voluntary": 2997, 
  "continent": 2998, 
  "ma": 2999, 
  "il": 3000, 
  "spa": 3001, 
  "explore": 3002, 
  "Annex": 3003, 
  "attitude": 3004, 
  "collaboration": 3005, 
  "cycle": 3006, 
  "proof": 3007, 
  "involves": 3008, 
  "vessels": 3009, 
  "notably": 3010, 
  "forthcoming": 3011, 
  "creates": 3012, 
  "faster": 3013, 
  "debates": 3014, 
  "CAP": 3015, 
  "print": 3016, 
  "reported": 3017, 
  "Bo@@": 3018, 
  "im": 3019, 
  "characteristics": 3020, 
  "courts": 3021, 
  "widely": 3022, 
  "ve": 3023, 
  "prove": 3024, 
  "heritage": 3025, 
  "subsidiarity": 3026, 
  "allocated": 3027, 
  "Di@@": 3028, 
  "hit": 3029, 
  "du@@": 3030, 
  "objects": 3031, 
  "precise": 3032, 
  "wealth": 3033, 
  "Ombudsman": 3034, 
  "1992": 3035, 
  "impose": 3036, 
  "considering": 3037, 
  "absence": 3038, 
  "supplies": 3039, 
  "emphasise": 3040, 
  "wider": 3041, 
  "ethnic": 3042, 
  "Joint": 3043, 
  "DVD": 3044, 
  "Estonia": 3045, 
  "knows": 3046, 
  "boost": 3047, 
  "obstacles": 3048, 
  "--": 3049, 
  "Be@@": 3050, 
  "accompanied": 3051, 
  "king": 3052, 
  "procurement": 3053, 
  "danger": 3054, 
  "savings": 3055, 
  "removed": 3056, 
  "block": 3057, 
  "Internal": 3058, 
  "coordinated": 3059, 
  "peoples": 3060, 
  "Minutes": 3061, 
  "IN@@": 3062, 
  "import": 3063, 
  "stakeholders": 3064, 
  "flat": 3065, 
  "ator": 3066, 
  "grow": 3067, 
  "Norway": 3068, 
  "temperature": 3069, 
  "ten@@": 3070, 
  "joined": 3071, 
  "index": 3072, 
  "Lake": 3073, 
  "acting": 3074, 
  "aviation": 3075, 
  "willing": 3076, 
  "opposed": 3077, 
  "regret": 3078, 
  "demonstrate": 3079, 
  "sugar": 3080, 
  "400": 3081, 
  "ports": 3082, 
  "whereas": 3083, 
  "eye": 3084, 
  "estimated": 3085, 
  "Chamber": 3086, 
  "trees": 3087, 
  "massive": 3088, 
  "ministers": 3089, 
  "fit": 3090, 
  "serves": 3091, 
  "perform": 3092, 
  "discovered": 3093, 
  "taste": 3094, 
  "ie": 3095, 
  "labelling": 3096, 
  "worse": 3097, 
  "globalisation": 3098, 
  "CO2": 3099, 
  "1993": 3100, 
  "FR": 3101, 
  "intend": 3102, 
  "frequently": 3103, 
  "hi@@": 3104, 
  "Google": 3105, 
  "respected": 3106, 
  "99": 3107, 
  "bu@@": 3108, 
  "adopting": 3109, 
  "me@@": 3110, 
  "boat": 3111, 
  "truth": 3112, 
  "00@@": 3113, 
  "discharge": 3114, 
  "man@@": 3115, 
  "reserves": 3116, 
  "happens": 3117, 
  "cheap": 3118, 
  "containing": 3119, 
  "awarded": 3120, 
  "dates": 3121, 
  "ru@@": 3122, 
  "copyright": 3123, 
  "replace": 3124, 
  "productivity": 3125, 
  "Mr.": 3126, 
  "targeted": 3127, 
  "presents": 3128, 
  "ors": 3129, 
  "Arab": 3130, 
  "fulfil": 3131, 
  "au@@": 3132, 
  "p.m.": 3133, 
  "St@@": 3134, 
  "browser": 3135, 
  "confirm": 3136, 
  "res": 3137, 
  "charming": 3138, 
  "ag@@": 3139, 
  "Munich": 3140, 
  "hundreds": 3141, 
  "resolved": 3142, 
  "educational": 3143, 
  "appreciate": 3144, 
  "declared": 3145, 
  "Control": 3146, 
  "che": 3147, 
  "furniture": 3148, 
  "loans": 3149, 
  "Latvia": 3150, 
  "expert": 3151, 
  "east": 3152, 
  "gets": 3153, 
  "parents": 3154, 
  "mostly": 3155, 
  "Stability": 3156, 
  "organized": 3157, 
  "14@@": 3158, 
  "Northern": 3159, 
  "journey": 3160, 
  "delegations": 3161, 
  "Belgian": 3162, 
  "Foundation": 3163, 
  "ed@@": 3164, 
  "wait": 3165, 
  "inter": 3166, 
  "Home": 3167, 
  "tic": 3168, 
  "citizen": 3169, 
  "programming": 3170, 
  "dishes": 3171, 
  "convergence": 3172, 
  "John": 3173, 
  "weather": 3174, 
  "conditioning": 3175, 
  "eastern": 3176, 
  "minority": 3177, 
  "drivers": 3178, 
  "overcome": 3179, 
  "ra": 3180, 
  "raw": 3181, 
  "rent": 3182, 
  "impressive": 3183, 
  "streets": 3184, 
  "ary": 3185, 
  "#": 3186, 
  "Ma@@": 3187, 
  "°": 3188, 
  "cash": 3189, 
  "oriented": 3190, 
  "bedroom": 3191, 
  "Hungarian": 3192, 
  "dinner": 3193, 
  "ini": 3194, 
  "interpretation": 3195, 
  "U": 3196, 
  "criticism": 3197, 
  "patent": 3198, 
  "forum": 3199, 
  "blood": 3200, 
  "proposing": 3201, 
  "tours": 3202, 
  "band": 3203, 
  "negotiating": 3204, 
  "cold": 3205, 
  "owners": 3206, 
  "enabling": 3207, 
  "command": 3208, 
  "98": 3209, 
  "pe@@": 3210, 
  "Li@@": 3211, 
  "messages": 3212, 
  "01": 3213, 
  "percent": 3214, 
  "150": 3215, 
  "personnel": 3216, 
  "intends": 3217, 
  "ne": 3218, 
  "sexual": 3219, 
  "intensive": 3220, 
  "TO": 3221, 
  "prosperity": 3222, 
  "stressed": 3223, 
  "leisure": 3224, 
  "ded": 3225, 
  "flights": 3226, 
  "expansion": 3227, 
  "career": 3228, 
  "proved": 3229, 
  "harmonisation": 3230, 
  "connections": 3231, 
  "oral": 3232, 
  "resolutions": 3233, 
  "gen@@": 3234, 
  "participating": 3235, 
  "behaviour": 3236, 
  "Villa": 3237, 
  "west": 3238, 
  "examined": 3239, 
  "invest": 3240, 
  "Technology": 3241, 
  "warning": 3242, 
  "museum": 3243, 
  "fee": 3244, 
  "divided": 3245, 
  "trend": 3246, 
  "Belarus": 3247, 
  "Ri@@": 3248, 
  "demonstrated": 3249, 
  "Madrid": 3250, 
  "Barroso": 3251, 
  "defend": 3252, 
  "zi@@": 3253, 
  "strengthened": 3254, 
  "los": 3255, 
  "EEC": 3256, 
  "routes": 3257, 
  "kan": 3258, 
  "solid": 3259, 
  "accordingly": 3260, 
  "entertainment": 3261, 
  "ja": 3262, 
  "bedrooms": 3263, 
  "gone": 3264, 
  "none": 3265, 
  "hostels": 3266, 
  "extreme": 3267, 
  "III": 3268, 
  "answers": 3269, 
  "pen@@": 3270, 
  "gap": 3271, 
  "Law": 3272, 
  "deals": 3273, 
  "ak@@": 3274, 
  "na": 3275, 
  "Pakistan": 3276, 
  "provider": 3277, 
  "resource": 3278, 
  "ia": 3279, 
  "ya": 3280, 
  "addresses": 3281, 
  "facility": 3282, 
  "examination": 3283, 
  "managing": 3284, 
  "topic": 3285, 
  "sending": 3286, 
  "publication": 3287, 
  "believes": 3288, 
  "absolute": 3289, 
  "abuse": 3290, 
  "95": 3291, 
  "driver": 3292, 
  "Auditors": 3293, 
  "committees": 3294, 
  "cable": 3295, 
  "equivalent": 3296, 
  "Sch@@": 3297, 
  "33": 3298, 
  "component": 3299, 
  "gen": 3300, 
  "dining": 3301, 
  "enterprise": 3302, 
  "rising": 3303, 
  "contrast": 3304, 
  "techniques": 3305, 
  "Rule": 3306, 
  "supervision": 3307, 
  "transportation": 3308, 
  "revision": 3309, 
  "™": 3310, 
  "Procedure": 3311, 
  "outdoor": 3312, 
  "happening": 3313, 
  "legally": 3314, 
  "fantastic": 3315, 
  "packaging": 3316, 
  "ty": 3317, 
  "signs": 3318, 
  "repeat": 3319, 
  "ul@@": 3320, 
  "partly": 3321, 
  "shipping": 3322, 
  "saving": 3323, 
  "En@@": 3324, 
  "fourth": 3325, 
  "est@@": 3326, 
  "Mexico": 3327, 
  "Code": 3328, 
  "profile": 3329, 
  "justified": 3330, 
  "Frankfurt": 3331, 
  "employed": 3332, 
  "Israeli": 3333, 
  "inhabitants": 3334, 
  "showing": 3335, 
  "colour": 3336, 
  "channels": 3337, 
  "ding": 3338, 
  "minorities": 3339, 
  "ho@@": 3340, 
  "Culture": 3341, 
  "cooperate": 3342, 
  "applause": 3343, 
  "ensures": 3344, 
  "parliaments": 3345, 
  "ut@@": 3346, 
  "exception": 3347, 
  "ice": 3348, 
  "heating": 3349, 
  "owner": 3350, 
  "transmission": 3351, 
  "updates": 3352, 
  "seat": 3353, 
  "invite": 3354, 
  "motor": 3355, 
  "Bar": 3356, 
  "performed": 3357, 
  "northern": 3358, 
  "ä@@": 3359, 
  "tive": 3360, 
  "introducing": 3361, 
  "corresponding": 3362, 
  "safeguard": 3363, 
  "Great": 3364, 
  "adapt": 3365, 
  "carrying": 3366, 
  "plenary": 3367, 
  "constitutional": 3368, 
  "You": 3369, 
  "ON": 3370, 
  "tu@@": 3371, 
  "Software": 3372, 
  "Soviet": 3373, 
  "returned": 3374, 
  "800": 3375, 
  "roads": 3376, 
  "decisive": 3377, 
  "periods": 3378, 
  "decline": 3379, 
  "farming": 3380, 
  "multilateral": 3381, 
  "satisfaction": 3382, 
  "eyes": 3383, 
  "professionals": 3384, 
  "preventing": 3385, 
  "funded": 3386, 
  "generated": 3387, 
  "ance": 3388, 
  "Star": 3389, 
  "rapporteurs": 3390, 
  "visible": 3391, 
  "proud": 3392, 
  "ins": 3393, 
  "topics": 3394, 
  "facts": 3395, 
  "lasting": 3396, 
  "Alliance": 3397, 
  "couple": 3398, 
  "meant": 3399, 
  "metal": 3400, 
  "recorded": 3401, 
  "heat": 3402, 
  "delighted": 3403, 
  "glad": 3404, 
  "wall": 3405, 
  "receiving": 3406, 
  "seeing": 3407, 
  "tions": 3408, 
  "occur": 3409, 
  "thirdly": 3410, 
  "printing": 3411, 
  "Forum": 3412, 
  "legitimate": 3413, 
  "specified": 3414, 
  "AR@@": 3415, 
  "manufacturer": 3416, 
  "MEPs": 3417, 
  "exclusion": 3418, 
  "crimes": 3419, 
  "ER": 3420, 
  "Art": 3421, 
  "satisfied": 3422, 
  "overview": 3423, 
  "possibly": 3424, 
  "correctly": 3425, 
  "exit": 3426, 
  "doesn": 3427, 
  "classic": 3428, 
  "obliged": 3429, 
  "slow": 3430, 
  "finished": 3431, 
  "Balkans": 3432, 
  "turning": 3433, 
  "Costa": 3434, 
  "Authority": 3435, 
  "somewhat": 3436, 
  "ck@@": 3437, 
  "ought": 3438, 
  "password": 3439, 
  "match": 3440, 
  "Organisation": 3441, 
  "parallel": 3442, 
  "formed": 3443, 
  "addressing": 3444, 
  "plays": 3445, 
  "Malta": 3446, 
  "02": 3447, 
  "Egypt": 3448, 
  "islands": 3449, 
  "bottom": 3450, 
  "lists": 3451, 
  "Vi@@": 3452, 
  "edge": 3453, 
  "candidates": 3454, 
  "housing": 3455, 
  "demanding": 3456, 
  "starts": 3457, 
  "First": 3458, 
  "Permanent": 3459, 
  "renovated": 3460, 
  "raising": 3461, 
  "eventually": 3462, 
  "dependent": 3463, 
  "Bar@@": 3464, 
  "revised": 3465, 
  "input": 3466, 
  "penalty": 3467, 
  "Rural": 3468, 
  "western": 3469, 
  "careful": 3470, 
  "spot": 3471, 
  "showed": 3472, 
  "Day": 3473, 
  "Assembly": 3474, 
  "resistance": 3475, 
  "hardware": 3476, 
  "telecommunications": 3477, 
  "destruction": 3478, 
  "This": 3479, 
  "properties": 3480, 
  "theme": 3481, 
  "lu@@": 3482, 
  "coherent": 3483, 
  "va": 3484, 
  "ticket": 3485, 
  "Atlantic": 3486, 
  "tickets": 3487, 
  "remote": 3488, 
  "Year": 3489, 
  "PDF": 3490, 
  "13@@": 3491, 
  "go@@": 3492, 
  "Act": 3493, 
  "drink": 3494, 
  "gold": 3495, 
  "12@@": 3496, 
  "checks": 3497, 
  "elsewhere": 3498, 
  "towns": 3499, 
  "Lord": 3500, 
  "slightly": 3501, 
  "U.S.": 3502, 
  "visited": 3503, 
  "au": 3504, 
  "organic": 3505, 
  "percentage": 3506, 
  "substance": 3507, 
  "license": 3508, 
  "reporting": 3509, 
  "nine": 3510, 
  "prospects": 3511, 
  "actors": 3512, 
  "com@@": 3513, 
  "gu@@": 3514, 
  "Georgia": 3515, 
  "sauna": 3516, 
  "wireless": 3517, 
  "films": 3518, 
  "societies": 3519, 
  "distributed": 3520, 
  "ST@@": 3521, 
  "quotas": 3522, 
  "displayed": 3523, 
  "....": 3524, 
  "for@@": 3525, 
  "wines": 3526, 
  "We": 3527, 
  "department": 3528, 
  "36": 3529, 
  "replaced": 3530, 
  "con": 3531, 
  "universities": 3532, 
  "tourists": 3533, 
  "lessons": 3534, 
  "credibility": 3535, 
  "depend": 3536, 
  "sa@@": 3537, 
  "immigrants": 3538, 
  "father": 3539, 
  "07": 3540, 
  "impression": 3541, 
  "ling": 3542, 
  "ring": 3543, 
  "48": 3544, 
  "assume": 3545, 
  "acquis": 3546, 
  "visiting": 3547, 
  "3.@@": 3548, 
  "walls": 3549, 
  "Po@@": 3550, 
  "contributed": 3551, 
  "paying": 3552, 
  "originally": 3553, 
  "trends": 3554, 
  "channel": 3555, 
  "operator": 3556, 
  "territorial": 3557, 
  "com": 3558, 
  "bound": 3559, 
  "ye": 3560, 
  "surroundings": 3561, 
  "ec.europa.eu": 3562, 
  "stored": 3563, 
  "surely": 3564, 
  "listen": 3565, 
  "Tel": 3566, 
  "neighbouring": 3567, 
  "arrive": 3568, 
  "settings": 3569, 
  "survey": 3570, 
  "regarded": 3571, 
  "foundation": 3572, 
  "supplier": 3573, 
  "Industry": 3574, 
  "Si@@": 3575, 
  "Air": 3576, 
  "attached": 3577, 
  "Process": 3578, 
  "documentation": 3579, 
  "lovely": 3580, 
  "decorated": 3581, 
  "sum": 3582, 
  "Consumer": 3583, 
  "rec@@": 3584, 
  "consent": 3585, 
  "losses": 3586, 
  "locations": 3587, 
  "flows": 3588, 
  "remained": 3589, 
  "zed": 3590, 
  "nationals": 3591, 
  "undertakings": 3592, 
  "division": 3593, 
  "ali@@": 3594, 
  "loan": 3595, 
  "prefer": 3596, 
  "understood": 3597, 
  "tip": 3598, 
  "ale": 3599, 
  "continuous": 3600, 
  "teams": 3601, 
  "twenty": 3602, 
  "Bosnia": 3603, 
  "selling": 3604, 
  "geographical": 3605, 
  "considerably": 3606, 
  "á@@": 3607, 
  "amended": 3608, 
  "competitors": 3609, 
  "grateful": 3610, 
  "brief": 3611, 
  "suggested": 3612, 
  "ler": 3613, 
  "um@@": 3614, 
  "regardless": 3615, 
  "library": 3616, 
  "reservations": 3617, 
  "representation": 3618, 
  "pieces": 3619, 
  "si": 3620, 
  "IS": 3621, 
  "De@@": 3622, 
  "indicators": 3623, 
  "lay": 3624, 
  "satisfactory": 3625, 
  "reject": 3626, 
  "woman": 3627, 
  "EN@@": 3628, 
  "tra@@": 3629, 
  "aside": 3630, 
  "generate": 3631, 
  "bridge": 3632, 
  "ECB": 3633, 
  "Saint": 3634, 
  "fashion": 3635, 
  "freedoms": 3636, 
  "forests": 3637, 
  "normally": 3638, 
  "Le@@": 3639, 
  "reflects": 3640, 
  "Prague": 3641, 
  "comparison": 3642, 
  "afternoon": 3643, 
  "nonetheless": 3644, 
  "decade": 3645, 
  "reconstruction": 3646, 
  "university": 3647, 
  "constitutes": 3648, 
  "hair": 3649, 
  "wi@@": 3650, 
  "ks": 3651, 
  "surveillance": 3652, 
  "mix": 3653, 
  "berg": 3654, 
  "Danish": 3655, 
  "producer": 3656, 
  "balcony": 3657, 
  "proceed": 3658, 
  "earth": 3659, 
  "za": 3660, 
  "encouraged": 3661, 
  "interior": 3662, 
  "mon@@": 3663, 
  "ry": 3664, 
  "gained": 3665, 
  "hall": 3666, 
  "ranging": 3667, 
  "album": 3668, 
  "relaxation": 3669, 
  "Roman": 3670, 
  "Federation": 3671, 
  "subjects": 3672, 
  "ING": 3673, 
  "fees": 3674, 
  "NGOs": 3675, 
  "cuts": 3676, 
  "concentration": 3677, 
  "cor@@": 3678, 
  "dispute": 3679, 
  "refers": 3680, 
  "subsequent": 3681, 
  "ators": 3682, 
  "greatly": 3683, 
  "jointly": 3684, 
  "valley": 3685, 
  "airports": 3686, 
  "realistic": 3687, 
  "friend": 3688, 
  "River": 3689, 
  "arising": 3690, 
  "allocation": 3691, 
  "sought": 3692, 
  "97": 3693, 
  "exciting": 3694, 
  "difficulty": 3695, 
  "internationally": 3696, 
  "configuration": 3697, 
  "Street": 3698, 
  "desired": 3699, 
  "06": 3700, 
  "castle": 3701, 
  "entrance": 3702, 
  "favourable": 3703, 
  "lift": 3704, 
  "usual": 3705, 
  "Dr.": 3706, 
  "airlines": 3707, 
  "Pre@@": 3708, 
  "treat": 3709, 
  "AS@@": 3710, 
  "1991": 3711, 
  "rock": 3712, 
  "tion": 3713, 
  "shortly": 3714, 
  "venture": 3715, 
  "suggestions": 3716, 
  "restore": 3717, 
  "65": 3718, 
  "EEA": 3719, 
  "diverse": 3720, 
  "CO@@": 3721, 
  "corner": 3722, 
  "96": 3723, 
  "occasions": 3724, 
  "graphics": 3725, 
  "excluded": 3726, 
  "ms": 3727, 
  "je": 3728, 
  "Commissioners": 3729, 
  "movements": 3730, 
  "stages": 3731, 
  "reflected": 3732, 
  "Friday": 3733, 
  "Su@@": 3734, 
  "extraordinary": 3735, 
  "proportion": 3736, 
  "Mon@@": 3737, 
  "constitution": 3738, 
  "disabled": 3739, 
  "speaker": 3740, 
  "av@@": 3741, 
  "solely": 3742, 
  "achievement": 3743, 
  "retail": 3744, 
  "enabled": 3745, 
  "electric": 3746, 
  "Square": 3747, 
  "vacation": 3748, 
  "55": 3749, 
  "eligible": 3750, 
  "Aid": 3751, 
  "suites": 3752, 
  "familiar": 3753, 
  "highlights": 3754, 
  "tonnes": 3755, 
  "AL@@": 3756, 
  "deposit": 3757, 
  "hostel": 3758, 
  "incentives": 3759, 
  "planet": 3760, 
  "²": 3761, 
  "completion": 3762, 
  "politically": 3763, 
  "spoken": 3764, 
  "trial": 3765, 
  "pl@@": 3766, 
  "invites": 3767, 
  "implications": 3768, 
  "micro@@": 3769, 
  "proven": 3770, 
  "adjustment": 3771, 
  "una": 3772, 
  "revenue": 3773, 
  "hearing": 3774, 
  "Growth": 3775, 
  "•": 3776, 
  "disasters": 3777, 
  "plenty": 3778, 
  "fitness": 3779, 
  "clause": 3780, 
  "adults": 3781, 
  "severe": 3782, 
  "Syria": 3783, 
  "weak": 3784, 
  "PL": 3785, 
  "af@@": 3786, 
  "suffer": 3787, 
  "drop": 3788, 
  "Kyoto": 3789, 
  "il@@": 3790, 
  "driven": 3791, 
  "winning": 3792, 
  "ology": 3793, 
  "highlighted": 3794, 
  "domain": 3795, 
  "label": 3796, 
  "exploitation": 3797, 
  "cu@@": 3798, 
  "seeks": 3799, 
  "34": 3800, 
  "scientists": 3801, 
  "ER@@": 3802, 
  "virtual": 3803, 
  "Palace": 3804, 
  "ger": 3805, 
  "08": 3806, 
  "argument": 3807, 
  "Peter": 3808, 
  "03": 3809, 
  "threats": 3810, 
  "ses": 3811, 
  "adapted": 3812, 
  "ended": 3813, 
  "cosy": 3814, 
  "died": 3815, 
  "departure": 3816, 
  "finances": 3817, 
  "600": 3818, 
  "directed": 3819, 
  "authorised": 3820, 
  "accounting": 3821, 
  "Youth": 3822, 
  "initially": 3823, 
  "referendum": 3824, 
  "mother": 3825, 
  "rental": 3826, 
  "fleet": 3827, 
  "RO@@": 3828, 
  "master": 3829, 
  "ters": 3830, 
  "ED": 3831, 
  "artist": 3832, 
  "marks": 3833, 
  "Macedonia": 3834, 
  "blog": 3835, 
  "gradually": 3836, 
  "EN": 3837, 
  "cancer": 3838, 
  "Global": 3839, 
  "protocol": 3840, 
  "ei@@": 3841, 
  "lots": 3842, 
  "indicate": 3843, 
  "everyday": 3844, 
  "lunch": 3845, 
  "So@@": 3846, 
  "eb@@": 3847, 
  "für": 3848, 
  "preliminary": 3849, 
  "mar@@": 3850, 
  "Nice": 3851, 
  "everybody": 3852, 
  "suffered": 3853, 
  "conservation": 3854, 
  "England": 3855, 
  "tested": 3856, 
  "permitted": 3857, 
  "sen@@": 3858, 
  "armed": 3859, 
  "Best": 3860, 
  "battle": 3861, 
  "phrase": 3862, 
  "gardens": 3863, 
  "mini": 3864, 
  "concepts": 3865, 
  "wing": 3866, 
  "RE@@": 3867, 
  "alongside": 3868, 
  "IMF": 3869, 
  "sole": 3870, 
  "pilot": 3871, 
  "transitional": 3872, 
  "Special": 3873, 
  "Per@@": 3874, 
  "Media": 3875, 
  "explained": 3876, 
  "Fi": 3877, 
  "engage": 3878, 
  "shift": 3879, 
  "definitely": 3880, 
  "Pi@@": 3881, 
  "Ab@@": 3882, 
  "centuries": 3883, 
  "arguments": 3884, 
  "OS": 3885, 
  "governing": 3886, 
  "windows": 3887, 
  "travelling": 3888, 
  "marine": 3889, 
  "imagine": 3890, 
  "patient": 3891, 
  "straight": 3892, 
  "Asian": 3893, 
  "lastly": 3894, 
  "lounge": 3895, 
  "Com@@": 3896, 
  "spectacular": 3897, 
  "filled": 3898, 
  "Station": 3899, 
  "External": 3900, 
  "ence": 3901, 
  "ces": 3902, 
  "authorisation": 3903, 
  "presenting": 3904, 
  "assure": 3905, 
  "beings": 3906, 
  "Cor@@": 3907, 
  "count": 3908, 
  "hundred": 3909, 
  "Society": 3910, 
  "attempts": 3911, 
  "49": 3912, 
  "Data": 3913, 
  "tables": 3914, 
  "lie": 3915, 
  "firmly": 3916, 
  "stylish": 3917, 
  "missing": 3918, 
  "euros": 3919, 
  "ino": 3920, 
  "Michael": 3921, 
  "Civil": 3922, 
  "succeed": 3923, 
  "environmentally": 3924, 
  "traditions": 3925, 
  "Jean": 3926, 
  "Room": 3927, 
  "toward": 3928, 
  "army": 3929, 
  "associations": 3930, 
  "secret": 3931, 
  "&apos;m": 3932, 
  "AS": 3933, 
  "mit": 3934, 
  "ruling": 3935, 
  "De": 3936, 
  "drinks": 3937, 
  "gra@@": 3938, 
  "approaches": 3939, 
  "ordinary": 3940, 
  "acceptance": 3941, 
  "accident": 3942, 
  "engaged": 3943, 
  "processed": 3944, 
  "Australia": 3945, 
  "holds": 3946, 
  "ders": 3947, 
  "IT@@": 3948, 
  "collected": 3949, 
  "significance": 3950, 
  "combine": 3951, 
  "religion": 3952, 
  "fishermen": 3953, 
  "ak": 3954, 
  "complaints": 3955, 
  "thousand": 3956, 
  "rare": 3957, 
  "researchers": 3958, 
  "he@@": 3959, 
  "Congress": 3960, 
  "ster": 3961, 
  "moral": 3962, 
  "sections": 3963, 
  "concentrate": 3964, 
  "vocational": 3965, 
  "teachers": 3966, 
  "capabilities": 3967, 
  "Lo@@": 3968, 
  "Executive": 3969, 
  "negotiation": 3970, 
  "appropriations": 3971, 
  "countryside": 3972, 
  "miles": 3973, 
  "integrate": 3974, 
  "violations": 3975, 
  "errors": 3976, 
  "magnificent": 3977, 
  "wrote": 3978, 
  "homes": 3979, 
  "essentially": 3980, 
  "transferred": 3981, 
  "4.@@": 3982, 
  "ber": 3983, 
  "í@@": 3984, 
  "Department": 3985, 
  "vo@@": 3986, 
  "Bi@@": 3987, 
  "ratification": 3988, 
  "upper": 3989, 
  "log": 3990, 
  "supplied": 3991, 
  "renowned": 3992, 
  "connect": 3993, 
  "football": 3994, 
  "panel": 3995, 
  "arrived": 3996, 
  "female": 3997, 
  "ches": 3998, 
  "weekend": 3999, 
  "j": 4000, 
  "up@@": 4001, 
  "urgently": 4002, 
  "ys": 4003, 
  "Islamic": 4004, 
  "unlike": 4005, 
  "ger@@": 4006, 
  "ga": 4007, 
  "confirmation": 4008, 
  "sc@@": 4009, 
  "Strasbourg": 4010, 
  "entering": 4011, 
  "welcoming": 4012, 
  "recognized": 4013, 
  "37": 4014, 
  "teaching": 4015, 
  "theory": 4016, 
  "Thursday": 4017, 
  "pillar": 4018, 
  "18@@": 4019, 
  "ko@@": 4020, 
  "ke@@": 4021, 
  "looked": 4022, 
  "Bush": 4023, 
  "Network": 4024, 
  "findings": 4025, 
  "leaves": 4026, 
  "ISO": 4027, 
  "ven@@": 4028, 
  "greenhouse": 4029, 
  "arise": 4030, 
  "extending": 4031, 
  "manufacture": 4032, 
  "artistic": 4033, 
  "approve": 4034, 
  "medicines": 4035, 
  "Spa": 4036, 
  "budgets": 4037, 
  "pro": 4038, 
  "ness": 4039, 
  "enjoyed": 4040, 
  "subsequently": 4041, 
  "64": 4042, 
  "zu": 4043, 
  "deeply": 4044, 
  "gh@@": 4045, 
  "cells": 4046, 
  "generations": 4047, 
  "col@@": 4048, 
  "consulting": 4049, 
  "Lu@@": 4050, 
  "accurate": 4051, 
  "relative": 4052, 
  "frame": 4053, 
  "accidents": 4054, 
  "IS@@": 4055, 
  "specialist": 4056, 
  "Old": 4057, 
  "05": 4058, 
  "Church": 4059, 
  "preparations": 4060, 
  "Geneva": 4061, 
  "uniform": 4062, 
  "chemicals": 4063, 
  "04": 4064, 
  "Inter@@": 4065, 
  "prime": 4066, 
  "functional": 4067, 
  "killed": 4068, 
  "hardly": 4069, 
  "appeared": 4070, 
  "profits": 4071, 
  "85": 4072, 
  "complicated": 4073, 
  "heading": 4074, 
  "anti@@": 4075, 
  "Islands": 4076, 
  "bar@@": 4077, 
  "sufficiently": 4078, 
  "ative": 4079, 
  "crises": 4080, 
  "wild": 4081, 
  "doors": 4082, 
  "scheduled": 4083, 
  "1st": 4084, 
  "spoke": 4085, 
  "scene": 4086, 
  "cleaning": 4087, 
  "Ch@@": 4088, 
  "finish": 4089, 
  "Par@@": 4090, 
  "ep@@": 4091, 
  "efficiently": 4092, 
  "ard": 4093, 
  "bike": 4094, 
  "villages": 4095, 
  "DG": 4096, 
  "maybe": 4097, 
  "instructions": 4098, 
  "directory": 4099, 
  "ars": 4100, 
  "bearing": 4101, 
  "Euro@@": 4102, 
  "portfolio": 4103, 
  "Earth": 4104, 
  "ve@@": 4105, 
  "consequence": 4106, 
  "skiing": 4107, 
  "Gu@@": 4108, 
  "hopes": 4109, 
  "acquired": 4110, 
  "clubs": 4111, 
  "transfers": 4112, 
  "parameters": 4113, 
  "reinforce": 4114, 
  "sheet": 4115, 
  "W": 4116, 
  "inc@@": 4117, 
  "handle": 4118, 
  "contributing": 4119, 
  "wonder": 4120, 
  "EADS": 4121, 
  "Le": 4122, 
  "affecting": 4123, 
  "reliability": 4124, 
  "colours": 4125, 
  "tea": 4126, 
  "guidance": 4127, 
  "destroyed": 4128, 
  "oc@@": 4129, 
  "Hamburg": 4130, 
  "sky": 4131, 
  "pa@@": 4132, 
  "Royal": 4133, 
  "compulsory": 4134, 
  "harmful": 4135, 
  "Chairman": 4136, 
  "permit": 4137, 
  "dumping": 4138, 
  "5.@@": 4139, 
  "Americans": 4140, 
  "granting": 4141, 
  "reasoned": 4142, 
  "manager": 4143, 
  "ends": 4144, 
  "grants": 4145, 
  "Labour": 4146, 
  "freely": 4147, 
  "reaction": 4148, 
  "agents": 4149, 
  "sovereignty": 4150, 
  "layer": 4151, 
  "ves": 4152, 
  "zing": 4153, 
  "mu@@": 4154, 
  "Se@@": 4155, 
  "we@@": 4156, 
  "philosophy": 4157, 
  "ownership": 4158, 
  "relates": 4159, 
  "EESC": 4160, 
  "resulted": 4161, 
  "meets": 4162, 
  "King": 4163, 
  "module": 4164, 
  "gs": 4165, 
  "audit": 4166, 
  "ser@@": 4167, 
  "whenever": 4168, 
  "3D": 4169, 
  "representing": 4170, 
  "tennis": 4171, 
  "assembly": 4172, 
  "coastal": 4173, 
  "duration": 4174, 
  "Sunday": 4175, 
  "David": 4176, 
  "endorse": 4177, 
  "produces": 4178, 
  "trips": 4179, 
  "realise": 4180, 
  "underlying": 4181, 
  "luxurious": 4182, 
  "worst": 4183, 
  "42": 4184, 
  "disk": 4185, 
  "relief": 4186, 
  "Santa": 4187, 
  "conventional": 4188, 
  "catch": 4189, 
  "lets": 4190, 
  "School": 4191, 
  "operates": 4192, 
  "Obama": 4193, 
  "BSE": 4194, 
  "pure": 4195, 
  "clarify": 4196, 
  "focusing": 4197, 
  "consolidation": 4198, 
  "AN@@": 4199, 
  "ob@@": 4200, 
  "Science": 4201, 
  "grown": 4202, 
  "enhancing": 4203, 
  "alcohol": 4204, 
  "remarks": 4205, 
  "nights": 4206, 
  "Europol": 4207, 
  "soil": 4208, 
  "biodiversity": 4209, 
  "zation": 4210, 
  "ek@@": 4211, 
  "deadline": 4212, 
  "widespread": 4213, 
  "faith": 4214, 
  "navigation": 4215, 
  "rely": 4216, 
  "Treaties": 4217, 
  "tree": 4218, 
  "dream": 4219, 
  "war@@": 4220, 
  "El": 4221, 
  "dignity": 4222, 
  "ality": 4223, 
  "Monday": 4224, 
  "identification": 4225, 
  "opens": 4226, 
  "ite": 4227, 
  "ck": 4228, 
  "desk": 4229, 
  "Mi@@": 4230, 
  "ments": 4231, 
  "satisfy": 4232, 
  "undoubtedly": 4233, 
  "united": 4234, 
  "Regions": 4235, 
  "Prodi": 4236, 
  "twice": 4237, 
  "autumn": 4238, 
  "supposed": 4239, 
  "Nos": 4240, 
  "solar": 4241, 
  "ner": 4242, 
  "and@@": 4243, 
  "It": 4244, 
  "amending": 4245, 
  "execution": 4246, 
  "fo@@": 4247, 
  "cast": 4248, 
  "ES@@": 4249, 
  "vis": 4250, 
  "organise": 4251, 
  "ps": 4252, 
  "unfair": 4253, 
  "collect": 4254, 
  "computers": 4255, 
  "ess": 4256, 
  "MEMO": 4257, 
  "damages": 4258, 
  "Deutsche": 4259, 
  "Time": 4260, 
  "ID": 4261, 
  "Morocco": 4262, 
  "cultures": 4263, 
  "EUROPEAN": 4264, 
  "stake": 4265, 
  "classes": 4266, 
  "preserve": 4267, 
  "38": 4268, 
  "student": 4269, 
  "timetable": 4270, 
  "doubts": 4271, 
  "strictly": 4272, 
  "AL": 4273, 
  "similarly": 4274, 
  "diplomatic": 4275, 
  "lived": 4276, 
  "ecological": 4277, 
  "smooth": 4278, 
  "trans@@": 4279, 
  "modules": 4280, 
  "cre@@": 4281, 
  "executive": 4282, 
  "composition": 4283, 
  "productive": 4284, 
  "ver": 4285, 
  "referring": 4286, 
  "tel": 4287, 
  "applicant": 4288, 
  "IC@@": 4289, 
  "economically": 4290, 
  "Island": 4291, 
  "suggests": 4292, 
  "liable": 4293, 
  "informal": 4294, 
  "push": 4295, 
  "ha": 4296, 
  "39": 4297, 
  "qualifications": 4298, 
  "Maria": 4299, 
  "director": 4300, 
  "Q@@": 4301, 
  "parliament": 4302, 
  "sphere": 4303, 
  "employers": 4304, 
  "load": 4305, 
  "Desk": 4306, 
  "appointment": 4307, 
  "Private": 4308, 
  "sed": 4309, 
  "necessarily": 4310, 
  "Albania": 4311, 
  "1989": 4312, 
  "dominant": 4313, 
  "merger": 4314, 
  "Festival": 4315, 
  "cent": 4316, 
  "focuses": 4317, 
  "fer@@": 4318, 
  "signing": 4319, 
  "eliminate": 4320, 
  "eat": 4321, 
  "delicious": 4322, 
  "functionality": 4323, 
  "adding": 4324, 
  "secondary": 4325, 
  "switch": 4326, 
  "Heads": 4327, 
  "engines": 4328, 
  "compete": 4329, 
  "emission": 4330, 
  "Town": 4331, 
  "healthcare": 4332, 
  "para": 4333, 
  "appearance": 4334, 
  "Black": 4335, 
  "Restaurant": 4336, 
  "studio": 4337, 
  "ff@@": 4338, 
  "everywhere": 4339, 
  "learned": 4340, 
  "saved": 4341, 
  "PT": 4342, 
  "restricted": 4343, 
  "pick": 4344, 
  "43": 4345, 
  "asset": 4346, 
  "mann": 4347, 
  "exchanges": 4348, 
  "finds": 4349, 
  "makers": 4350, 
  "plastic": 4351, 
  "festival": 4352, 
  "fans": 4353, 
  "Dublin": 4354, 
  "expand": 4355, 
  "falls": 4356, 
  "publications": 4357, 
  "root": 4358, 
  "broader": 4359, 
  "Iceland": 4360, 
  "observed": 4361, 
  "sex": 4362, 
  "neighbours": 4363, 
  "renewed": 4364, 
  "reserved": 4365, 
  "labor": 4366, 
  "eurozone": 4367, 
  "musical": 4368, 
  "civilian": 4369, 
  "sounds": 4370, 
  "dry": 4371, 
  "gallery": 4372, 
  "wellness": 4373, 
  "willingness": 4374, 
  "puts": 4375, 
  "cal": 4376, 
  "unforgettable": 4377, 
  "characters": 4378, 
  "93": 4379, 
  "ah": 4380, 
  "92": 4381, 
  "designs": 4382, 
  "prize": 4383, 
  "inspection": 4384, 
  "olive": 4385, 
  "Legal": 4386, 
  "snow": 4387, 
  "Non": 4388, 
  "pace": 4389, 
  "tes": 4390, 
  "minister": 4391, 
  "Fundamental": 4392, 
  "occurred": 4393, 
  "ordered": 4394, 
  "chapter": 4395, 
  "Co": 4396, 
  "anywhere": 4397, 
  "lending": 4398, 
  "Mobile": 4399, 
  "las": 4400, 
  "birth": 4401, 
  "incorporated": 4402, 
  "eh@@": 4403, 
  "partnerships": 4404, 
  "individually": 4405, 
  "ach@@": 4406, 
  "sight": 4407, 
  "FOR": 4408, 
  "Page": 4409, 
  "liberal": 4410, 
  "wage": 4411, 
  "cell": 4412, 
  "transit": 4413, 
  "ages": 4414, 
  "ati@@": 4415, 
  "coal": 4416, 
  "utmost": 4417, 
  "ano": 4418, 
  "freight": 4419, 
  "consult": 4420, 
  "can@@": 4421, 
  "PHP": 4422, 
  "tur@@": 4423, 
  "jurisdiction": 4424, 
  "choices": 4425, 
  "province": 4426, 
  "20@@": 4427, 
  "inclusive": 4428, 
  "250": 4429, 
  "Martin": 4430, 
  "ratio": 4431, 
  "virtually": 4432, 
  "pu@@": 4433, 
  "hospitality": 4434, 
  "Socialist": 4435, 
  "Systems": 4436, 
  "restored": 4437, 
  "managers": 4438, 
  "museums": 4439, 
  "Indian": 4440, 
  "edition": 4441, 
  "timely": 4442, 
  "compact": 4443, 
  "commerce": 4444, 
  "Finnish": 4445, 
  "belief": 4446, 
  "fairly": 4447, 
  "pensions": 4448, 
  "considerations": 4449, 
  "dollar": 4450, 
  "didn": 4451, 
  "CH@@": 4452, 
  "printed": 4453, 
  "sa": 4454, 
  "1,@@": 4455, 
  "em": 4456, 
  "conferences": 4457, 
  "courage": 4458, 
  "OR@@": 4459, 
  "Ex@@": 4460, 
  "des@@": 4461, 
  "ceiling": 4462, 
  "IV": 4463, 
  "Man@@": 4464, 
  "spectrum": 4465, 
  "ride": 4466, 
  "USB": 4467, 
  "wa@@": 4468, 
  "regulated": 4469, 
  "dead": 4470, 
  "pm": 4471, 
  "causing": 4472, 
  "phenomenon": 4473, 
  "44": 4474, 
  "anniversary": 4475, 
  "AT@@": 4476, 
  "dark": 4477, 
  "breach": 4478, 
  "stars": 4479, 
  "heads": 4480, 
  "ity": 4481, 
  "ges": 4482, 
  "Wi": 4483, 
  "symbol": 4484, 
  "ic@@": 4485, 
  "mental": 4486, 
  "repair": 4487, 
  "treatments": 4488, 
  "affects": 4489, 
  "thermal": 4490, 
  "upgrade": 4491, 
  "Putin": 4492, 
  "Z": 4493, 
  "adds": 4494, 
  "consultations": 4495, 
  "integrity": 4496, 
  "achievements": 4497, 
  "smart": 4498, 
  "quota": 4499, 
  "EL@@": 4500, 
  "Van": 4501, 
  "subsidiary": 4502, 
  "explanation": 4503, 
  "sis": 4504, 
  "Bu@@": 4505, 
  "simplification": 4506, 
  "promise": 4507, 
  "Region": 4508, 
  "Paul": 4509, 
  "factory": 4510, 
  "liked": 4511, 
  "videos": 4512, 
  "poorest": 4513, 
  "certainty": 4514, 
  "suit": 4515, 
  "ir@@": 4516, 
  "certification": 4517, 
  "zero": 4518, 
  "formally": 4519, 
  "One": 4520, 
  "nobody": 4521, 
  "serving": 4522, 
  "ously": 4523, 
  "Inn": 4524, 
  "populations": 4525, 
  "fax": 4526, 
  "inadequate": 4527, 
  "Du@@": 4528, 
  "visual": 4529, 
  "beef": 4530, 
  "romantic": 4531, 
  "governmental": 4532, 
  "installations": 4533, 
  "promised": 4534, 
  "logical": 4535, 
  "briefly": 4536, 
  "sen": 4537, 
  "attend": 4538, 
  "faces": 4539, 
  "guided": 4540, 
  "ba@@": 4541, 
  "shadow": 4542, 
  "undertaking": 4543, 
  "Saturday": 4544, 
  "underground": 4545, 
  "disputes": 4546, 
  "medicine": 4547, 
  "undertake": 4548, 
  "ton": 4549, 
  "meal": 4550, 
  "Michel": 4551, 
  "electrical": 4552, 
  "AD@@": 4553, 
  "campaigns": 4554, 
  "Site": 4555, 
  "insufficient": 4556, 
  "initiated": 4557, 
  "acknowledge": 4558, 
  "inspired": 4559, 
  "negotiated": 4560, 
  "ang": 4561, 
  "journalists": 4562, 
  "whereby": 4563, 
  "ju@@": 4564, 
  "tracks": 4565, 
  "Ber@@": 4566, 
  "electoral": 4567, 
  "Venice": 4568, 
  "varied": 4569, 
  "narrow": 4570, 
  "reputation": 4571, 
  "movie": 4572, 
  "fails": 4573, 
  "massage": 4574, 
  "Bay": 4575, 
  "principal": 4576, 
  "unity": 4577, 
  "AIDS": 4578, 
  "Pacific": 4579, 
  "delays": 4580, 
  "belong": 4581, 
  "tor": 4582, 
  "sing": 4583, 
  "substantially": 4584, 
  "records": 4585, 
  "hiking": 4586, 
  "convention": 4587, 
  "ultimate": 4588, 
  "ini@@": 4589, 
  "fewer": 4590, 
  "ca@@": 4591, 
  "usage": 4592, 
  "Valley": 4593, 
  "ise": 4594, 
  "Ne@@": 4595, 
  "mandatory": 4596, 
  "fifth": 4597, 
  "reductions": 4598, 
  "mixed": 4599, 
  "cur@@": 4600, 
  "Constitutional": 4601, 
  "amenities": 4602, 
  "OR": 4603, 
  "sit": 4604, 
  "song": 4605, 
  "Lebanon": 4606, 
  "Design": 4607, 
  "joining": 4608, 
  "communicate": 4609, 
  "overlooking": 4610, 
  "Christmas": 4611, 
  "seats": 4612, 
  "operated": 4613, 
  "commit": 4614, 
  "Beach": 4615, 
  "mer@@": 4616, 
  "ex": 4617, 
  "songs": 4618, 
  "sophisticated": 4619, 
  "struggle": 4620, 
  "postal": 4621, 
  "honour": 4622, 
  "sk@@": 4623, 
  "therapy": 4624, 
  "urgency": 4625, 
  "falling": 4626, 
  "min": 4627, 
  "ren@@": 4628, 
  "Defence": 4629, 
  "tariff": 4630, 
  "19th": 4631, 
  "Or@@": 4632, 
  "ff": 4633, 
  "41": 4634, 
  "recording": 4635, 
  "sensible": 4636, 
  "ideally": 4637, 
  "Tourism": 4638, 
  "retain": 4639, 
  "Declaration": 4640, 
  "thorough": 4641, 
  "foundations": 4642, 
  "begins": 4643, 
  "investigations": 4644, 
  "air@@": 4645, 
  "viable": 4646, 
  "ein": 4647, 
  "blocks": 4648, 
  "removal": 4649, 
  "AC@@": 4650, 
  "ada": 4651, 
  "trans": 4652, 
  "EL": 4653, 
  "horse": 4654, 
  "Moldova": 4655, 
  "composed": 4656, 
  "specialists": 4657, 
  "ado": 4658, 
  "multi@@": 4659, 
  "gli@@": 4660, 
  "46": 4661, 
  "PPE": 4662, 
  "Open": 4663, 
  "EC@@": 4664, 
  "COM": 4665, 
  "gar@@": 4666, 
  "combines": 4667, 
  "summary": 4668, 
  "Express": 4669, 
  "imported": 4670, 
  "gross": 4671, 
  "exact": 4672, 
  "pretty": 4673, 
  "min@@": 4674, 
  "sand": 4675, 
  "pursued": 4676, 
  "Go@@": 4677, 
  "ore": 4678, 
  "residents": 4679, 
  "publish": 4680, 
  "relationships": 4681, 
  "minor": 4682, 
  "tor@@": 4683, 
  "ying": 4684, 
  "passing": 4685, 
  "recognize": 4686, 
  "deficits": 4687, 
  "amazing": 4688, 
  "statistical": 4689, 
  "Amendments": 4690, 
  "purely": 4691, 
  "ts@@": 4692, 
  "ph@@": 4693, 
  "servers": 4694, 
  "a.m.": 4695, 
  "till": 4696, 
  "succeeded": 4697, 
  "wear": 4698, 
  "tre@@": 4699, 
  "Southern": 4700, 
  "AM@@": 4701, 
  "arrangement": 4702, 
  "000@@": 4703, 
  "ens": 4704, 
  "letters": 4705, 
  "surprise": 4706, 
  "exposed": 4707, 
  "Award": 4708, 
  "listings": 4709, 
  "conversion": 4710, 
  "ko": 4711, 
  "spite": 4712, 
  "federal": 4713, 
  "radical": 4714, 
  "superior": 4715, 
  "prisoners": 4716, 
  "openness": 4717, 
  "horizontal": 4718, 
  "sights": 4719, 
  "Intergovernmental": 4720, 
  "guaranteeing": 4721, 
  "mistake": 4722, 
  "textile": 4723, 
  "ball": 4724, 
  "Herzegovina": 4725, 
  "beer": 4726, 
  "oppose": 4727, 
  "chi@@": 4728, 
  "custom": 4729, 
  "credible": 4730, 
  "repeated": 4731, 
  "ingredients": 4732, 
  "Un@@": 4733, 
  "panoramic": 4734, 
  "hidden": 4735, 
  "formats": 4736, 
  "posts": 4737, 
  "failing": 4738, 
  "legitimacy": 4739, 
  "Sudan": 4740, 
  "Sp@@": 4741, 
  "comparable": 4742, 
  "taxpayers": 4743, 
  "assessed": 4744, 
  "700": 4745, 
  "kilometres": 4746, 
  "·": 4747, 
  "unnecessary": 4748, 
  "frequency": 4749, 
  "floors": 4750, 
  "info": 4751, 
  "Card": 4752, 
  "Hall": 4753, 
  "Countries": 4754, 
  "7.@@": 4755, 
  "violation": 4756, 
  "notification": 4757, 
  "portal": 4758, 
  "threshold": 4759, 
  "1.5": 4760, 
  "Tra@@": 4761, 
  "tackling": 4762, 
  "Val@@": 4763, 
  "enlarged": 4764, 
  "begun": 4765, 
  "structured": 4766, 
  "meanwhile": 4767, 
  "releases": 4768, 
  "withdraw": 4769, 
  "premium": 4770, 
  "intelligent": 4771, 
  "restrictive": 4772, 
  "Montenegro": 4773, 
  "ki": 4774, 
  "buses": 4775, 
  "unemployed": 4776, 
  "automotive": 4777, 
  "uncertainty": 4778, 
  "girls": 4779, 
  "concert": 4780, 
  "ro": 4781, 
  "picturesque": 4782, 
  "newsletter": 4783, 
  "ble": 4784, 
  "additionally": 4785, 
  "modernisation": 4786, 
  "UN@@": 4787, 
  "promises": 4788, 
  "manual": 4789, 
  "troops": 4790, 
  "ease": 4791, 
  "basically": 4792, 
  "cm": 4793, 
  "Digital": 4794, 
  "eu@@": 4795, 
  "fuels": 4796, 
  "equity": 4797, 
  "Exchange": 4798, 
  "contractual": 4799, 
  "metro": 4800, 
  "stresses": 4801, 
  "sorry": 4802, 
  "ending": 4803, 
  "vary": 4804, 
  "roll": 4805, 
  "visits": 4806, 
  "120": 4807, 
  "ines": 4808, 
  "amend": 4809, 
  "signature": 4810, 
  "Hong": 4811, 
  "senior": 4812, 
  "ata": 4813, 
  "boats": 4814, 
  "coverage": 4815, 
  "ised": 4816, 
  "potentially": 4817, 
  "promoted": 4818, 
  "camp": 4819, 
  "devoted": 4820, 
  "casino": 4821, 
  "chair": 4822, 
  "ein@@": 4823, 
  "bright": 4824, 
  "Gra@@": 4825, 
  "surplus": 4826, 
  "magazine": 4827, 
  "respectively": 4828, 
  "agrees": 4829, 
  "Cuba": 4830, 
  "1000": 4831, 
  "clicking": 4832, 
  "territories": 4833, 
  "negotiate": 4834, 
  "defining": 4835, 
  "mere": 4836, 
  "mouth": 4837, 
  "ö@@": 4838, 
  "sti@@": 4839, 
  "victory": 4840, 
  "buying": 4841, 
  "coordinate": 4842, 
  "zones": 4843, 
  "foster": 4844, 
  "staying": 4845, 
  "script": 4846, 
  "Yugoslav": 4847, 
  "stores": 4848, 
  "lobby": 4849, 
  "specialized": 4850, 
  "simultaneously": 4851, 
  "OLAF": 4852, 
  "ari@@": 4853, 
  "broken": 4854, 
  "trained": 4855, 
  "sustained": 4856, 
  "respects": 4857, 
  "­": 4858, 
  "super@@": 4859, 
  "stories": 4860, 
  "expanded": 4861, 
  "Kong": 4862, 
  "ste@@": 4863, 
  "Ko@@": 4864, 
  "developers": 4865, 
  "lo": 4866, 
  "translated": 4867, 
  "dance": 4868, 
  "respecting": 4869, 
  "Me@@": 4870, 
  "oldest": 4871, 
  "systematic": 4872, 
  "George": 4873, 
  "prison": 4874, 
  "emphasised": 4875, 
  "ingly": 4876, 
  "lin@@": 4877, 
  "wherever": 4878, 
  "Tour": 4879, 
  "Facilities": 4880, 
  "Journal": 4881, 
  "sessions": 4882, 
  "Official": 4883, 
  "Washington": 4884, 
  "Initiative": 4885, 
  "meals": 4886, 
  "ATION": 4887, 
  "pressing": 4888, 
  "conciliation": 4889, 
  "NL": 4890, 
  "Prize": 4891, 
  "remarkable": 4892, 
  "stunning": 4893, 
  "bur@@": 4894, 
  "ged": 4895, 
  "evident": 4896, 
  "har@@": 4897, 
  "mine": 4898, 
  "infringements": 4899, 
  "conditioned": 4900, 
  "Gaza": 4901, 
  "back@@": 4902, 
  "manufactured": 4903, 
  "certified": 4904, 
  "clarity": 4905, 
  "codecision": 4906, 
  "Gi@@": 4907, 
  "returns": 4908, 
  "ó@@": 4909, 
  "expense": 4910, 
  "dy": 4911, 
  "sovereign": 4912, 
  "studied": 4913, 
  "fell": 4914, 
  "insist": 4915, 
  "closing": 4916, 
  "cs": 4917, 
  "classical": 4918, 
  "filter": 4919, 
  "Women": 4920, 
  "penalties": 4921, 
  "machinery": 4922, 
  "kernel": 4923, 
  "enjoying": 4924, 
  "collapse": 4925, 
  "47": 4926, 
  "Castle": 4927, 
  "Mor@@": 4928, 
  "Breakfast": 4929, 
  "pursuant": 4930, 
  "underlined": 4931, 
  "simplify": 4932, 
  "6.@@": 4933, 
  "native": 4934, 
  "macroeconomic": 4935, 
  "wave": 4936, 
  "352": 4937, 
  "mouse": 4938, 
  "Find": 4939, 
  "eri@@": 4940, 
  "affordable": 4941, 
  "broadband": 4942, 
  "formation": 4943, 
  "references": 4944, 
  "repeatedly": 4945, 
  "assigned": 4946, 
  "evaluate": 4947, 
  "ara": 4948, 
  "No@@": 4949, 
  "exposure": 4950, 
  "bathrooms": 4951, 
  "ker": 4952, 
  "travellers": 4953, 
  "51": 4954, 
  "nowadays": 4955, 
  "bought": 4956, 
  "supplementary": 4957, 
  "Muslim": 4958, 
  "envisaged": 4959, 
  "Rotary": 4960, 
  "Server": 4961, 
  "gate": 4962, 
  "graphic": 4963, 
  "believed": 4964, 
  "endorsed": 4965, 
  "optimal": 4966, 
  "farms": 4967, 
  "JavaScript": 4968, 
  "kg": 4969, 
  "boards": 4970, 
  "Manager": 4971, 
  "UNION": 4972, 
  "pri@@": 4973, 
  "Her@@": 4974, 
  "cool": 4975, 
  "violent": 4976, 
  "refused": 4977, 
  "ba": 4978, 
  "interim": 4979, 
  "feet": 4980, 
  "bonus": 4981, 
  "quantity": 4982, 
  "pharmaceutical": 4983, 
  "orientation": 4984, 
  "citizenship": 4985, 
  "virus": 4986, 
  "Budgets": 4987, 
  "For@@": 4988, 
  "Resort": 4989, 
  "motorway": 4990, 
  "confident": 4991, 
  "seconds": 4992, 
  "encourages": 4993, 
  "dramatic": 4994, 
  "presidential": 4995, 
  "estimates": 4996, 
  "crew": 4997, 
  "stimulate": 4998, 
  "entity": 4999, 
  "typically": 5000, 
  "migrants": 5001, 
  "progressive": 5002, 
  "roof": 5003, 
  "placing": 5004, 
  "audience": 5005, 
  "discount": 5006, 
  "sample": 5007, 
  "revealed": 5008, 
  "Yugoslavia": 5009, 
  "cancellation": 5010, 
  "Moscow": 5011, 
  "colors": 5012, 
  "revolution": 5013, 
  "describe": 5014, 
  "purchasing": 5015, 
  "withdrawal": 5016, 
  "Front": 5017, 
  "ga@@": 5018, 
  "ethical": 5019, 
  "beneficial": 5020, 
  "exemption": 5021, 
  "prospect": 5022, 
  "crops": 5023, 
  "Stockholm": 5024, 
  "lan@@": 5025, 
  "surprised": 5026, 
  "Online": 5027, 
  "ratified": 5028, 
  "id": 5029, 
  "Cohesion": 5030, 
  "checked": 5031, 
  "Hotels": 5032, 
  "theatre": 5033, 
  "ell@@": 5034, 
  "observe": 5035, 
  "permission": 5036, 
  "airline": 5037, 
  "wooden": 5038, 
  "Relations": 5039, 
  "tend": 5040, 
  "academic": 5041, 
  "ft": 5042, 
  "en.htm": 5043, 
  "officially": 5044, 
  "biological": 5045, 
  "chairman": 5046, 
  "securities": 5047, 
  "sizes": 5048, 
  "tr@@": 5049, 
  "SA": 5050, 
  "ese": 5051, 
  "ai@@": 5052, 
  "miss": 5053, 
  "enjoys": 5054, 
  "Col@@": 5055, 
  "coherence": 5056, 
  "Project": 5057, 
  "necessity": 5058, 
  "indoor": 5059, 
  "For": 5060, 
  "RO": 5061, 
  "comprises": 5062, 
  "publishing": 5063, 
  "contextual": 5064, 
  "hand@@": 5065, 
  "sleep": 5066, 
  "20th": 5067, 
  "imposing": 5068, 
  "adjusted": 5069, 
  "iron": 5070, 
  "El@@": 5071, 
  "Guidelines": 5072, 
  "featuring": 5073, 
  "tion@@": 5074, 
  "indirect": 5075, 
  "quote": 5076, 
  "sions": 5077, 
  "losing": 5078, 
  "declare": 5079, 
  "dimensions": 5080, 
  "alternatives": 5081, 
  "om": 5082, 
  "deaths": 5083, 
  "\\": 5084, 
  "afford": 5085, 
  "bri@@": 5086, 
  "recycling": 5087, 
  "shortcomings": 5088, 
  "ure": 5089, 
  "Innovation": 5090, 
  "occupation": 5091, 
  "ET@@": 5092, 
  "bigger": 5093, 
  "ill": 5094, 
  "Notes": 5095, 
  "Objective": 5096, 
  "residential": 5097, 
  "continuously": 5098, 
  "Meeting": 5099, 
  "sur@@": 5100, 
  "inquiries": 5101, 
  "cookies": 5102, 
  "fly": 5103, 
  "adult": 5104, 
  "Presidents": 5105, 
  "non@@": 5106, 
  "bra@@": 5107, 
  "licence": 5108, 
  "harmonised": 5109, 
  "exceed": 5110, 
  "infrastructures": 5111, 
  "Golf": 5112, 
  "escape": 5113, 
  "ageing": 5114, 
  "neighbourhood": 5115, 
  "USD": 5116, 
  "attended": 5117, 
  "As": 5118, 
  "reflection": 5119, 
  "EMU": 5120, 
  "Palestinians": 5121, 
  "calm": 5122, 
  "preferred": 5123, 
  "auf": 5124, 
  "incentive": 5125, 
  "branch": 5126, 
  "foremost": 5127, 
  "responses": 5128, 
  "harm": 5129, 
  "rating": 5130, 
  "Twitter": 5131, 
  "genuinely": 5132, 
  "birds": 5133, 
  "apparent": 5134, 
  "logistics": 5135, 
  "Casino": 5136, 
  "22@@": 5137, 
  "Life": 5138, 
  "ish": 5139, 
  "295": 5140, 
  "strike": 5141, 
  "m2": 5142, 
  "calendar": 5143, 
  "assurance": 5144, 
  "shareholders": 5145, 
  "requiring": 5146, 
  "Resolution": 5147, 
  "schedule": 5148, 
  "Music": 5149, 
  "Box": 5150, 
  "taxi": 5151, 
  "observation": 5152, 
  "measurement": 5153, 
  "edited": 5154, 
  "une": 5155, 
  "competences": 5156, 
  "expenses": 5157, 
  "drinking": 5158, 
  "Maastricht": 5159, 
  "consistently": 5160, 
  "hills": 5161, 
  "entities": 5162, 
  "alia": 5163, 
  "trains": 5164, 
  "roots": 5165, 
  "row": 5166, 
  "Burma": 5167, 
  "mechanical": 5168, 
  "technique": 5169, 
  "reviewed": 5170, 
  "clothing": 5171, 
  "indicates": 5172, 
  "Do@@": 5173, 
  "Check": 5174, 
  "reinforced": 5175, 
  "intentions": 5176, 
  "Bal@@": 5177, 
  "patents": 5178, 
  "adventure": 5179, 
  "medieval": 5180, 
  "villa": 5181, 
  "Florence": 5182, 
  ",000": 5183, 
  "meaningfully": 5184, 
  "acquire": 5185, 
  "arranged": 5186, 
  "empty": 5187, 
  "--@@": 5188, 
  "Cup": 5189, 
  "importantly": 5190, 
  "justify": 5191, 
  "GMOs": 5192, 
  "modify": 5193, 
  "Annual": 5194, 
  "Chi@@": 5195, 
  "adaptation": 5196, 
  "partial": 5197, 
  "pools": 5198, 
  "explicitly": 5199, 
  "Parliamentary": 5200, 
  "seemed": 5201, 
  "lands": 5202, 
  "Tri@@": 5203, 
  "stuff": 5204, 
  "dra@@": 5205, 
  "suited": 5206, 
  "ECHO": 5207, 
  "deserves": 5208, 
  "refuse": 5209, 
  "confirms": 5210, 
  "Th@@": 5211, 
  "investing": 5212, 
  "assessments": 5213, 
  "Family": 5214, 
  "boot": 5215, 
  "Java": 5216, 
  "likewise": 5217, 
  "complement": 5218, 
  "suspended": 5219, 
  "Peace": 5220, 
  "Pro": 5221, 
  "her@@": 5222, 
  "Democratic": 5223, 
  "Budget": 5224, 
  "Sa@@": 5225, 
  "8.@@": 5226, 
  "Jewish": 5227, 
  "platforms": 5228, 
  "Space": 5229, 
  "Am@@": 5230, 
  "winners": 5231, 
  "performing": 5232, 
  "IM@@": 5233, 
  "donors": 5234, 
  "unanimously": 5235, 
  "Kar@@": 5236, 
  "phones": 5237, 
  "purchased": 5238, 
  "Directives": 5239, 
  "dual": 5240, 
  "authors": 5241, 
  "On": 5242, 
  "News": 5243, 
  "Er@@": 5244, 
  "52": 5245, 
  "Spring": 5246, 
  "demonstrates": 5247, 
  "height": 5248, 
  "56": 5249, 
  "patterns": 5250, 
  "Wednesday": 5251, 
  "contributes": 5252, 
  "destinations": 5253, 
  "To@@": 5254, 
  "consulted": 5255, 
  "listening": 5256, 
  "ats": 5257, 
  "Sal@@": 5258, 
  "Ad@@": 5259, 
  "specially": 5260, 
  "gains": 5261, 
  "shuttle": 5262, 
  "replacement": 5263, 
  "transposition": 5264, 
  "frequent": 5265, 
  "conventions": 5266, 
  "charm": 5267, 
  "supervisory": 5268, 
  "contextually": 5269, 
  "compatibility": 5270, 
  "ley": 5271, 
  "vice": 5272, 
  "examining": 5273, 
  "certificate": 5274, 
  "prohibited": 5275, 
  "grammatically": 5276, 
  "missions": 5277, 
  "riding": 5278, 
  "voters": 5279, 
  "restrict": 5280, 
  "expanding": 5281, 
  "brands": 5282, 
  "integral": 5283, 
  "winner": 5284, 
  "recession": 5285, 
  "ID@@": 5286, 
  "complaint": 5287, 
  "socio": 5288, 
  "ai": 5289, 
  "superb": 5290, 
  "distinction": 5291, 
  "fulfilled": 5292, 
  "9.@@": 5293, 
  "hr@@": 5294, 
  "ably": 5295, 
  "ori@@": 5296, 
  "Ti@@": 5297, 
  "ti": 5298, 
  "baby": 5299, 
  "lowest": 5300, 
  "characteristic": 5301, 
  "heavily": 5302, 
  "inner": 5303, 
  "emerged": 5304, 
  "Ni@@": 5305, 
  "Terms": 5306, 
  "array": 5307, 
  "Communities": 5308, 
  "preserved": 5309, 
  "Robert": 5310, 
  "ir": 5311, 
  "signals": 5312, 
  "mor@@": 5313, 
  "diving": 5314, 
  "recall": 5315, 
  "Qu@@": 5316, 
  "ran@@": 5317, 
  "destroy": 5318, 
  "inquiry": 5319, 
  "User": 5320, 
  "advise": 5321, 
  "threatened": 5322, 
  "speeches": 5323, 
  "EM@@": 5324, 
  "Games": 5325, 
  "bro@@": 5326, 
  "ster@@": 5327, 
  "Mal@@": 5328, 
  "wife": 5329, 
  "Ru@@": 5330, 
  "accuracy": 5331, 
  "logic": 5332, 
  "tragic": 5333, 
  "innovations": 5334, 
  "underlines": 5335, 
  "asks": 5336, 
  "St": 5337, 
  "sta": 5338, 
  "alike": 5339, 
  "intelligence": 5340, 
  "demographic": 5341, 
  "2.5": 5342, 
  "prevented": 5343, 
  "Cal@@": 5344, 
  "fascinating": 5345, 
  "tics": 5346, 
  "ensured": 5347, 
  "sees": 5348, 
  "tragedy": 5349, 
  "recognises": 5350, 
  "cher": 5351, 
  "tech": 5352, 
  "transformation": 5353, 
  "facilitating": 5354, 
  "tro@@": 5355, 
  "monitored": 5356, 
  "capacities": 5357, 
  "HIV": 5358, 
  "feedback": 5359, 
  "sal@@": 5360, 
  "pursuing": 5361, 
  "debating": 5362, 
  "attract": 5363, 
  "micro": 5364, 
  "turns": 5365, 
  "land@@": 5366, 
  "ki@@": 5367, 
  "Budapest": 5368, 
  "maps": 5369, 
  "Slovak": 5370, 
  "Caribbean": 5371, 
  "Smoking": 5372, 
  "themes": 5373, 
  "forgotten": 5374, 
  "dating": 5375, 
  "consistency": 5376, 
  "Academy": 5377, 
  "College": 5378, 
  "keys": 5379, 
  "aries": 5380, 
  "excursions": 5381, 
  "unions": 5382, 
  "thumbnail": 5383, 
  "premises": 5384, 
  "IA": 5385, 
  "Tunisia": 5386, 
  "alization": 5387, 
  "stance": 5388, 
  "folder": 5389, 
  "Support": 5390, 
  "undermine": 5391, 
  "Scotland": 5392, 
  "Airbus": 5393, 
  "reconciliation": 5394, 
  "lively": 5395, 
  "outlined": 5396, 
  "flying": 5397, 
  "cope": 5398, 
  "interactive": 5399, 
  "forth": 5400, 
  "apparently": 5401, 
  "89": 5402, 
  "Libya": 5403, 
  "Argentina": 5404, 
  "Stabilisation": 5405, 
  "62": 5406, 
  "creativity": 5407, 
  "constructed": 5408, 
  "layout": 5409, 
  "instantly": 5410, 
  "splendid": 5411, 
  "belongs": 5412, 
  "continuation": 5413, 
  "moves": 5414, 
  "false": 5415, 
  "fre@@": 5416, 
  "stick": 5417, 
  "Plaza": 5418, 
  "Mu@@": 5419, 
  "Flash": 5420, 
  "Indonesia": 5421, 
  "und@@": 5422, 
  "bs": 5423, 
  "Garden": 5424, 
  "Olympic": 5425, 
  "gan@@": 5426, 
  "ies": 5427, 
  "accessories": 5428, 
  "54": 5429, 
  "sake": 5430, 
  "ambition": 5431, 
  "boasts": 5432, 
  "moments": 5433, 
  "revenues": 5434, 
  "fied": 5435, 
  "ek": 5436, 
  "MS": 5437, 
  "robust": 5438, 
  "all@@": 5439, 
  "Alps": 5440, 
  "convenience": 5441, 
  "stopped": 5442, 
  "Player": 5443, 
  "discipline": 5444, 
  "adjust": 5445, 
  "beneficiaries": 5446, 
  "pattern": 5447, 
  "AN": 5448, 
  "plug": 5449, 
  "measuring": 5450, 
  "soul": 5451, 
  "hill": 5452, 
  "booked": 5453, 
  "hospital": 5454, 
  "Skype": 5455, 
  "paths": 5456, 
  "NI": 5457, 
  "Milan": 5458, 
  "ev@@": 5459, 
  "dialog": 5460, 
  "terrible": 5461, 
  "refugee": 5462, 
  "holders": 5463, 
  "perspectives": 5464, 
  "pays": 5465, 
  "analyses": 5466, 
  "specifications": 5467, 
  "wages": 5468, 
  "parks": 5469, 
  "confidential": 5470, 
  "2nd": 5471, 
  "condemn": 5472, 
  "privileged": 5473, 
  "busy": 5474, 
  "string": 5475, 
  "zu@@": 5476, 
  "Capital": 5477, 
  "receives": 5478, 
  "claimed": 5479, 
  "Erasmus": 5480, 
  "expressly": 5481, 
  "58": 5482, 
  "deserve": 5483, 
  "react": 5484, 
  "arts": 5485, 
  "posted": 5486, 
  "Ra@@": 5487, 
  "evolution": 5488, 
  "els": 5489, 
  "AT": 5490, 
  "MySQL": 5491, 
  "SP@@": 5492, 
  "delivering": 5493, 
  "fan": 5494, 
  "meantime": 5495, 
  "sunny": 5496, 
  "logo": 5497, 
  "derived": 5498, 
  "cra@@": 5499, 
  "TH@@": 5500, 
  "acknowledged": 5501, 
  "Second": 5502, 
  "Climate": 5503, 
  "publicly": 5504, 
  "Customer": 5505, 
  "precision": 5506, 
  "tors": 5507, 
  "Cologne": 5508, 
  "Section": 5509, 
  "judge": 5510, 
  "bio@@": 5511, 
  "argue": 5512, 
  "genetic": 5513, 
  "pose": 5514, 
  "calculated": 5515, 
  "sia": 5516, 
  "gradual": 5517, 
  "wheel": 5518, 
  "experiencing": 5519, 
  "isation": 5520, 
  "fix": 5521, 
  "circulation": 5522, 
  "Trek": 5523, 
  "variable": 5524, 
  "Doha": 5525, 
  "specify": 5526, 
  "engagement": 5527, 
  "bonds": 5528, 
  "ert": 5529, 
  "removing": 5530, 
  "honest": 5531, 
  "spare": 5532, 
  "concentrated": 5533, 
  "OECD": 5534, 
  "pain": 5535, 
  "ü@@": 5536, 
  "audiovisual": 5537, 
  "workshops": 5538, 
  "pending": 5539, 
  "DI@@": 5540, 
  "bay": 5541, 
  "66": 5542, 
  "split": 5543, 
  "2.0": 5544, 
  "controlling": 5545, 
  "mining": 5546, 
  "organize": 5547, 
  "slopes": 5548, 
  "codes": 5549, 
  "closure": 5550, 
  "72": 5551, 
  "declarations": 5552, 
  "viewed": 5553, 
  "Competition": 5554, 
  "ple@@": 5555, 
  "solved": 5556, 
  "aiming": 5557, 
  "bug": 5558, 
  "gr@@": 5559, 
  "ban@@": 5560, 
  "91": 5561, 
  "precious": 5562, 
  "fallen": 5563, 
  "ON@@": 5564, 
  "combining": 5565, 
  "atic": 5566, 
  "wake": 5567, 
  "quantities": 5568, 
  "behavior": 5569, 
  "gro@@": 5570, 
  "afraid": 5571, 
  "Mac": 5572, 
  "departments": 5573, 
  "specialised": 5574, 
  "trouble": 5575, 
  "arrest": 5576, 
  "hole": 5577, 
  "announce": 5578, 
  "papers": 5579, 
  "catalogue": 5580, 
  "foods": 5581, 
  "assessing": 5582, 
  "chief": 5583, 
  "ignore": 5584, 
  "Ge@@": 5585, 
  "ey": 5586, 
  "bet": 5587, 
  "genetically": 5588, 
  "accountability": 5589, 
  ".de": 5590, 
  "Fax": 5591, 
  "IC": 5592, 
  "exceptions": 5593, 
  "dog": 5594, 
  "debated": 5595, 
  "á": 5596, 
  "mer": 5597, 
  "soldiers": 5598, 
  "Zimbabwe": 5599, 
  "exhibitions": 5600, 
  "Au@@": 5601, 
  "intense": 5602, 
  "comp@@": 5603, 
  "La@@": 5604, 
  "Thomas": 5605, 
  "pour": 5606, 
  "ser": 5607, 
  "drafting": 5608, 
  "mat@@": 5609, 
  "transatlantic": 5610, 
  "gift": 5611, 
  "raises": 5612, 
  "desktop": 5613, 
  "worrying": 5614, 
  "inland": 5615, 
  "Fi@@": 5616, 
  "AC": 5617, 
  "compare": 5618, 
  "sin@@": 5619, 
  "je@@": 5620, 
  "sailing": 5621, 
  "simplified": 5622, 
  "mergers": 5623, 
  "53": 5624, 
  "slowly": 5625, 
  "flag": 5626, 
  "elderly": 5627, 
  "headquarters": 5628, 
  "Q": 5629, 
  "preventive": 5630, 
  "Greens": 5631, 
  "s.@@": 5632, 
  "mel@@": 5633, 
  "concludes": 5634, 
  "macro": 5635, 
  "mem@@": 5636, 
  "ls": 5637, 
  "94": 5638, 
  "ky": 5639, 
  "terminal": 5640, 
  "с@@": 5641, 
  "tangible": 5642, 
  "Water": 5643, 
  "laying": 5644, 
  "settled": 5645, 
  "modes": 5646, 
  "intervene": 5647, 
  "arrange": 5648, 
  "regimes": 5649, 
  "designated": 5650, 
  "observations": 5651, 
  "caught": 5652, 
  "RA@@": 5653, 
  "monthly": 5654, 
  "59": 5655, 
  "safeguards": 5656, 
  "challenging": 5657, 
  "segment": 5658, 
  "shot": 5659, 
  "CE": 5660, 
  "constraints": 5661, 
  "eine": 5662, 
  "treaties": 5663, 
  "pan": 5664, 
  "Product": 5665, 
  "unlikely": 5666, 
  "GNU": 5667, 
  "twelve": 5668, 
  "Head": 5669, 
  "carriers": 5670, 
  "Charles": 5671, 
  "subscribe": 5672, 
  "ME@@": 5673, 
  "opt": 5674, 
  "occurs": 5675, 
  "urges": 5676, 
  "observers": 5677, 
  "complementary": 5678, 
  "sheets": 5679, 
  "Iranian": 5680, 
  "medi@@": 5681, 
  "indication": 5682, 
  "rei@@": 5683, 
  "Ltd": 5684, 
  "humanity": 5685, 
  "backed": 5686, 
  "cancelled": 5687, 
  "Force": 5688, 
  "margin": 5689, 
  "fitted": 5690, 
  "generous": 5691, 
  "preferences": 5692, 
  "Ho@@": 5693, 
  "measured": 5694, 
  "br@@": 5695, 
  "whatsoever": 5696, 
  "steam": 5697, 
  "worthy": 5698, 
  "chose": 5699, 
  "ads": 5700, 
  "Neighbourhood": 5701, 
  "poker": 5702, 
  "rescue": 5703, 
  "Iraqi": 5704, 
  "confidentiality": 5705, 
  "Vietnam": 5706, 
  "än@@": 5707, 
  "newspaper": 5708, 
  "homepage": 5709, 
  "ched": 5710, 
  "seekers": 5711, 
  "identifying": 5712, 
  "upcoming": 5713, 
  "Round": 5714, 
  "invitation": 5715, 
  "chat": 5716, 
  "cameras": 5717, 
  "ful": 5718, 
  "implies": 5719, 
  "recover": 5720, 
  "67": 5721, 
  "ICT": 5722, 
  "investigate": 5723, 
  "к@@": 5724, 
  "alism": 5725, 
  "Team": 5726, 
  "assured": 5727, 
  "aus": 5728, 
  "abolition": 5729, 
  "Taiwan": 5730, 
  "underline": 5731, 
  "vegetables": 5732, 
  "sectoral": 5733, 
  "discriminatory": 5734, 
  "racism": 5735, 
  "terrorists": 5736, 
  "200@@": 5737, 
  "unusual": 5738, 
  "mistakes": 5739, 
  "scenario": 5740, 
  "AV@@": 5741, 
  "jo@@": 5742, 
  "centers": 5743, 
  "drives": 5744, 
  "del@@": 5745, 
  "commission": 5746, 
  "painting": 5747, 
  "Ju@@": 5748, 
  "63": 5749, 
  "Mer@@": 5750, 
  "lighting": 5751, 
  "entrepreneurs": 5752, 
  "Gulf": 5753, 
  "pr@@": 5754, 
  "regulate": 5755, 
  "decrease": 5756, 
  "delete": 5757, 
  "deployment": 5758, 
  "Bel@@": 5759, 
  "permits": 5760, 
  "71": 5761, 
  "knew": 5762, 
  "aged": 5763, 
  "proximity": 5764, 
  "connecting": 5765, 
  "owing": 5766, 
  "James": 5767, 
  "excess": 5768, 
  "Fo@@": 5769, 
  "kon@@": 5770, 
  "displaced": 5771, 
  "bureaucracy": 5772, 
  "relaxed": 5773, 
  "household": 5774, 
  "gel@@": 5775, 
  "3rd": 5776, 
  "photographs": 5777, 
  "complexity": 5778, 
  "TR@@": 5779, 
  "&apos;d": 5780, 
  "unknown": 5781, 
  "AP@@": 5782, 
  "sta@@": 5783, 
  "COUNCIL": 5784, 
  "borne": 5785, 
  "A5": 5786, 
  "stops": 5787, 
  "11.@@": 5788, 
  "skilled": 5789, 
  "monuments": 5790, 
  "por@@": 5791, 
  "avoided": 5792, 
  "noon": 5793, 
  "Opinion": 5794, 
  "C.": 5795, 
  "imbalances": 5796, 
  "gn@@": 5797, 
  "Nordic": 5798, 
  "workshop": 5799, 
  "consisting": 5800, 
  "catering": 5801, 
  "the@@": 5802, 
  "converted": 5803, 
  "twin": 5804, 
  "launching": 5805, 
  "warmly": 5806, 
  "tough": 5807, 
  "Pal@@": 5808, 
  "administrations": 5809, 
  "broadly": 5810, 
  "adverse": 5811, 
  "wars": 5812, 
  "Millennium": 5813, 
  "afterwards": 5814, 
  "Beijing": 5815, 
  "returning": 5816, 
  "tailored": 5817, 
  "cul@@": 5818, 
  "ss@@": 5819, 
  "Bureau": 5820, 
  "tru@@": 5821, 
  "participated": 5822, 
  "differ": 5823, 
  "Training": 5824, 
  "adjustments": 5825, 
  "passion": 5826, 
  "stayed": 5827, 
  "82": 5828, 
  "Poker": 5829, 
  "explains": 5830, 
  "tower": 5831, 
  "aus@@": 5832, 
  "earn": 5833, 
  "desirable": 5834, 
  "Gentoo": 5835, 
  "centrally": 5836, 
  "warming": 5837, 
  "copies": 5838, 
  "choosing": 5839, 
  "silver": 5840, 
  "describes": 5841, 
  "architectural": 5842, 
  "establishes": 5843, 
  "Louis": 5844, 
  "vers": 5845, 
  "handled": 5846, 
  "Ba@@": 5847, 
  "prestigious": 5848, 
  "ato": 5849, 
  "excellence": 5850, 
  "tropical": 5851, 
  "SE": 5852, 
  "ell": 5853, 
  "announcement": 5854, 
  "gre@@": 5855, 
  "crossing": 5856, 
  "Quality": 5857, 
  "Jo@@": 5858, 
  "dri@@": 5859, 
  "super": 5860, 
  "reverse": 5861, 
  "interventions": 5862, 
  "dem": 5863, 
  "admit": 5864, 
  "ov@@": 5865, 
  "Ger@@": 5866, 
  "chairs": 5867, 
  "Suite": 5868, 
  "bill": 5869, 
  "Storage": 5870, 
  "capture": 5871, 
  "reduces": 5872, 
  "boxes": 5873, 
  "Salzburg": 5874, 
  "isolated": 5875, 
  "partially": 5876, 
  "fication": 5877, 
  "Road": 5878, 
  "integrating": 5879, 
  "lights": 5880, 
  "characterised": 5881, 
  "displays": 5882, 
  "Danube": 5883, 
  "realize": 5884, 
  "unprecedented": 5885, 
  "lovers": 5886, 
  "scrutiny": 5887, 
  "hesitate": 5888, 
  "transmitted": 5889, 
  "na@@": 5890, 
  "asi": 5891, 
  "Sony": 5892, 
  "rose": 5893, 
  "od@@": 5894, 
  "deemed": 5895, 
  "Can@@": 5896, 
  "occupied": 5897, 
  "magic": 5898, 
  "concerts": 5899, 
  "downloaded": 5900, 
  "pricing": 5901, 
  "TS": 5902, 
  "ED@@": 5903, 
  "ants": 5904, 
  "Power": 5905, 
  "correction": 5906, 
  "annually": 5907, 
  "degrees": 5908, 
  "procedural": 5909, 
  "autonomy": 5910, 
  "18th": 5911, 
  "governed": 5912, 
  "entries": 5913, 
  "tribute": 5914, 
  "congratulations": 5915, 
  "proliferation": 5916, 
  "Rio": 5917, 
  "ah@@": 5918, 
  "sandy": 5919, 
  "adequately": 5920, 
  "belonging": 5921, 
  "Your": 5922, 
  "tolerance": 5923, 
  "160": 5924, 
  "hazardous": 5925, 
  "AD": 5926, 
  "doctors": 5927, 
  "coins": 5928, 
  "cal@@": 5929, 
  "Zurich": 5930, 
  "Port": 5931, 
  "practically": 5932, 
  "convert": 5933, 
  "incorporate": 5934, 
  "develops": 5935, 
  "eco": 5936, 
  "mal@@": 5937, 
  "linguistic": 5938, 
  "Marina": 5939, 
  "harbour": 5940, 
  "exploit": 5941, 
  "zer": 5942, 
  "12.@@": 5943, 
  "dollars": 5944, 
  "avoiding": 5945, 
  "solving": 5946, 
  "restoration": 5947, 
  "tape": 5948, 
  "par": 5949, 
  "stream": 5950, 
  "roughly": 5951, 
  "CON@@": 5952, 
  "ella": 5953, 
  "88": 5954, 
  "invested": 5955, 
  "artificial": 5956, 
  "hoped": 5957, 
  "checking": 5958, 
  "keeps": 5959, 
  "literature": 5960, 
  "bre@@": 5961, 
  "clearer": 5962, 
  "Thailand": 5963, 
  "fu@@": 5964, 
  "che@@": 5965, 
  "obtaining": 5966, 
  "heated": 5967, 
  "continental": 5968, 
  "Organization": 5969, 
  "remedy": 5970, 
  "ou": 5971, 
  "pp@@": 5972, 
  "ales": 5973, 
  "thanking": 5974, 
  "transnational": 5975, 
  "are@@": 5976, 
  "branches": 5977, 
  "vol@@": 5978, 
  "cheese": 5979, 
  "Galileo": 5980, 
  "accommodate": 5981, 
  "Hostelsclub": 5982, 
  "Pri@@": 5983, 
  "victim": 5984, 
  "interaction": 5985, 
  "cheaper": 5986, 
  "favourite": 5987, 
  "2,@@": 5988, 
  "calculation": 5989, 
  "dé@@": 5990, 
  "т@@": 5991, 
  "MO@@": 5992, 
  "foreseen": 5993, 
  "fin@@": 5994, 
  "és": 5995, 
  "stays": 5996, 
  "ory": 5997, 
  "handed": 5998, 
  "ate@@": 5999, 
  "agent": 6000, 
  "EX@@": 6001, 
  "cooking": 6002, 
  "weaknesses": 6003, 
  "seminars": 6004, 
  "protest": 6005, 
  "Dis@@": 6006, 
  "wise": 6007, 
  "leather": 6008, 
  "hire": 6009, 
  "conjunction": 6010, 
  "Romanian": 6011, 
  "87": 6012, 
  "emerge": 6013, 
  "Ku@@": 6014, 
  "ant@@": 6015, 
  "drafted": 6016, 
  "Fischler": 6017, 
  "convince": 6018, 
  "globalization": 6019, 
  "banned": 6020, 
  "torture": 6021, 
  "amp@@": 6022, 
  "EP": 6023, 
  "ani@@": 6024, 
  "separately": 6025, 
  "thoroughly": 6026, 
  "м@@": 6027, 
  "ological": 6028, 
  "José": 6029, 
  "optional": 6030, 
  "mas@@": 6031, 
  "CFSP": 6032, 
  "sel@@": 6033, 
  "fears": 6034, 
  "lays": 6035, 
  "preparatory": 6036, 
  "suspension": 6037, 
  "yed": 6038, 
  "10.@@": 6039, 
  "Helsinki": 6040, 
  "ce@@": 6041, 
  "promotes": 6042, 
  "rubber": 6043, 
  "camps": 6044, 
  "retirement": 6045, 
  "forecast": 6046, 
  "peak": 6047, 
  "editor": 6048, 
  "novel": 6049, 
  "approx": 6050, 
  "Level": 6051, 
  "dial": 6052, 
  "cancel": 6053, 
  "cas@@": 6054, 
  "cer@@": 6055, 
  ".org": 6056, 
  "capability": 6057, 
  "inspections": 6058, 
  "ss": 6059, 
  "pal@@": 6060, 
  "US@@": 6061, 
  "movies": 6062, 
  "conveniently": 6063, 
  "temperatures": 6064, 
  "qui@@": 6065, 
  "Hans": 6066, 
  "suggestion": 6067, 
  "demonstration": 6068, 
  "male": 6069, 
  "stra@@": 6070, 
  "archive": 6071, 
  "arbitrary": 6072, 
  "damaged": 6073, 
  "tz@@": 6074, 
  "ona": 6075, 
  "61": 6076, 
  "semi": 6077, 
  "impetus": 6078, 
  "founding": 6079, 
  "condemned": 6080, 
  "Bulgarian": 6081, 
  "negara": 6082, 
  "essence": 6083, 
  "donor": 6084, 
  "fires": 6085, 
  "sporting": 6086, 
  "validity": 6087, 
  "acted": 6088, 
  "Studio": 6089, 
  "clock": 6090, 
  "sentence": 6091, 
  "alisation": 6092, 
  "loading": 6093, 
  "blame": 6094, 
  "decent": 6095, 
  "LI@@": 6096, 
  "Har@@": 6097, 
  "ben@@": 6098, 
  "doctor": 6099, 
  "globally": 6100, 
  "answered": 6101, 
  "š@@": 6102, 
  "currencies": 6103, 
  "directions": 6104, 
  "S.": 6105, 
  "untuk": 6106, 
  "ment@@": 6107, 
  "sharp": 6108, 
  "bathing": 6109, 
  "economics": 6110, 
  "workforce": 6111, 
  "Opera": 6112, 
  "authentic": 6113, 
  "dairy": 6114, 
  "J": 6115, 
  "bureaucratic": 6116, 
  "laser": 6117, 
  "Via": 6118, 
  "worry": 6119, 
  "controversial": 6120, 
  "celebrate": 6121, 
  "officers": 6122, 
  "Main": 6123, 
  "77": 6124, 
  "worker": 6125, 
  "prominent": 6126, 
  "ungs@@": 6127, 
  "creature": 6128, 
  "humans": 6129, 
  "tips": 6130, 
  "Wi@@": 6131, 
  "carrier": 6132, 
  "ong": 6133, 
  "churches": 6134, 
  "League": 6135, 
  "teacher": 6136, 
  "win@@": 6137, 
  "tone": 6138, 
  "autonomous": 6139, 
  "appreciated": 6140, 
  "akan": 6141, 
  "ation@@": 6142, 
  "ur": 6143, 
  "tan@@": 6144, 
  "blind": 6145, 
  "fines": 6146, 
  "households": 6147, 
  "Te@@": 6148, 
  "CoR": 6149, 
  "SME": 6150, 
  "57": 6151, 
  "edit": 6152, 
  "Islam": 6153, 
  "posed": 6154, 
  "notify": 6155, 
  "awards": 6156, 
  "Palestine": 6157, 
  "keen": 6158, 
  "textiles": 6159, 
  "AM": 6160, 
  "water@@": 6161, 
  "zes": 6162, 
  "Website": 6163, 
  "dominated": 6164, 
  "Hour": 6165, 
  "isn": 6166, 
  "Bre@@": 6167, 
  "bases": 6168, 
  "az@@": 6169, 
  "alized": 6170, 
  "determining": 6171, 
  "AG@@": 6172, 
  "separation": 6173, 
  "Adobe": 6174, 
  "fifteen": 6175, 
  "designer": 6176, 
  "BO@@": 6177, 
  "broadcasting": 6178, 
  "Gar@@": 6179, 
  "favorite": 6180, 
  "He@@": 6181, 
  "Conditions": 6182, 
  "EU@@": 6183, 
  "zo@@": 6184, 
  "consist": 6185, 
  "Congo": 6186, 
  "brain": 6187, 
  "If": 6188, 
  "1980": 6189, 
  "stood": 6190, 
  "silence": 6191, 
  "81": 6192, 
  "ceremony": 6193, 
  "yo@@": 6194, 
  "grade": 6195, 
  "identical": 6196, 
  "extends": 6197, 
  "lacking": 6198, 
  "30@@": 6199, 
  "cl@@": 6200, 
  "Communist": 6201, 
  "ture": 6202, 
  "performances": 6203, 
  "stem": 6204, 
  "receipt": 6205, 
  "shaped": 6206, 
  "Apple": 6207, 
  "A.": 6208, 
  "ass@@": 6209, 
  "interinstitutional": 6210, 
  "ational": 6211, 
  "medicinal": 6212, 
  "engineers": 6213, 
  "tariffs": 6214, 
  "Series": 6215, 
  "Cas@@": 6216, 
  "Agreements": 6217, 
  "Cap@@": 6218, 
  "environments": 6219, 
  "gases": 6220, 
  "hopefully": 6221, 
  "Reform": 6222, 
  "Master": 6223, 
  "expressing": 6224, 
  "fortunately": 6225, 
  "regulators": 6226, 
  "cleared": 6227, 
  "outset": 6228, 
  "stringent": 6229, 
  "poly@@": 6230, 
  "lock": 6231, 
  "ée": 6232, 
  "automated": 6233, 
  "railways": 6234, 
  "cap@@": 6235, 
  "ken": 6236, 
  "lakes": 6237, 
  "PL@@": 6238, 
  "25@@": 6239, 
  "battery": 6240, 
  "EFTA": 6241, 
  "confusion": 6242, 
  "automation": 6243, 
  "deadlines": 6244, 
  "multimedia": 6245, 
  "sion": 6246, 
  "char@@": 6247, 
  "resident": 6248, 
  "accompanying": 6249, 
  "tim@@": 6250, 
  "visitor": 6251, 
  "commonly": 6252, 
  "Country": 6253, 
  "tis": 6254, 
  "Working": 6255, 
  "chen": 6256, 
  "recommends": 6257, 
  "emp@@": 6258, 
  "specialities": 6259, 
  "employee": 6260, 
  "у@@": 6261, 
  "IL@@": 6262, 
  "breaking": 6263, 
  "optical": 6264, 
  "AB@@": 6265, 
  "BR@@": 6266, 
  "securing": 6267, 
  "Cam@@": 6268, 
  "cotton": 6269, 
  "cht@@": 6270, 
  "survival": 6271, 
  "analyse": 6272, 
  "Video": 6273, 
  "backing": 6274, 
  "renewal": 6275, 
  "21st": 6276, 
  "Citizens": 6277, 
  "lesson": 6278, 
  "Shop": 6279, 
  "feels": 6280, 
  "ruled": 6281, 
  "grew": 6282, 
  "seminar": 6283, 
  "safeguarding": 6284, 
  "sm@@": 6285, 
  "urs": 6286, 
  "moderate": 6287, 
  "filling": 6288, 
  "argued": 6289, 
  "Pa@@": 6290, 
  "indispensable": 6291, 
  "roles": 6292, 
  "dangers": 6293, 
  "Articles": 6294, 
  "cargo": 6295, 
  "incompatible": 6296, 
  "OSCE": 6297, 
  "golden": 6298, 
  "inequality": 6299, 
  "Change": 6300, 
  "harmony": 6301, 
  "ß@@": 6302, 
  "lia": 6303, 
  "accessibility": 6304, 
  "24@@": 6305, 
  "executed": 6306, 
  "ran": 6307, 
  "bl@@": 6308, 
  "ac": 6309, 
  "Tuesday": 6310, 
  "safer": 6311, 
  "Hi@@": 6312, 
  "limiting": 6313, 
  "toilet": 6314, 
  "por": 6315, 
  "my@@": 6316, 
  "laboratory": 6317, 
  "consolidate": 6318, 
  "vertical": 6319, 
  "column": 6320, 
  "entrepreneurship": 6321, 
  "Administration": 6322, 
  "Blue": 6323, 
  "icon": 6324, 
  "76": 6325, 
  "alliance": 6326, 
  "accepting": 6327, 
  "68": 6328, 
  "ze@@": 6329, 
  "distortions": 6330, 
  "unlimited": 6331, 
  "disappointed": 6332, 
  "consolidated": 6333, 
  "characterized": 6334, 
  "exploring": 6335, 
  "fate": 6336, 
  "Real": 6337, 
  "photography": 6338, 
  "admission": 6339, 
  "watching": 6340, 
  "Governments": 6341, 
  "Chile": 6342, 
  "ungen": 6343, 
  "notion": 6344, 
  "sur": 6345, 
  "beside": 6346, 
  "pack": 6347, 
  "ok@@": 6348, 
  "modest": 6349, 
  "ther@@": 6350, 
  "searching": 6351, 
  "wording": 6352, 
  "irrespective": 6353, 
  "cht": 6354, 
  "Canon": 6355, 
  "circle": 6356, 
  "end@@": 6357, 
  "assumed": 6358, 
  "independently": 6359, 
  "Mat@@": 6360, 
  "rehabilitation": 6361, 
  "suddenly": 6362, 
  "ths": 6363, 
  "kids": 6364, 
  "accepts": 6365, 
  "bid": 6366, 
  "weekly": 6367, 
  "clarification": 6368, 
  "downloading": 6369, 
  "explanations": 6370, 
  "introduces": 6371, 
  "denied": 6372, 
  "linking": 6373, 
  "ving": 6374, 
  "hor@@": 6375, 
  "turnover": 6376, 
  "ste": 6377, 
  "Directorate": 6378, 
  "paradise": 6379, 
  "appreciation": 6380, 
  "survive": 6381, 
  "Liberal": 6382, 
  "VI": 6383, 
  "Deposit": 6384, 
  "73": 6385, 
  "Maritime": 6386, 
  "sto@@": 6387, 
  "hi": 6388, 
  "Parties": 6389, 
  "hu@@": 6390, 
  "districts": 6391, 
  "detection": 6392, 
  "defense": 6393, 
  "verify": 6394, 
  "Ta@@": 6395, 
  "hosts": 6396, 
  "translations": 6397, 
  "dos": 6398, 
  "surprising": 6399, 
  "pact": 6400, 
  "unanimous": 6401, 
  "conformity": 6402, 
  "86": 6403, 
  "badly": 6404, 
  "tension": 6405, 
  "profound": 6406, 
  "sol@@": 6407, 
  "ups": 6408, 
  "salt": 6409, 
  "BMW": 6410, 
  "criterion": 6411, 
  "Car": 6412, 
  "work@@": 6413, 
  "clinical": 6414, 
  "grand": 6415, 
  "Fre@@": 6416, 
  "cat@@": 6417, 
  "78": 6418, 
  "interview": 6419, 
  "promising": 6420, 
  "Empire": 6421, 
  "Interior": 6422, 
  "newspapers": 6423, 
  "judges": 6424, 
  "wishing": 6425, 
  "RELEASE": 6426, 
  "ching": 6427, 
  "throw": 6428, 
  "crystal": 6429, 
  "databases": 6430, 
  "lic@@": 6431, 
  "forming": 6432, 
  "loaded": 6433, 
  "ging": 6434, 
  "advocate": 6435, 
  "ang@@": 6436, 
  "justification": 6437, 
  "sun@@": 6438, 
  "momentum": 6439, 
  "talked": 6440, 
  "ignored": 6441, 
  "accelerate": 6442, 
  "Tu@@": 6443, 
  "knowing": 6444, 
  "translate": 6445, 
  "3,@@": 6446, 
  "rejection": 6447, 
  "Anti": 6448, 
  "web@@": 6449, 
  "abandoned": 6450, 
  "elle": 6451, 
  "plain": 6452, 
  "advances": 6453, 
  "To": 6454, 
  "electronics": 6455, 
  "visas": 6456, 
  "su": 6457, 
  "neutral": 6458, 
  "nu@@": 6459, 
  "900": 6460, 
  "disabilities": 6461, 
  "Hu@@": 6462, 
  "app@@": 6463, 
  "str@@": 6464, 
  "CS": 6465, 
  "downtown": 6466, 
  "officer": 6467, 
  "Puerto": 6468, 
  "fac@@": 6469, 
  "bit@@": 6470, 
  "Budgetary": 6471, 
  "Industrial": 6472, 
  "chocolate": 6473, 
  "Singapore": 6474, 
  "fought": 6475, 
  "investor": 6476, 
  "vessel": 6477, 
  "Customs": 6478, 
  "rivers": 6479, 
  "mm@@": 6480, 
  "flowers": 6481, 
  "bread": 6482, 
  "het": 6483, 
  "paintings": 6484, 
  "approves": 6485, 
  "fe@@": 6486, 
  "tight": 6487, 
  "counter@@": 6488, 
  "explicit": 6489, 
  "holder": 6490, 
  "ы@@": 6491, 
  "alarm": 6492, 
  "allies": 6493, 
  "optimum": 6494, 
  "Ac@@": 6495, 
  "gear": 6496, 
  "Technical": 6497, 
  "tensions": 6498, 
  "pan@@": 6499, 
  "spots": 6500, 
  "labels": 6501, 
  "certificates": 6502, 
  "Pan@@": 6503, 
  "restriction": 6504, 
  "Chief": 6505, 
  "credits": 6506, 
  "lifelong": 6507, 
  "val@@": 6508, 
  "ordination": 6509, 
  "objections": 6510, 
  "Win@@": 6511, 
  "radiation": 6512, 
  "83": 6513, 
  "strive": 6514, 
  "reiterate": 6515, 
  "40@@": 6516, 
  "USS": 6517, 
  "Corporation": 6518, 
  "generating": 6519, 
  "gaps": 6520, 
  "mp@@": 6521, 
  "sha@@": 6522, 
  "ere": 6523, 
  "passes": 6524, 
  "Al": 6525, 
  "HTML": 6526, 
  "ola": 6527, 
  "married": 6528, 
  "ani": 6529, 
  "lich": 6530, 
  "leg@@": 6531, 
  "permanently": 6532, 
  "offset": 6533, 
  "OL@@": 6534, 
  "strange": 6535, 
  "defending": 6536, 
  "align": 6537, 
  "advisory": 6538, 
  "regrettable": 6539, 
  "cri@@": 6540, 
  "thoughts": 6541, 
  "Communications": 6542, 
  "comm@@": 6543, 
  "forestry": 6544, 
  "Hamas": 6545, 
  "supplement": 6546, 
  "stri@@": 6547, 
  "ri": 6548, 
  "marquis": 6549, 
  "systematically": 6550, 
  "lat@@": 6551, 
  "TA": 6552, 
  "oni@@": 6553, 
  "guides": 6554, 
  "deeper": 6555, 
  "cally": 6556, 
  "cia": 6557, 
  "Statute": 6558, 
  "Tor@@": 6559, 
  "activated": 6560, 
  "1990s": 6561, 
  "Professor": 6562, 
  "GM": 6563, 
  "ello": 6564, 
  "isolation": 6565, 
  "tells": 6566, 
  "breathtaking": 6567, 
  "indications": 6568, 
  "Web@@": 6569, 
  "Left": 6570, 
  "striking": 6571, 
  "California": 6572, 
  "arb@@": 6573, 
  "delicate": 6574, 
  "Min@@": 6575, 
  "dly": 6576, 
  "Jordan": 6577, 
  "enforce": 6578, 
  "accused": 6579, 
  "reinforcing": 6580, 
  "pe": 6581, 
  "ultra": 6582, 
  "Standard": 6583, 
  "thin": 6584, 
  "gy": 6585, 
  "scenery": 6586, 
  "74": 6587, 
  "interpreted": 6588, 
  "ambitions": 6589, 
  "incredible": 6590, 
  "Economy": 6591, 
  "ire": 6592, 
  "vel@@": 6593, 
  "telling": 6594, 
  "gathered": 6595, 
  "inf@@": 6596, 
  "ni": 6597, 
  "tender": 6598, 
  "cod": 6599, 
  "indigenous": 6600, 
  "Liechtenstein": 6601, 
  "ot": 6602, 
  "Elevator": 6603, 
  "expresses": 6604, 
  "POLICY": 6605, 
  "mineral": 6606, 
  "қ@@": 6607, 
  "dependence": 6608, 
  "delayed": 6609, 
  "garage": 6610, 
  "23@@": 6611, 
  "formula": 6612, 
  "realized": 6613, 
  "refusal": 6614, 
  "pillars": 6615, 
  "refined": 6616, 
  "tar@@": 6617, 
  "Ashton": 6618, 
  "Luggage": 6619, 
  "OS@@": 6620, 
  "med": 6621, 
  "grave": 6622, 
  "civilians": 6623, 
  "acc@@": 6624, 
  "fa@@": 6625, 
  "Bra@@": 6626, 
  "zz@@": 6627, 
  "DC": 6628, 
  "Las": 6629, 
  "taught": 6630, 
  "ET": 6631, 
  "CEO": 6632, 
  "intensity": 6633, 
  "landscapes": 6634, 
  "limitations": 6635, 
  "parent": 6636, 
  "Cathedral": 6637, 
  "Saudi": 6638, 
  "finest": 6639, 
  "emphasises": 6640, 
  "influenced": 6641, 
  "Korean": 6642, 
  "ble@@": 6643, 
  "commented": 6644, 
  "liquid": 6645, 
  "discovery": 6646, 
  "transformed": 6647, 
  "Bur@@": 6648, 
  "completing": 6649, 
  "ade": 6650, 
  "separated": 6651, 
  "yellow": 6652, 
  "ay": 6653, 
  "nationality": 6654, 
  "mirror": 6655, 
  "A4": 6656, 
  "rolling": 6657, 
  "ari": 6658, 
  "impacts": 6659, 
  "cycling": 6660, 
  "e.@@": 6661, 
  "Ter@@": 6662, 
  "pressures": 6663, 
  "Ocean": 6664, 
  "lawyers": 6665, 
  "disadvantaged": 6666, 
  "wer@@": 6667, 
  "ach": 6668, 
  "cinema": 6669, 
  "SAP": 6670, 
  "What": 6671, 
  "MB": 6672, 
  "dec@@": 6673, 
  "foodstuffs": 6674, 
  "consultative": 6675, 
  "hectares": 6676, 
  "incomes": 6677, 
  "minds": 6678, 
  "socially": 6679, 
  "fault": 6680, 
  "damaging": 6681, 
  "traditionally": 6682, 
  "urged": 6683, 
  "hosting": 6684, 
  "Chancellor": 6685, 
  "arriving": 6686, 
  "responding": 6687, 
  "Third": 6688, 
  "quantitative": 6689, 
  "distributors": 6690, 
  "embedded": 6691, 
  "loved": 6692, 
  "conviction": 6693, 
  "Alpine": 6694, 
  "elling": 6695, 
  "editing": 6696, 
  "preservation": 6697, 
  "piano": 6698, 
  "classification": 6699, 
  "telecoms": 6700, 
  "Gran": 6701, 
  "privatisation": 6702, 
  "tens": 6703, 
  "differently": 6704, 
  "fy": 6705, 
  "defects": 6706, 
  "Agricultural": 6707, 
  "1988": 6708, 
  "tional": 6709, 
  "OK": 6710, 
  "login": 6711, 
  "intergovernmental": 6712, 
  "abilities": 6713, 
  "ov": 6714, 
  "licences": 6715, 
  "shore": 6716, 
  "initiate": 6717, 
  "Br@@": 6718, 
  "bags": 6719, 
  "rain": 6720, 
  "San@@": 6721, 
  "Socialists": 6722, 
  "PR@@": 6723, 
  "spiritual": 6724, 
  "parameter": 6725, 
  "walks": 6726, 
  "Algeria": 6727, 
  "divide": 6728, 
  "panels": 6729, 
  "unfortunate": 6730, 
  "authorized": 6731, 
  "sensor": 6732, 
  "Edition": 6733, 
  "struck": 6734, 
  "thirty": 6735, 
  "continually": 6736, 
  "guard": 6737, 
  "minimal": 6738, 
  "post@@": 6739, 
  "motivated": 6740, 
  "lin": 6741, 
  "instability": 6742, 
  "Kon@@": 6743, 
  "classified": 6744, 
  "ung@@": 6745, 
  "exclude": 6746, 
  "Jan": 6747, 
  "ast@@": 6748, 
  "concessions": 6749, 
  "vor@@": 6750, 
  "è": 6751, 
  "motions": 6752, 
  "monopoly": 6753, 
  "presentations": 6754, 
  "Barnier": 6755, 
  "atory": 6756, 
  "istic": 6757, 
  "Nigeria": 6758, 
  "ical": 6759, 
  "profession": 6760, 
  "79": 6761, 
  "4th": 6762, 
  "a.@@": 6763, 
  "cattle": 6764, 
  "profiles": 6765, 
  "flash": 6766, 
  "Na@@": 6767, 
  "Heritage": 6768, 
  "Richard": 6769, 
  "Los": 6770, 
  "technically": 6771, 
  "Humanitarian": 6772, 
  "anyway": 6773, 
  "preserving": 6774, 
  "pra@@": 6775, 
  "plane": 6776, 
  "maintains": 6777, 
  "ane": 6778, 
  "Apartments": 6779, 
  "Eurostat": 6780, 
  "cks": 6781, 
  "Reding": 6782, 
  "aluminium": 6783, 
  "cro@@": 6784, 
  "fits": 6785, 
  "arrested": 6786, 
  "limitation": 6787, 
  "cooling": 6788, 
  "84": 6789, 
  "69": 6790, 
  "realised": 6791, 
  "networking": 6792, 
  "abuses": 6793, 
  "B5": 6794, 
  "kan@@": 6795, 
  "celebrated": 6796, 
  "enthusiasm": 6797, 
  "demanded": 6798, 
  "Ban@@": 6799, 
  "Sh@@": 6800, 
  "wa": 6801, 
  "head@@": 6802, 
  "Heating": 6803, 
  "secured": 6804, 
  "op": 6805, 
  "continuity": 6806, 
  "ll": 6807, 
  "estimate": 6808, 
  "inevitably": 6809, 
  "ours": 6810, 
  "tel@@": 6811, 
  "Cross": 6812, 
  "cease": 6813, 
  "cy@@": 6814, 
  "Supervisory": 6815, 
  "encounter": 6816, 
  "ables": 6817, 
  "younger": 6818, 
  "indirectly": 6819, 
  "definitions": 6820, 
  "obstacle": 6821, 
  "ka@@": 6822, 
  "diesel": 6823, 
  "defines": 6824, 
  "clauses": 6825, 
  "5th": 6826, 
  "witness": 6827, 
  "Criminal": 6828, 
  "д@@": 6829, 
  "reproduction": 6830, 
  "arm": 6831, 
  "incorrect": 6832, 
  "venue": 6833, 
  "recruitment": 6834, 
  "reaches": 6835, 
  "unstable": 6836, 
  "burg": 6837, 
  "Ukrainian": 6838, 
  "seed": 6839, 
  "Program": 6840, 
  "deleted": 6841, 
  "organisms": 6842, 
  "ely": 6843, 
  "dy@@": 6844, 
  "daughter": 6845, 
  "č@@": 6846, 
  "ero": 6847, 
  "murder": 6848, 
  "Plus": 6849, 
  "distinguished": 6850, 
  "dies": 6851, 
  "ama": 6852, 
  "trails": 6853, 
  "ising": 6854, 
  "off@@": 6855, 
  "ware": 6856, 
  "imperative": 6857, 
  "eating": 6858, 
  "setup": 6859, 
  "IF@@": 6860, 
  "listened": 6861, 
  "tic@@": 6862, 
  "iPhone": 6863, 
  "safely": 6864, 
  "Solidarity": 6865, 
  "utility": 6866, 
  "ins@@": 6867, 
  "biotechnology": 6868, 
  "35@@": 6869, 
  "Tyrol": 6870, 
  "expects": 6871, 
  "municipal": 6872, 
  "Pu@@": 6873, 
  "ante": 6874, 
  "CR@@": 6875, 
  "ie@@": 6876, 
  "enemy": 6877, 
  "bears": 6878, 
  "clothes": 6879, 
  "existed": 6880, 
  "culinary": 6881, 
  "camping": 6882, 
  "fat": 6883, 
  "floods": 6884, 
  "EI@@": 6885, 
  "definitive": 6886, 
  "Sustainable": 6887, 
  "coalition": 6888, 
  "trademarks": 6889, 
  "IGC": 6890, 
  "wholesale": 6891, 
  "2016": 6892, 
  "rigorous": 6893, 
  "talent": 6894, 
  "SV": 6895, 
  "cooperative": 6896, 
  "alive": 6897, 
  "ene": 6898, 
  "arises": 6899, 
  "unanimity": 6900, 
  "boundaries": 6901, 
  "dogs": 6902, 
  "founder": 6903, 
  "ven": 6904, 
  "fl@@": 6905, 
  "Jacques": 6906, 
  "SO@@": 6907, 
  "pipeline": 6908, 
  "Gal@@": 6909, 
  "sted": 6910, 
  "auch": 6911, 
  "interference": 6912, 
  "applicants": 6913, 
  "matches": 6914, 
  "ly@@": 6915, 
  "coordinating": 6916, 
  "contest": 6917, 
  "AU@@": 6918, 
  "waves": 6919, 
  "plate": 6920, 
  "evil": 6921, 
  "profitable": 6922, 
  "killing": 6923, 
  "circuit": 6924, 
  "M.": 6925, 
  "UNESCO": 6926, 
  "forecasts": 6927, 
  "fruits": 6928, 
  "missed": 6929, 
  "clo@@": 6930, 
  "deny": 6931, 
  "lei@@": 6932, 
  "ville": 6933, 
  "competing": 6934, 
  "sheep": 6935, 
  "Stuttgart": 6936, 
  "thirds": 6937, 
  "workplace": 6938, 
  "axis": 6939, 
  "Ö@@": 6940, 
  "Bor@@": 6941, 
  "ear@@": 6942, 
  "gather": 6943, 
  "attach": 6944, 
  "CI@@": 6945, 
  "Wall": 6946, 
  "AR": 6947, 
  "breeding": 6948, 
  "Alexander": 6949, 
  "methodology": 6950, 
  "DS": 6951, 
  "Guinea": 6952, 
  "fundamentally": 6953, 
  "inevitable": 6954, 
  "rel@@": 6955, 
  "ges@@": 6956, 
  "resistant": 6957, 
  "charter": 6958, 
  "stones": 6959, 
  "mi": 6960, 
  "Ben@@": 6961, 
  "resolving": 6962, 
  "AFFAIRS": 6963, 
  "endeavour": 6964, 
  "quarters": 6965, 
  "yield": 6966, 
  "ker@@": 6967, 
  "aux": 6968, 
  "wh@@": 6969, 
  "sm": 6970, 
  "hunting": 6971, 
  "selecting": 6972, 
  "della": 6973, 
  "Sar@@": 6974, 
  "ERDF": 6975, 
  "locally": 6976, 
  "girl": 6977, 
  "Basel": 6978, 
  "е@@": 6979, 
  "Tibet": 6980, 
  "styles": 6981, 
  "в@@": 6982, 
  "recalled": 6983, 
  "Gold": 6984, 
  "16th": 6985, 
  "sweet": 6986, 
  "inspiration": 6987, 
  "pop": 6988, 
  "visibility": 6989, 
  "delivers": 6990, 
  "installing": 6991, 
  "organising": 6992, 
  "XP": 6993, 
  "establishments": 6994, 
  "earned": 6995, 
  "discretion": 6996, 
  "licensing": 6997, 
  "bas@@": 6998, 
  "chances": 6999, 
  "bel@@": 7000, 
  "carries": 7001, 
  "Land": 7002, 
  "countless": 7003, 
  "sting": 7004, 
  "routine": 7005, 
  "ministerial": 7006, 
  "trademark": 7007, 
  "bag": 7008, 
  "ty@@": 7009, 
  "bands": 7010, 
  "Colombia": 7011, 
  "star@@": 7012, 
  "resorts": 7013, 
  "Tur@@": 7014, 
  "washing": 7015, 
  "dioxide": 7016, 
  "Kal@@": 7017, 
  "issuing": 7018, 
  "bio": 7019, 
  "albeit": 7020, 
  "Mas@@": 7021, 
  "Siemens": 7022, 
  "ets": 7023, 
  "cli@@": 7024, 
  "deciding": 7025, 
  "gym": 7026, 
  "dive": 7027, 
  "ian": 7028, 
  "SH@@": 7029, 
  "tal": 7030, 
  "distinct": 7031, 
  "Sierra": 7032, 
  "elimination": 7033, 
  "protective": 7034, 
  "kill": 7035, 
  "Book": 7036, 
  "EGF": 7037, 
  "tons": 7038, 
  "lifestyle": 7039, 
  "vicinity": 7040, 
  "sive": 7041, 
  "wal@@": 7042, 
  "dear": 7043, 
  "equ@@": 7044, 
  "assisted": 7045, 
  "headed": 7046, 
  "collecting": 7047, 
  "exploited": 7048, 
  "skill": 7049, 
  "excluding": 7050, 
  "actor": 7051, 
  "Environmental": 7052, 
  "costly": 7053, 
  "Ste@@": 7054, 
  "gri@@": 7055, 
  "ris@@": 7056, 
  "deployed": 7057, 
  "hygiene": 7058, 
  "alo@@": 7059, 
  "ral": 7060, 
  "score": 7061, 
  "controller": 7062, 
  "blocked": 7063, 
  "ón": 7064, 
  "ette": 7065, 
  "interoperability": 7066, 
  "Europa": 7067, 
  "hal@@": 7068, 
  "rank": 7069, 
  "reactions": 7070, 
  "perceived": 7071, 
  "partition": 7072, 
  "Adriatic": 7073, 
  "Arts": 7074, 
  "aids": 7075, 
  "forums": 7076, 
  "stating": 7077, 
  "My": 7078, 
  "350": 7079, 
  "hunger": 7080, 
  "ska": 7081, 
  "relevance": 7082, 
  "weapon": 7083, 
  "divisions": 7084, 
  "APPROVED": 7085, 
  "Work": 7086, 
  "unilateral": 7087, 
  "bal@@": 7088, 
  "Holiday": 7089, 
  "son@@": 7090, 
  "mo": 7091, 
  "Athens": 7092, 
  "Men@@": 7093, 
  "Patten": 7094, 
  "don@@": 7095, 
  "commodity": 7096, 
  "Sport": 7097, 
  "dated": 7098, 
  "Question": 7099, 
  "PRO@@": 7100, 
  "WC": 7101, 
  "oder": 7102, 
  "ved": 7103, 
  "opponents": 7104, 
  "Golden": 7105, 
  "shoes": 7106, 
  "Nature": 7107, 
  "ay@@": 7108, 
  "Chechnya": 7109, 
  "mutually": 7110, 
  "vacuum": 7111, 
  "evaluated": 7112, 
  "3.5": 7113, 
  "preference": 7114, 
  "©": 7115, 
  "designers": 7116, 
  "modifications": 7117, 
  "vo": 7118, 
  "imp@@": 7119, 
  "EP@@": 7120, 
  "gaming": 7121, 
  "brother": 7122, 
  "EG@@": 7123, 
  "alist": 7124, 
  "prevents": 7125, 
  "detention": 7126, 
  "colonial": 7127, 
  "и": 7128, 
  "Sie": 7129, 
  "ron@@": 7130, 
  "dan@@": 7131, 
  "ced": 7132, 
  "OT@@": 7133, 
  "bird": 7134, 
  "eit": 7135, 
  "trials": 7136, 
  "libraries": 7137, 
  "BC": 7138, 
  "dro@@": 7139, 
  "Bri@@": 7140, 
  "ocean": 7141, 
  "criminals": 7142, 
  "viewing": 7143, 
  "marriage": 7144, 
  "dr@@": 7145, 
  "ws": 7146, 
  "lifting": 7147, 
  "warranty": 7148, 
  "repression": 7149, 
  "ering": 7150, 
  "burdens": 7151, 
  "hide": 7152, 
  "rarely": 7153, 
  "angle": 7154, 
  "fabric": 7155, 
  "50@@": 7156, 
  "Mag@@": 7157, 
  "Anonymous": 7158, 
  "IG@@": 7159, 
  "Sk@@": 7160, 
  "fossil": 7161, 
  "excise": 7162, 
  "CO": 7163, 
  "improves": 7164, 
  "Ser@@": 7165, 
  "Jerusalem": 7166, 
  "Gro@@": 7167, 
  "temporarily": 7168, 
  "mounted": 7169, 
  "Nor@@": 7170, 
  "buyer": 7171, 
  "grass": 7172, 
  "ase": 7173, 
  "haven": 7174, 
  "Val": 7175, 
  "fi": 7176, 
  "fulfilling": 7177, 
  "ink": 7178, 
  "multiannual": 7179, 
  "powered": 7180, 
  "capita": 7181, 
  "noticed": 7182, 
  "ash": 7183, 
  "Antonio": 7184, 
  "modification": 7185, 
  "sam@@": 7186, 
  "DEBATED": 7187, 
  "Manuel": 7188, 
  "barrier": 7189, 
  "sends": 7190, 
  "radi@@": 7191, 
  "shock": 7192, 
  "exceptionally": 7193, 
  "samples": 7194, 
  "updating": 7195, 
  "cher@@": 7196, 
  "allowances": 7197, 
  "subsidiaries": 7198, 
  "complied": 7199, 
  "statutory": 7200, 
  "finishing": 7201, 
  "formerly": 7202, 
  "ION": 7203, 
  "collections": 7204, 
  "MP3": 7205, 
  "dans": 7206, 
  "liquidity": 7207, 
  "17th": 7208, 
  "Edinburgh": 7209, 
  "verification": 7210, 
  "Partner": 7211, 
  "settle": 7212, 
  "Direct": 7213, 
  "multinational": 7214, 
  "Cu@@": 7215, 
  "Hostel": 7216, 
  "subscription": 7217, 
  "lens": 7218, 
  "earthquake": 7219, 
  "volumes": 7220, 
  "sums": 7221, 
  "energies": 7222, 
  "hot@@": 7223, 
  "tremendous": 7224, 
  "recalls": 7225, 
  "incidents": 7226, 
  "uri@@": 7227, 
  "featured": 7228, 
  "aggressive": 7229, 
  "prerequisite": 7230, 
  "sofa": 7231, 
  "draws": 7232, 
  "configure": 7233, 
  "ens@@": 7234, 
  "í": 7235, 
  "prejudice": 7236, 
  "ast": 7237, 
  "sec@@": 7238, 
  "pull": 7239, 
  "Coast": 7240, 
  "purchases": 7241, 
  "sightseeing": 7242, 
  "terror": 7243, 
  "Playa": 7244, 
  "ci": 7245, 
  "wire": 7246, 
  "Line": 7247, 
  "eliminating": 7248, 
  "eries": 7249, 
  "stimulus": 7250, 
  "beat": 7251, 
  "rational": 7252, 
  "Sy@@": 7253, 
  "ents": 7254, 
  "£": 7255, 
  "ica": 7256, 
  "Vo@@": 7257, 
  "Rhine": 7258, 
  "Post": 7259, 
  "li": 7260, 
  "LE": 7261, 
  "tiny": 7262, 
  "sad": 7263, 
  "writer": 7264, 
  "upgrading": 7265, 
  "reflecting": 7266, 
  "ación": 7267, 
  "gt": 7268, 
  "My@@": 7269, 
  "Inc": 7270, 
  "Haiti": 7271, 
  "ann@@": 7272, 
  "qualities": 7273, 
  "Ki@@": 7274, 
  "incident": 7275, 
  "15th": 7276, 
  "ich": 7277, 
  "reveal": 7278, 
  "pointing": 7279, 
  "deterioration": 7280, 
  "counts": 7281, 
  "pol@@": 7282, 
  "conducting": 7283, 
  "traders": 7284, 
  "CHF": 7285, 
  "ratify": 7286, 
  "threatening": 7287, 
  "climbing": 7288, 
  "sincerely": 7289, 
  "reasonably": 7290, 
  "inviting": 7291, 
  "Recommendation": 7292, 
  "perception": 7293, 
  "screening": 7294, 
  "vineyards": 7295, 
  "tube": 7296, 
  "tuna": 7297, 
  "qualification": 7298, 
  "Sri": 7299, 
  "Muslims": 7300, 
  "aff@@": 7301, 
  "pride": 7302, 
  "Syrian": 7303, 
  "ranges": 7304, 
  "Franz": 7305, 
  "fer": 7306, 
  "District": 7307, 
  "tracking": 7308, 
  "nicht": 7309, 
  "thereof": 7310, 
  "ł@@": 7311, 
  "ж@@": 7312, 
  "symbolic": 7313, 
  "Kroes": 7314, 
  "mailing": 7315, 
  "auto@@": 7316, 
  "Captain": 7317, 
  "sten": 7318, 
  "IP@@": 7319, 
  "sensitivity": 7320, 
  "PO@@": 7321, 
  "abstained": 7322, 
  "hat": 7323, 
  "supporters": 7324, 
  "Zealand": 7325, 
  "attempted": 7326, 
  "Representatives": 7327, 
  "More": 7328, 
  "ena": 7329, 
  "width": 7330, 
  "emergence": 7331, 
  "speaks": 7332, 
  "meaningful": 7333, 
  "Hague": 7334, 
  "Im@@": 7335, 
  "hom@@": 7336, 
  "feelings": 7337, 
  "dust": 7338, 
  "hospitals": 7339, 
  "unified": 7340, 
  "Sol@@": 7341, 
  "ambience": 7342, 
  "Show": 7343, 
  "teach": 7344, 
  "complimentary": 7345, 
  "exceeded": 7346, 
  "Joseph": 7347, 
  "openly": 7348, 
  "sin": 7349, 
  "stroll": 7350, 
  "livestock": 7351, 
  "subjected": 7352, 
  "precautionary": 7353, 
  "Fin@@": 7354, 
  "Natural": 7355, 
  "pur@@": 7356, 
  "GPS": 7357, 
  "PA": 7358, 
  "conditional": 7359, 
  "Verheugen": 7360, 
  "resumed": 7361, 
  "statute": 7362, 
  "incoming": 7363, 
  "Jews": 7364, 
  "offences": 7365, 
  "timing": 7366, 
  "PS": 7367, 
  "Fair": 7368, 
  "fragile": 7369, 
  "attitudes": 7370, 
  "scenes": 7371, 
  "q": 7372, 
  "compensate": 7373, 
  "metals": 7374, 
  "musicians": 7375, 
  "dreams": 7376, 
  "Mc@@": 7377, 
  "rice": 7378, 
  "han@@": 7379, 
  "fostering": 7380, 
  "mas": 7381, 
  "How": 7382, 
  "distribute": 7383, 
  "ole": 7384, 
  "broadcast": 7385, 
  "democracies": 7386, 
  "studying": 7387, 
  "о@@": 7388, 
  "tin@@": 7389, 
  "dramatically": 7390, 
  "grid": 7391, 
  "HD": 7392, 
  "Case": 7393, 
  "cked": 7394, 
  "Scientific": 7395, 
  "alleged": 7396, 
  "requesting": 7397, 
  "Vista": 7398, 
  "await": 7399, 
  "kilometers": 7400, 
  "SC@@": 7401, 
  "mar": 7402, 
  "shooting": 7403, 
  "dictatorship": 7404, 
  "prompt": 7405, 
  "Our": 7406, 
  "filters": 7407, 
  "laundering": 7408, 
  "eng@@": 7409, 
  "dar@@": 7410, 
  "judiciary": 7411, 
  "detected": 7412, 
  "ku@@": 7413, 
  "interfaces": 7414, 
  "voices": 7415, 
  "Library": 7416, 
  "cultivation": 7417, 
  "hydro@@": 7418, 
  "activate": 7419, 
  "100@@": 7420, 
  "marking": 7421, 
  "luggage": 7422, 
  "ns": 7423, 
  "crop": 7424, 
  "180": 7425, 
  "Casa": 7426, 
  "sh": 7427, 
  "globe": 7428, 
  "council": 7429, 
  "ll@@": 7430, 
  "pursuit": 7431, 
  "Warsaw": 7432, 
  "Radio": 7433, 
  "fed": 7434, 
  "sil@@": 7435, 
  "Regulations": 7436, 
  "landing": 7437, 
  "austerity": 7438, 
  "Afghan": 7439, 
  "competitions": 7440, 
  "endless": 7441, 
  "ceilings": 7442, 
  "smoke": 7443, 
  "overnight": 7444, 
  "130": 7445, 
  "1987": 7446, 
  "capitalism": 7447, 
  "Lan@@": 7448, 
  "racing": 7449, 
  "met@@": 7450, 
  "fusion": 7451, 
  "licensed": 7452, 
  "mixture": 7453, 
  "pos@@": 7454, 
  "gers": 7455, 
  "Live": 7456, 
  "edi@@": 7457, 
  "Tower": 7458, 
  "detect": 7459, 
  "spell": 7460, 
  "wei@@": 7461, 
  "feasible": 7462, 
  "gaining": 7463, 
  "Nobel": 7464, 
  "listing": 7465, 
  "04@@": 7466, 
  "withdrawn": 7467, 
  "Monti": 7468, 
  "tournament": 7469, 
  "SIS": 7470, 
  "tonight": 7471, 
  "advised": 7472, 
  "replacing": 7473, 
  "behold": 7474, 
  "wer": 7475, 
  "distant": 7476, 
  "ita": 7477, 
  "comforts": 7478, 
  "1980s": 7479, 
  "inn@@": 7480, 
  "Mechanism": 7481, 
  "Kirk": 7482, 
  "veterinary": 7483, 
  "alised": 7484, 
  "breaks": 7485, 
  "ili@@": 7486, 
  "ern@@": 7487, 
  "Sol": 7488, 
  "additives": 7489, 
  "squ@@": 7490, 
  "UR@@": 7491, 
  "Sam@@": 7492, 
  "Anna": 7493, 
  "container": 7494, 
  "Pen@@": 7495, 
  "elite": 7496, 
  "dari": 7497, 
  "ham": 7498, 
  "swiftly": 7499, 
  "incurred": 7500, 
  "Client": 7501, 
  "plates": 7502, 
  "OM@@": 7503, 
  "woods": 7504, 
  "charging": 7505, 
  "irregularities": 7506, 
  "enti@@": 7507, 
  "Darfur": 7508, 
  "Mark": 7509, 
  "corporations": 7510, 
  "": 7511, 
  "chi": 7512, 
  "packed": 7513, 
  "convincing": 7514, 
  "conscious": 7515, 
  "sadly": 7516, 
  "batteries": 7517, 
  "highway": 7518, 
  "03@@": 7519, 
  "Fran@@": 7520, 
  "Small": 7521, 
  "adapting": 7522, 
  "biofuels": 7523, 
  "refurbished": 7524, 
  "ol": 7525, 
  "enshrined": 7526, 
  "restoring": 7527, 
  "somewhere": 7528, 
  "SI@@": 7529, 
  "plugin": 7530, 
  "hosted": 7531, 
  "1985": 7532, 
  "transported": 7533, 
  "bond": 7534, 
  "defeat": 7535, 
  "bes": 7536, 
  "van@@": 7537, 
  "ideological": 7538, 
  "een": 7539, 
  "outline": 7540, 
  "recipient": 7541, 
  "4,@@": 7542, 
  "low@@": 7543, 
  "beautifully": 7544, 
  "horses": 7545, 
  "insight": 7546, 
  "uni@@": 7547, 
  "alter": 7548, 
  "gathering": 7549, 
  "concluding": 7550, 
  "palace": 7551, 
  "responded": 7552, 
  "graphical": 7553, 
  "sor@@": 7554, 
  "silent": 7555, 
  "poses": 7556, 
  "tries": 7557, 
  "ala": 7558, 
  "passport": 7559, 
  "gambling": 7560, 
  "overwhelming": 7561, 
  "joy": 7562, 
  "outermost": 7563, 
  "decides": 7564, 
  "1986": 7565, 
  "wedding": 7566, 
  "MP@@": 7567, 
  "menus": 7568, 
  "aan": 7569, 
  "immunity": 7570, 
  "admitted": 7571, 
  "ght": 7572, 
  "tively": 7573, 
  "tailor": 7574, 
  "projected": 7575, 
  "seaside": 7576, 
  "belt": 7577, 
  "pa": 7578, 
  "cereals": 7579, 
  "oni": 7580, 
  "outlook": 7581, 
  "fare": 7582, 
  "Out": 7583, 
  "Nero": 7584, 
  "tin": 7585, 
  "Ha@@": 7586, 
  "р@@": 7587, 
  "attempting": 7588, 
  "6th": 7589, 
  "simpler": 7590, 
  "generic": 7591, 
  "provisional": 7592, 
  "Samsung": 7593, 
  "EF@@": 7594, 
  "1.2": 7595, 
  "prohibition": 7596, 
  "olo@@": 7597, 
  "pine": 7598, 
  "Ci@@": 7599, 
  "trail": 7600, 
  "Christ": 7601, 
  "strikes": 7602, 
  "а@@": 7603, 
  "origins": 7604, 
  "swift": 7605, 
  "ently": 7606, 
  "kit": 7607, 
  "encountered": 7608, 
  "frontier": 7609, 
  "å@@": 7610, 
  "Order": 7611, 
  "ía": 7612, 
  "Cre@@": 7613, 
  "punishment": 7614, 
  "Dresden": 7615, 
  "sy@@": 7616, 
  "Goals": 7617, 
  "Canadian": 7618, 
  "Croatian": 7619, 
  "elegance": 7620, 
  "attraction": 7621, 
  "disparities": 7622, 
  "villas": 7623, 
  "Holy": 7624, 
  "appointments": 7625, 
  "maker": 7626, 
  "originating": 7627, 
  "protests": 7628, 
  "wished": 7629, 
  "PSE": 7630, 
  "ji": 7631, 
  "Max": 7632, 
  "excuse": 7633, 
  "dengan": 7634, 
  "boosting": 7635, 
  "sciences": 7636, 
  "Ka@@": 7637, 
  "Merger": 7638, 
  "toxic": 7639, 
  "Valencia": 7640, 
  "herself": 7641, 
  "Bridge": 7642, 
  "giant": 7643, 
  "kl@@": 7644, 
  "sincere": 7645, 
  "onic": 7646, 
  "mit@@": 7647, 
  "Pack": 7648, 
  "wor@@": 7649, 
  "auto": 7650, 
  "Dra@@": 7651, 
  "ASEAN": 7652, 
  "spreading": 7653, 
  "Don@@": 7654, 
  "sem@@": 7655, 
  "printer": 7656, 
  "couples": 7657, 
  "wholly": 7658, 
  "thy": 7659, 
  "segments": 7660, 
  "accompany": 7661, 
  "insert": 7662, 
  "Piazza": 7663, 
  "ef@@": 7664, 
  "retained": 7665, 
  "ferry": 7666, 
  "immense": 7667, 
  "thematic": 7668, 
  "layers": 7669, 
  "Accession": 7670, 
  "Warcraft": 7671, 
  "stricter": 7672, 
  "tab": 7673, 
  "tly": 7674, 
  "13.@@": 7675, 
  "settlements": 7676, 
  "Guests": 7677, 
  "toys": 7678, 
  "legacy": 7679, 
  "Army": 7680, 
  "seas": 7681, 
  "upload": 7682, 
  "Sha@@": 7683, 
  "è@@": 7684, 
  "indicator": 7685, 
  "symbols": 7686, 
  "cou@@": 7687, 
  "sympathy": 7688, 
  "legendary": 7689, 
  "protects": 7690, 
  "ó": 7691, 
  "vegetable": 7692, 
  "luck": 7693, 
  "Christians": 7694, 
  "Jesus": 7695, 
  "sation": 7696, 
  "transform": 7697, 
  "problematic": 7698, 
  "jet": 7699, 
  "Ambassador": 7700, 
  "shed": 7701, 
  "Place": 7702, 
  "disagree": 7703, 
  "injury": 7704, 
  "л@@": 7705, 
  "sho@@": 7706, 
  "ati": 7707, 
  "blocking": 7708, 
  "Somalia": 7709, 
  "HU": 7710, 
  "contracting": 7711, 
  "AF@@": 7712, 
  "las@@": 7713, 
  "rated": 7714, 
  "1970": 7715, 
  "Suites": 7716, 
  "tram": 7717, 
  "eth": 7718, 
  "aria": 7719, 
  "guiding": 7720, 
  "inequalities": 7721, 
  "lar@@": 7722, 
  "def@@": 7723, 
  "debts": 7724, 
  "Cultural": 7725, 
  "ère": 7726, 
  "ok": 7727, 
  "bicycle": 7728, 
  "abandon": 7729, 
  "personality": 7730, 
  "rep@@": 7731, 
  "Ministerial": 7732, 
  "fishery": 7733, 
  "ping": 7734, 
  "mini@@": 7735, 
  "Mission": 7736, 
  "positively": 7737, 
  "Karel": 7738, 
  "universe": 7739, 
  "theoretical": 7740, 
  "ery": 7741, 
  "Mac@@": 7742, 
  "tically": 7743, 
  "Sun": 7744, 
  "innocent": 7745, 
  "ft@@": 7746, 
  "fri@@": 7747, 
  "Airlines": 7748, 
  "nutrition": 7749, 
  "compromises": 7750, 
  "municipality": 7751, 
  "customized": 7752, 
  "Technologies": 7753, 
  "Gallery": 7754, 
  "IR@@": 7755, 
  "posting": 7756, 
  "110": 7757, 
  ".The": 7758, 
  "fun@@": 7759, 
  "shorter": 7760, 
  "worried": 7761, 
  "diversification": 7762, 
  "Cold": 7763, 
  "Tre@@": 7764, 
  "Saddam": 7765, 
  "chamber": 7766, 
  "submission": 7767, 
  "LO@@": 7768, 
  "recognising": 7769, 
  "Corporate": 7770, 
  "pas@@": 7771, 
  "fastest": 7772, 
  "judgement": 7773, 
  "pushed": 7774, 
  "stimulating": 7775, 
  "meter": 7776, 
  "proves": 7777, 
  "simplifying": 7778, 
  "inger": 7779, 
  "dossier": 7780, 
  "Facility": 7781, 
  "pat@@": 7782, 
  "surgery": 7783, 
  "hy@@": 7784, 
  "distinguish": 7785, 
  "psychological": 7786, 
  "tackled": 7787, 
  "Por@@": 7788, 
  "craft": 7789, 
  "29@@": 7790, 
  "enforced": 7791, 
  "Bro@@": 7792, 
  "attaches": 7793, 
  "cam@@": 7794, 
  "quest": 7795, 
  "uring": 7796, 
  "wn": 7797, 
  "Is": 7798, 
  "beneficiary": 7799, 
  "Privacy": 7800, 
  "adjacent": 7801, 
  "RD": 7802, 
  "newest": 7803, 
  "ide@@": 7804, 
  "exemptions": 7805, 
  "Pe@@": 7806, 
  "anticipated": 7807, 
  "derogation": 7808, 
  "portion": 7809, 
  "halt": 7810, 
  "ESF": 7811, 
  "revolutionary": 7812, 
  "warrant": 7813, 
  "LA": 7814, 
  "Fer@@": 7815, 
  "accountable": 7816, 
  "Guide": 7817, 
  "book@@": 7818, 
  "healing": 7819, 
  "communist": 7820, 
  "subsidy": 7821, 
  "lau@@": 7822, 
  "readiness": 7823, 
  "witnessed": 7824, 
  "deliveries": 7825, 
  "burning": 7826, 
  "Mil@@": 7827, 
  "query": 7828, 
  "distortion": 7829, 
  "holes": 7830, 
  "pping": 7831, 
  "booth": 7832, 
  "Bad": 7833, 
  "spam": 7834, 
  "Nokia": 7835, 
  "PM": 7836, 
  "chapters": 7837, 
  "underway": 7838, 
  "ered": 7839, 
  "wed": 7840, 
  "towels": 7841, 
  "merged": 7842, 
  "hof": 7843, 
  "margins": 7844, 
  "altogether": 7845, 
  "ists": 7846, 
  "SS@@": 7847, 
  "decoration": 7848, 
  "res@@": 7849, 
  "favoured": 7850, 
  "ining": 7851, 
  "ré@@": 7852, 
  "economists": 7853, 
  "overseas": 7854, 
  "persistent": 7855, 
  "varying": 7856, 
  "hoc": 7857, 
  "ries": 7858, 
  "solo": 7859, 
  "tendency": 7860, 
  "varies": 7861, 
  "occupational": 7862, 
  "Leipzig": 7863, 
  "7th": 7864, 
  "instant": 7865, 
  "disastrous": 7866, 
  "financially": 7867, 
  "hearts": 7868, 
  "Neelie": 7869, 
  "onwards": 7870, 
  "pushing": 7871, 
  "ton@@": 7872, 
  "Sir": 7873, 
  "contamination": 7874, 
  "viability": 7875, 
  "admire": 7876, 
  "nearest": 7877, 
  "IB@@": 7878, 
  "thinks": 7879, 
  "ement": 7880, 
  "Š@@": 7881, 
  "0.5": 7882, 
  "illness": 7883, 
  "invoice": 7884, 
  "organ": 7885, 
  "Lin@@": 7886, 
  "distinctive": 7887, 
  "г@@": 7888, 
  "max": 7889, 
  "internally": 7890, 
  "targeting": 7891, 
  "execute": 7892, 
  "documented": 7893, 
  "wanting": 7894, 
  "emotional": 7895, 
  "Rental": 7896, 
  "dealers": 7897, 
  "bei": 7898, 
  "emphasize": 7899, 
  "lar": 7900, 
  "ine@@": 7901, 
  "sch": 7902, 
  "baggage": 7903, 
  "remuneration": 7904, 
  "adi@@": 7905, 
  "mines": 7906, 
  "diagnosis": 7907, 
  "preferential": 7908, 
  "shortage": 7909, 
  "Sky": 7910, 
  "guitar": 7911, 
  "retention": 7912, 
  "sixth": 7913, 
  "eliminated": 7914, 
  "ш@@": 7915, 
  "accessed": 7916, 
  "neo": 7917, 
  "surveys": 7918, 
  "reader": 7919, 
  "paragraphs": 7920, 
  "Palacio": 7921, 
  "varieties": 7922, 
  "Pol@@": 7923, 
  "demonstrations": 7924, 
  "pped": 7925, 
  "rit@@": 7926, 
  "BE": 7927, 
  "tunnel": 7928, 
  "confronted": 7929, 
  "carte": 7930, 
  "bulk": 7931, 
  "Han@@": 7932, 
  "episode": 7933, 
  "Ca@@": 7934, 
  "Riviera": 7935, 
  "unofficial": 7936, 
  "dissemination": 7937, 
  "terraces": 7938, 
  "weakness": 7939, 
  "Explorer": 7940, 
  "Access": 7941, 
  "Balkan": 7942, 
  "coach": 7943, 
  "Film": 7944, 
  "correspond": 7945, 
  "sustain": 7946, 
  "CC@@": 7947, 
  "designing": 7948, 
  "Solana": 7949, 
  "Hol@@": 7950, 
  "Shi@@": 7951, 
  "fore@@": 7952, 
  "Cha@@": 7953, 
  "Canary": 7954, 
  "299": 7955, 
  "adopts": 7956, 
  "1,000": 7957, 
  "oo@@": 7958, 
  "SS": 7959, 
  "dei": 7960, 
  "fying": 7961, 
  "ž@@": 7962, 
  "Armenia": 7963, 
  "impede": 7964, 
  "lend": 7965, 
  "abolished": 7966, 
  "earnings": 7967, 
  "diet": 7968, 
  "ente": 7969, 
  "Nikon": 7970, 
  "sion@@": 7971, 
  "б@@": 7972, 
  "Allah": 7973, 
  "vibrant": 7974, 
  "smallest": 7975, 
  "literally": 7976, 
  "Directors": 7977, 
  "dropped": 7978, 
  "Marco": 7979, 
  "forwarded": 7980, 
  "ray": 7981, 
  "Railway": 7982, 
  "NOT": 7983, 
  "reiterates": 7984, 
  "traceability": 7985, 
  "municipalities": 7986, 
  "bul@@": 7987, 
  "Em@@": 7988, 
  "pedestrian": 7989, 
  "ass": 7990, 
  "yp@@": 7991, 
  "flood": 7992, 
  "ordering": 7993, 
  "readers": 7994, 
  "Commerce": 7995, 
  "comfortably": 7996, 
  "enjoyable": 7997, 
  "TE": 7998, 
  "instances": 7999, 
  "frontiers": 8000, 
  "cian": 8001, 
  "History": 8002, 
  "LCD": 8003, 
  "stabilisation": 8004, 
  "outs": 8005, 
  "poli@@": 8006, 
  "exercises": 8007, 
  "rid": 8008, 
  "feeding": 8009, 
  "att@@": 8010, 
  "accommodations": 8011, 
  "rear": 8012, 
  "painted": 8013, 
  "democratically": 8014, 
  "harmonise": 8015, 
  "flo@@": 8016, 
  "deck": 8017, 
  "tied": 8018, 
  "static": 8019, 
  "Personal": 8020, 
  "mount": 8021, 
  "XML": 8022, 
  "CL@@": 8023, 
  "wo@@": 8024, 
  "painful": 8025, 
  "45@@": 8026, 
  "CDs": 8027, 
  "з@@": 8028, 
  "bi": 8029, 
  "geared": 8030, 
  "ori": 8031, 
  "intensify": 8032, 
  "valued": 8033, 
  "rue": 8034, 
  "cle@@": 8035, 
  "KDE": 8036, 
  "Piebalgs": 8037, 
  "G20": 8038, 
  "Côte": 8039, 
  "Pra@@": 8040, 
  "Bas@@": 8041, 
  "alpine": 8042, 
  "reformed": 8043, 
  "chip": 8044, 
  "successes": 8045, 
  "clarified": 8046, 
  "Monitoring": 8047, 
  "bel": 8048, 
  "Scottish": 8049, 
  "wisdom": 8050, 
  "Products": 8051, 
  "reveals": 8052, 
  "CA": 8053, 
  "popularity": 8054, 
  "enters": 8055, 
  "oils": 8056, 
  "congratulating": 8057, 
  "Hor@@": 8058, 
  "placement": 8059, 
  "retailers": 8060, 
  "pupils": 8061, 
  "11@@": 8062, 
  "by@@": 8063, 
  "severely": 8064, 
  "bach": 8065, 
  "paint": 8066, 
  "banana": 8067, 
  "Residence": 8068, 
  "chains": 8069, 
  "EA": 8070, 
  "opera": 8071, 
  "conservative": 8072, 
  "disappear": 8073, 
  "alle": 8074, 
  "reiterated": 8075, 
  "processor": 8076, 
  "protectionism": 8077, 
  "cru@@": 8078, 
  "disadvantage": 8079, 
  "q@@": 8080, 
  "vic@@": 8081, 
  "cy": 8082, 
  "employ": 8083, 
  "View": 8084, 
  "liberalization": 8085, 
  "diplomacy": 8086, 
  "dic@@": 8087, 
  "patch": 8088, 
  "variables": 8089, 
  "eggs": 8090, 
  "aspirations": 8091, 
  "cap": 8092, 
  "resume": 8093, 
  "Forest": 8094, 
  "nya": 8095, 
  "Ak@@": 8096, 
  "directors": 8097, 
  "Fu@@": 8098, 
  "sich": 8099, 
  "automobile": 8100, 
  "ora": 8101, 
  "Tokyo": 8102, 
  "threaten": 8103, 
  "Petitions": 8104, 
  "War@@": 8105, 
  "28@@": 8106, 
  "Language": 8107, 
  "va@@": 8108, 
  "60@@": 8109, 
  "grain": 8110, 
  "experimental": 8111, 
  "compiled": 8112, 
  "memories": 8113, 
  "judgments": 8114, 
  "bone": 8115, 
  "fies": 8116, 
  "Village": 8117, 
  "unchanged": 8118, 
  "14.@@": 8119, 
  "Children": 8120, 
  "Dec@@": 8121, 
  "Tampere": 8122, 
  "bin": 8123, 
  "strongest": 8124, 
  "surfaces": 8125, 
  "Guarantee": 8126, 
  "developer": 8127, 
  "William": 8128, 
  "bli@@": 8129, 
  "down@@": 8130, 
  "Catholic": 8131, 
  "slight": 8132, 
  "ther": 8133, 
  "seeds": 8134, 
  "Land@@": 8135, 
  "Mallorca": 8136, 
  ".net": 8137, 
  "yl@@": 8138, 
  "ы": 8139, 
  "lam@@": 8140, 
  "Mountains": 8141, 
  "Blair": 8142, 
  "Ford": 8143, 
  "stan@@": 8144, 
  "Secretariat": 8145, 
  "CFP": 8146, 
  "protein": 8147, 
  "License": 8148, 
  "VIP": 8149, 
  "guilty": 8150, 
  "altitude": 8151, 
  "lifts": 8152, 
  "submitting": 8153, 
  "і@@": 8154, 
  "pesticides": 8155, 
  "disability": 8156, 
  "bin@@": 8157, 
  "absurd": 8158, 
  "ал@@": 8159, 
  "attracted": 8160, 
  "misleading": 8161, 
  "ranking": 8162, 
  "ENT": 8163, 
  "exported": 8164, 
  "hairdryer": 8165, 
  "comprising": 8166, 
  "chaired": 8167, 
  "acute": 8168, 
  "Engineering": 8169, 
  "pragmatic": 8170, 
  "cabin": 8171, 
  "suspected": 8172, 
  "GR@@": 8173, 
  "stainless": 8174, 
  "disp@@": 8175, 
  "intent": 8176, 
  "fold": 8177, 
  "fitting": 8178, 
  "doc": 8179, 
  "builds": 8180, 
  "breakdown": 8181, 
  "Arabia": 8182, 
  "ME": 8183, 
  "regulating": 8184, 
  "nen": 8185, 
  "boarding": 8186, 
  "gan": 8187, 
  "fra@@": 8188, 
  "educated": 8189, 
  "accomplished": 8190, 
  "attending": 8191, 
  "syn@@": 8192, 
  "radioactive": 8193, 
  "keyboard": 8194, 
  "Gre@@": 8195, 
  "Pierre": 8196, 
  "organs": 8197, 
  "Star@@": 8198, 
  "harder": 8199, 
  "downloads": 8200, 
  "Timor": 8201, 
  "eli@@": 8202, 
  "embargo": 8203, 
  "Bonn": 8204, 
  "praise": 8205, 
  "possession": 8206, 
  "fixing": 8207, 
  "sequence": 8208, 
  "pets": 8209, 
  "Francisco": 8210, 
  "sli@@": 8211, 
  "termination": 8212, 
  "Mol@@": 8213, 
  "identifies": 8214, 
  "Institutions": 8215, 
  "economical": 8216, 
  "loud": 8217, 
  "Mail": 8218, 
  "corresponds": 8219, 
  "seller": 8220, 
  "cream": 8221, 
  "quoted": 8222, 
  "furnishings": 8223, 
  "employer": 8224, 
  "poorer": 8225, 
  "ILO": 8226, 
  "inappropriate": 8227, 
  "Serbian": 8228, 
  "Reserve": 8229, 
  "ñ@@": 8230, 
  "acid": 8231, 
  "Azerbaijan": 8232, 
  "topical": 8233, 
  "vulnerability": 8234, 
  "ord@@": 8235, 
  "grey": 8236, 
  "refund": 8237, 
  "understandable": 8238, 
  "phases": 8239, 
  "Disabled": 8240, 
  "Unit": 8241, 
  "§": 8242, 
  "but@@": 8243, 
  "cker": 8244, 
  "standardisation": 8245, 
  "configured": 8246, 
  "galleries": 8247, 
  "4303": 8248, 
  "ack": 8249, 
  "incomplete": 8250, 
  "bat@@": 8251, 
  "closest": 8252, 
  "27@@": 8253, 
  "Germans": 8254, 
  "‑": 8255, 
  "Firefox": 8256, 
  "drew": 8257, 
  "mes": 8258, 
  "WITH": 8259, 
  "aci@@": 8260, 
  "frames": 8261, 
  "experiments": 8262, 
  "nets": 8263, 
  "exquisite": 8264, 
  "Conclusions": 8265, 
  "Kor@@": 8266, 
  "viruses": 8267, 
  "peripheral": 8268, 
  "worlds": 8269, 
  "kin@@": 8270, 
  "List": 8271, 
  "geb@@": 8272, 
  "dia": 8273, 
  "SK": 8274, 
  "serial": 8275, 
  "treating": 8276, 
  "portable": 8277, 
  "140": 8278, 
  "36@@": 8279, 
  "Gr@@": 8280, 
  "injection": 8281, 
  "outbreak": 8282, 
  "voltage": 8283, 
  "Egyptian": 8284, 
  "intimate": 8285, 
  "boom": 8286, 
  "vi": 8287, 
  "billions": 8288, 
  "set@@": 8289, 
  "pada": 8290, 
  "bes@@": 8291, 
  "critique": 8292, 
  "signatures": 8293, 
  "failures": 8294, 
  "density": 8295, 
  "tical": 8296, 
  "ess@@": 8297, 
  "avec": 8298, 
  "boy": 8299, 
  "holdings": 8300, 
  "alternatively": 8301, 
  "chart": 8302, 
  "timber": 8303, 
  "person@@": 8304, 
  "är@@": 8305, 
  "assumption": 8306, 
  "snacks": 8307, 
  "reg@@": 8308, 
  "cho@@": 8309, 
  "deposits": 8310, 
  "Assistance": 8311, 
  "SQL": 8312, 
  "Content": 8313, 
  "Bavaria": 8314, 
  "successor": 8315, 
  "Lau@@": 8316, 
  "tag": 8317, 
  "matching": 8318, 
  "reaffirms": 8319, 
  "15.@@": 8320, 
  "RSS": 8321, 
  "posi@@": 8322, 
  "buttons": 8323, 
  "aging": 8324, 
  "policymakers": 8325, 
  "earliest": 8326, 
  "frozen": 8327, 
  "Child": 8328, 
  "mild": 8329, 
  "etc.": 8330, 
  "institute": 8331, 
  "sorts": 8332, 
  "mut@@": 8333, 
  "locked": 8334, 
  "reward": 8335, 
  "festivals": 8336, 
  "measurements": 8337, 
  "cache": 8338, 
  "pla@@": 8339, 
  "Wal@@": 8340, 
  "len@@": 8341, 
  "catches": 8342, 
  "D.": 8343, 
  "democratisation": 8344, 
  "steady": 8345, 
  "liberty": 8346, 
  "Philippe": 8347, 
  "Revolution": 8348, 
  "ample": 8349, 
  "Seville": 8350, 
  "AP": 8351, 
  "bold": 8352, 
  "shaping": 8353, 
  "1957": 8354, 
  "J.": 8355, 
  "Christopher": 8356, 
  "len": 8357, 
  "exotic": 8358, 
  "appropriately": 8359, 
  "Da@@": 8360, 
  "Porto": 8361, 
  "etz@@": 8362, 
  "boys": 8363, 
  "magazines": 8364, 
  "cathedral": 8365, 
  "Division": 8366, 
  "ozone": 8367, 
  "mood": 8368, 
  "assisting": 8369, 
  "renovation": 8370, 
  "conc@@": 8371, 
  "A.@@": 8372, 
  "ideology": 8373, 
  "gy@@": 8374, 
  "Karl": 8375, 
  "coastline": 8376, 
  "Gay": 8377, 
  "substantive": 8378, 
  "activists": 8379, 
  "baths": 8380, 
  "MEP": 8381, 
  "trigger": 8382, 
  "anda": 8383, 
  "ali": 8384, 
  "Norwegian": 8385, 
  "10th": 8386, 
  "Thai": 8387, 
  "1.1": 8388, 
  "variations": 8389, 
  "commands": 8390, 
  "Slovenian": 8391, 
  "е": 8392, 
  "copper": 8393, 
  "Á@@": 8394, 
  "flora": 8395, 
  "jury": 8396, 
  "Aviation": 8397, 
  "At@@": 8398, 
  "Search": 8399, 
  "promotional": 8400, 
  "reminded": 8401, 
  "earmarked": 8402, 
  "spec@@": 8403, 
  "ranks": 8404, 
  "prosperous": 8405, 
  "rhetoric": 8406, 
  "titles": 8407, 
  "HP": 8408, 
  "Istanbul": 8409, 
  "illegally": 8410, 
  "gi": 8411, 
  "EX": 8412, 
  "tissue": 8413, 
  "ruins": 8414, 
  "annex": 8415, 
  "generates": 8416, 
  "Starfleet": 8417, 
  "han": 8418, 
  "judged": 8419, 
  "panorama": 8420, 
  "fol@@": 8421, 
  "coupled": 8422, 
  "CH": 8423, 
  "OP@@": 8424, 
  "Myanmar": 8425, 
  "investigated": 8426, 
  "nightlife": 8427, 
  "indicating": 8428, 
  "suits": 8429, 
  "invasion": 8430, 
  "benefited": 8431, 
  "ando": 8432, 
  "Integration": 8433, 
  "genocide": 8434, 
  "296": 8435, 
  "camp@@": 8436, 
  "aboard": 8437, 
  "brilliant": 8438, 
  "wasn": 8439, 
  "Councils": 8440, 
  "80@@": 8441, 
  "Wikitravel": 8442, 
  "26@@": 8443, 
  "architect": 8444, 
  "verified": 8445, 
  "deepening": 8446, 
  "bridges": 8447, 
  "Trans@@": 8448, 
  "5,@@": 8449, 
  "qualitative": 8450, 
  "recovered": 8451, 
  "shipment": 8452, 
  "Rec@@": 8453, 
  "petrol": 8454, 
  "minors": 8455, 
  "servants": 8456, 
  "tidak": 8457, 
  "Malaysia": 8458, 
  "demonstrating": 8459, 
  "writers": 8460, 
  "critics": 8461, 
  "Theatre": 8462, 
  "vous": 8463, 
  "brutal": 8464, 
  "Professional": 8465, 
  "Bon@@": 8466, 
  "log@@": 8467, 
  "IBM": 8468, 
  "ele@@": 8469, 
  "deliberately": 8470, 
  "Del@@": 8471, 
  "GU@@": 8472, 
  "Newspapers": 8473, 
  "bor@@": 8474, 
  "ques": 8475, 
  "flower": 8476, 
  "hing": 8477, 
  "recreational": 8478, 
  "Clinton": 8479, 
  "privileges": 8480, 
  "cat": 8481, 
  "tank": 8482, 
  "S.@@": 8483, 
  "Palma": 8484, 
  "outcomes": 8485, 
  "favor": 8486, 
  "lic": 8487, 
  "speeds": 8488, 
  "detriment": 8489, 
  "plot": 8490, 
  "Dialogue": 8491, 
  "realities": 8492, 
  "intermediate": 8493, 
  "IX": 8494, 
  "bottle": 8495, 
  "OC@@": 8496, 
  "merits": 8497, 
  "trucks": 8498, 
  "races": 8499, 
  "lian": 8500, 
  "qualify": 8501, 
  "Register": 8502, 
  "convey": 8503, 
  "stic": 8504, 
  "advocates": 8505, 
  "scripts": 8506, 
  "auction": 8507, 
  "studios": 8508, 
  "deprived": 8509, 
  "stal@@": 8510, 
  "mile": 8511, 
  "historically": 8512, 
  "mothers": 8513, 
  "450": 8514, 
  "Caucasus": 8515, 
  "dish": 8516, 
  "Vol@@": 8517, 
  "institutes": 8518, 
  "modernise": 8519, 
  "slide": 8520, 
  "captured": 8521, 
  "commissioned": 8522, 
  "drag": 8523, 
  "ics": 8524, 
  "bookings": 8525, 
  "repercussions": 8526, 
  "chronic": 8527, 
  "optimized": 8528, 
  "analysed": 8529, 
  "experiment": 8530, 
  "Point": 8531, 
  "Arctic": 8532, 
  "lawyer": 8533, 
  "eve": 8534, 
  "tie": 8535, 
  "ances": 8536, 
  "iPod": 8537, 
  "attacked": 8538, 
  "dryer": 8539, 
  "loads": 8540, 
  "Police": 8541, 
  "13th": 8542, 
  "tasty": 8543, 
  "oring": 8544, 
  "Awards": 8545, 
  "journalist": 8546, 
  "fil@@": 8547, 
  "Instance": 8548, 
  "0,@@": 8549, 
  "shut": 8550, 
  "sten@@": 8551, 
  "ENT@@": 8552, 
  "random": 8553, 
  "ites": 8554, 
  "Full": 8555, 
  "occasionally": 8556, 
  "corrections": 8557, 
  "mill": 8558, 
  "MA": 8559, 
  "10,000": 8560, 
  "leverage": 8561, 
  "Review": 8562, 
  "infected": 8563, 
  "WHO": 8564, 
  "bugs": 8565, 
  "thick": 8566, 
  "werden": 8567, 
  "shoulder": 8568, 
  "prizes": 8569, 
  "noble": 8570, 
  "breaches": 8571, 
  "Rem@@": 8572, 
  "0,000": 8573, 
  "inventory": 8574, 
  "TO@@": 8575, 
  "sooner": 8576, 
  "disproportionate": 8577, 
  "promptly": 8578, 
  "discounts": 8579, 
  "tanks": 8580, 
  "corrected": 8581, 
  "inherent": 8582, 
  "persecution": 8583, 
  "footing": 8584, 
  "Times": 8585, 
  "singer": 8586, 
  "clearance": 8587, 
  "ron": 8588, 
  "Mario": 8589, 
  "Mountain": 8590, 
  "sleeping": 8591, 
  "Test": 8592, 
  "stretch": 8593, 
  "seasonal": 8594, 
  "ITEMS": 8595, 
  "entails": 8596, 
  "eleven": 8597, 
  "mounting": 8598, 
  "gation": 8599, 
  "kin": 8600, 
  "Dr": 8601, 
  "soci@@": 8602, 
  "Cer@@": 8603, 
  "architects": 8604, 
  "ania": 8605, 
  "passive": 8606, 
  "jazz": 8607, 
  "reforming": 8608, 
  "ically": 8609, 
  "containers": 8610, 
  "donation": 8611, 
  "DA": 8612, 
  "tune": 8613, 
  "oasis": 8614, 
  "substitute": 8615, 
  "not@@": 8616, 
  "marble": 8617, 
  "modular": 8618, 
  "cure": 8619, 
  "accelerated": 8620, 
  "dre@@": 8621, 
  "Natura": 8622, 
  "orange": 8623, 
  "Supreme": 8624, 
  "approving": 8625, 
  "geographic": 8626, 
  "Net": 8627, 
  "ee": 8628, 
  "speculation": 8629, 
  "Mercosur": 8630, 
  "mortality": 8631, 
  "Universal": 8632, 
  "rows": 8633, 
  "loc@@": 8634, 
  "pin": 8635, 
  "exempt": 8636, 
  "salaries": 8637, 
  "magnetic": 8638, 
  "productions": 8639, 
  "ked": 8640, 
  "benefiting": 8641, 
  "indicative": 8642, 
  "ст@@": 8643, 
  "persuade": 8644, 
  "sudden": 8645, 
  "Tro@@": 8646, 
  "lifetime": 8647, 
  "birthday": 8648, 
  "sons": 8649, 
  "Madeira": 8650, 
  "encouragement": 8651, 
  "arena": 8652, 
  "tv": 8653, 
  "asi@@": 8654, 
  "decreased": 8655, 
  "Ober@@": 8656, 
  "mes@@": 8657, 
  "RI": 8658, 
  "trace": 8659, 
  "Assessment": 8660, 
  "Intel": 8661, 
  "Eurobarometer": 8662, 
  "purchaser": 8663, 
  "crash": 8664, 
  "outer": 8665, 
  "pet": 8666, 
  "professions": 8667, 
  "enemies": 8668, 
  "Mount": 8669, 
  "dealer": 8670, 
  "alert": 8671, 
  "deb@@": 8672, 
  "UT@@": 8673, 
  "distances": 8674, 
  "uncertain": 8675, 
  "ame": 8676, 
  "360": 8677, 
  "ан@@": 8678, 
  "moon": 8679, 
  "archives": 8680, 
  "cent@@": 8681, 
  "intra": 8682, 
  "tt@@": 8683, 
  "injured": 8684, 
  "norms": 8685, 
  "devastating": 8686, 
  "barely": 8687, 
  "courtyard": 8688, 
  "EV@@": 8689, 
  "bananas": 8690, 
  "refrain": 8691, 
  "proportionality": 8692, 
  "Char@@": 8693, 
  "ji@@": 8694, 
  "Ethiopia": 8695, 
  "xenophobia": 8696, 
  "frameworks": 8697, 
  "stu@@": 8698, 
  "declining": 8699, 
  "successive": 8700, 
  "disappeared": 8701, 
  "Tuscany": 8702, 
  "ар@@": 8703, 
  "toll": 8704, 
  "Ly@@": 8705, 
  "conceived": 8706, 
  "contradiction": 8707, 
  "descriptions": 8708, 
  "rises": 8709, 
  "Strategic": 8710, 
  "Nord": 8711, 
  "malaria": 8712, 
  "occurring": 8713, 
  "ANT@@": 8714, 
  "coating": 8715, 
  "SM@@": 8716, 
  "mercury": 8717, 
  "imagination": 8718, 
  "template": 8719, 
  "Sim@@": 8720, 
  "impressed": 8721, 
  "Mur@@": 8722, 
  "URL": 8723, 
  "breast": 8724, 
  "14th": 8725, 
  "suspend": 8726, 
  "organizing": 8727, 
  "queries": 8728, 
  "Kenya": 8729, 
  "remedies": 8730, 
  "avi@@": 8731, 
  "ham@@": 8732, 
  "int": 8733, 
  "fs": 8734, 
  "antique": 8735, 
  "hoping": 8736, 
  "wheels": 8737, 
  "16.@@": 8738, 
  "shell": 8739, 
  "minded": 8740, 
  "spo@@": 8741, 
  "Mari@@": 8742, 
  "nominated": 8743, 
  "proportionate": 8744, 
  "Future": 8745, 
  "exceeds": 8746, 
  "form@@": 8747, 
  "Arena": 8748, 
  "beverages": 8749, 
  "ny": 8750, 
  "Fed": 8751, 
  "ap": 8752, 
  "Works": 8753, 
  "motivation": 8754, 
  "1945": 8755, 
  "disclosure": 8756, 
  "vaccination": 8757, 
  "positioned": 8758, 
  "Venezuela": 8759, 
  "eit@@": 8760, 
  "resist": 8761, 
  "ye@@": 8762, 
  "formulated": 8763, 
  "TEN": 8764, 
  "gue": 8765, 
  "consultants": 8766, 
  "ela": 8767, 
  "organisational": 8768, 
  "realisation": 8769, 
  "ath@@": 8770, 
  "steep": 8771, 
  "counterparts": 8772, 
  "Wales": 8773, 
  "Game": 8774, 
  "celebration": 8775, 
  "warnings": 8776, 
  "supplying": 8777, 
  "peer": 8778, 
  "prevail": 8779, 
  "AK@@": 8780, 
  "pot": 8781, 
  "ined": 8782, 
  "synthetic": 8783, 
  "counting": 8784, 
  "scenarios": 8785, 
  "bles": 8786, 
  "boutique": 8787, 
  "evenings": 8788, 
  "poultry": 8789, 
  "dad": 8790, 
  "linen": 8791, 
  "ALDE": 8792, 
  "6,@@": 8793, 
  "fabulous": 8794, 
  "ç@@": 8795, 
  "Wellness": 8796, 
  "derogations": 8797, 
  "G8": 8798, 
  "в": 8799, 
  "Quark": 8800, 
  "Political": 8801, 
  "eta": 8802, 
  "GB": 8803, 
  "É@@": 8804, 
  "assuming": 8805, 
  "sz@@": 8806, 
  "thrown": 8807, 
  "sk": 8808, 
  "cking": 8809, 
  "tra": 8810, 
  "Nazi": 8811, 
  "ler@@": 8812, 
  "gar": 8813, 
  "DR@@": 8814, 
  "fairness": 8815, 
  "cr@@": 8816, 
  "backup": 8817, 
  "pun@@": 8818, 
  "With": 8819, 
  "mature": 8820, 
  "wearing": 8821, 
  "clearing": 8822, 
  "commend": 8823, 
  "acknowledges": 8824, 
  "strengthens": 8825, 
  "Travel": 8826, 
  "gel": 8827, 
  "strengths": 8828, 
  "propaganda": 8829, 
  "recreation": 8830, 
  "exporting": 8831, 
  "Hel@@": 8832, 
  "multilingual": 8833, 
  "Sub@@": 8834, 
  "aj@@": 8835, 
  "fifty": 8836, 
  "accurately": 8837, 
  "Platform": 8838, 
  "symptoms": 8839, 
  "swi@@": 8840, 
  "ECOFIN": 8841, 
  "tran@@": 8842, 
  "Statement": 8843, 
  "manually": 8844, 
  "tranquil": 8845, 
  "cooperating": 8846, 
  "transposed": 8847, 
  "stein": 8848, 
  "Man": 8849, 
  "oh@@": 8850, 
  "folk": 8851, 
  "ALE": 8852, 
  "shame": 8853, 
  "NO@@": 8854, 
  "factories": 8855, 
  "optimistic": 8856, 
  "Officer": 8857, 
  "Dolomites": 8858, 
  "commodities": 8859, 
  "Queen": 8860, 
  "eib.org": 8861, 
  "refreshing": 8862, 
  "Schulz": 8863, 
  "affair": 8864, 
  "fic@@": 8865, 
  "sensors": 8866, 
  "Ga@@": 8867, 
  "kes": 8868, 
  "Metro": 8869, 
  "populated": 8870, 
  "mb@@": 8871, 
  "SE@@": 8872, 
  "sehr": 8873, 
  "congress": 8874, 
  "forever": 8875, 
  "Des@@": 8876, 
  "2.2": 8877, 
  "bil@@": 8878, 
  "Operational": 8879, 
  "conscience": 8880, 
  "pretext": 8881, 
  "jo": 8882, 
  "accessing": 8883, 
  "Marketing": 8884, 
  "therapeutic": 8885, 
  "imply": 8886, 
  "incorporating": 8887, 
  "Ur@@": 8888, 
  "B.": 8889, 
  "insofar": 8890, 
  "disc": 8891, 
  "notable": 8892, 
  "Met@@": 8893, 
  "CC": 8894, 
  "Use": 8895, 
  "Kurdish": 8896, 
  "dar": 8897, 
  "san@@": 8898, 
  "anymore": 8899, 
  "Staff": 8900, 
  "dalam": 8901, 
  "storm": 8902, 
  "assi@@": 8903, 
  "calculations": 8904, 
  "Top": 8905, 
  "synergies": 8906, 
  "wet": 8907, 
  "Daniel": 8908, 
  "manages": 8909, 
  "alarming": 8910, 
  "I.": 8911, 
  "PHARE": 8912, 
  "highlighting": 8913, 
  "rac@@": 8914, 
  "desert": 8915, 
  "bon@@": 8916, 
  "We@@": 8917, 
  "Account": 8918, 
  "awaiting": 8919, 
  "HR": 8920, 
  "Jan@@": 8921, 
  "Solutions": 8922, 
  "deficiencies": 8923, 
  "Uni@@": 8924, 
  "risen": 8925, 
  "infection": 8926, 
  "gentle": 8927, 
  "There": 8928, 
  "37@@": 8929, 
  "и@@": 8930, 
  "rou@@": 8931, 
  "translators": 8932, 
  "burn": 8933, 
  "bn": 8934, 
  "minibar": 8935, 
  "communicated": 8936, 
  "VI@@": 8937, 
  "remit": 8938, 
  "protocols": 8939, 
  "Shanghai": 8940, 
  "Gen@@": 8941, 
  "mediation": 8942, 
  "Mary": 8943, 
  "abolish": 8944, 
  "lacks": 8945, 
  "Monte": 8946, 
  "Wallström": 8947, 
  "ú@@": 8948, 
  "elli": 8949, 
  "а": 8950, 
  "Tar@@": 8951, 
  "Brazilian": 8952, 
  "vegetation": 8953, 
  "buffer": 8954, 
  "SA@@": 8955, 
  "Ps": 8956, 
  "Instruments": 8957, 
  "Santer": 8958, 
  "smoothly": 8959, 
  "screens": 8960, 
  "MAR@@": 8961, 
  "selective": 8962, 
  "german": 8963, 
  "Terrace": 8964, 
  "sw@@": 8965, 
  "yearly": 8966, 
  "cop@@": 8967, 
  "н@@": 8968, 
  "husband": 8969, 
  "foreigners": 8970, 
  "arian": 8971, 
  "AB": 8972, 
  "derivatives": 8973, 
  "Hitler": 8974, 
  "switching": 8975, 
  "lit": 8976, 
  "dal": 8977, 
  "allocate": 8978, 
  "devote": 8979, 
  "art@@": 8980, 
  "Age": 8981, 
  "entail": 8982, 
  "comparative": 8983, 
  "weaker": 8984, 
  "ros": 8985, 
  "rocks": 8986, 
  "kar@@": 8987, 
  "As@@": 8988, 
  "specification": 8989, 
  "Laundry": 8990, 
  "vis@@": 8991, 
  "Net@@": 8992, 
  "chips": 8993, 
  "thou": 8994, 
  "hang": 8995, 
  "Vel@@": 8996, 
  "ción": 8997, 
  "PER@@": 8998, 
  "Russians": 8999, 
  "triple": 9000, 
  "Democracy": 9001, 
  "yst@@": 9002, 
  "Mel@@": 9003, 
  "PE": 9004, 
  "Big": 9005, 
  "multitude": 9006, 
  "20.@@": 9007, 
  "LT": 9008, 
  "evaluating": 9009, 
  "shipbuilding": 9010, 
  "criticised": 9011, 
  "undermining": 9012, 
  "arch@@": 9013, 
  "Wil@@": 9014, 
  "influences": 9015, 
  "fabrics": 9016, 
  "ра@@": 9017, 
  "Wei@@": 9018, 
  "Peru": 9019, 
  "Dor@@": 9020, 
  "bol@@": 9021, 
  "dol@@": 9022, 
  "1.3": 9023, 
  "aire": 9024, 
  "tom@@": 9025, 
  "forbidden": 9026, 
  "confined": 9027, 
  "й@@": 9028, 
  "sus": 9029, 
  "Steel": 9030, 
  "aling": 9031, 
  "socialist": 9032, 
  "springs": 9033, 
  "Frontex": 9034, 
  "gl@@": 9035, 
  "wins": 9036, 
  "Super@@": 9037, 
  "negligence": 9038, 
  "einer": 9039, 
  "gal@@": 9040, 
  "1979": 9041, 
  "exercised": 9042, 
  "filed": 9043, 
  "65@@": 9044, 
  "alize": 9045, 
  "pen": 9046, 
  "sn@@": 9047, 
  "Cambodia": 9048, 
  "milestone": 9049, 
  "Taliban": 9050, 
  "picked": 9051, 
  "trendy": 9052, 
  "tiles": 9053, 
  "transpose": 9054, 
  "Globalisation": 9055, 
  "render": 9056, 
  "noisy": 9057, 
  "steadily": 9058, 
  "DO@@": 9059, 
  "ards": 9060, 
  "uphold": 9061, 
  "Task": 9062, 
  "sind": 9063, 
  "eradication": 9064, 
  "1984": 9065, 
  "ethics": 9066, 
  "triggered": 9067, 
  "fridge": 9068, 
  "spatial": 9069, 
  "dimensional": 9070, 
  "cigarettes": 9071, 
  "shores": 9072, 
  "recourse": 9073, 
  "theater": 9074, 
  "adhere": 9075, 
  "editors": 9076, 
  "couldn": 9077, 
  "ern": 9078, 
  "insisted": 9079, 
  "Week": 9080, 
  "ark@@": 9081, 
  "stepping": 9082, 
  "harmonious": 9083, 
  "top@@": 9084, 
  "Sur@@": 9085, 
  "ace": 9086, 
  "counterfeiting": 9087, 
  "chef": 9088, 
  "horizon": 9089, 
  "terrain": 9090, 
  "nbsp": 9091, 
  "diameter": 9092, 
  "obligatory": 9093, 
  "Catherine": 9094, 
  "facto": 9095, 
  "approaching": 9096, 
  "fleets": 9097, 
  "coin": 9098, 
  "SDL": 9099, 
  "simulation": 9100, 
  "solarium": 9101, 
  "iz@@": 9102, 
  "agreeing": 9103, 
  "ail@@": 9104, 
  "Contact": 9105, 
  "midst": 9106, 
  "fibre": 9107, 
  "Cotonou": 9108, 
  "BL@@": 9109, 
  "somehow": 9110, 
  "participant": 9111, 
  "lengthy": 9112, 
  "fortress": 9113, 
  "nationalism": 9114, 
  "broke": 9115, 
  "frankly": 9116, 
  "aquaculture": 9117, 
  "Lanka": 9118, 
  "Medical": 9119, 
  "determines": 9120, 
  "cup": 9121, 
  "Exhibition": 9122, 
  "REACH": 9123, 
  "gs@@": 9124, 
  "ited": 9125, 
  "Düsseldorf": 9126, 
  "manipulation": 9127, 
  "ning": 9128, 
  "xi@@": 9129, 
  "ols": 9130, 
  "wel@@": 9131, 
  "harmonization": 9132, 
  "Bed": 9133, 
  "attentive": 9134, 
  "linear": 9135, 
  "college": 9136, 
  "iness": 9137, 
  "Cur@@": 9138, 
  "exceeding": 9139, 
  "Pat@@": 9140, 
  "plastics": 9141, 
  "SD@@": 9142, 
  "assumes": 9143, 
  "licenses": 9144, 
  "backdrop": 9145, 
  "terminals": 9146, 
  "fulfilment": 9147, 
  "zoom": 9148, 
  "220": 9149, 
  "tica": 9150, 
  "S.A.": 9151, 
  "collectively": 9152, 
  "childhood": 9153, 
  "hes": 9154, 
  "ben": 9155, 
  "surfing": 9156, 
  "tongue": 9157, 
  "incredibly": 9158, 
  "Renaissance": 9159, 
  "blow": 9160, 
  "merit": 9161, 
  "chan@@": 9162, 
  "я@@": 9163, 
  "suspect": 9164, 
  "Partners": 9165, 
  "halls": 9166, 
  "fairs": 9167, 
  "sters": 9168, 
  "offence": 9169, 
  "longest": 9170, 
  "carriage": 9171, 
  "inch": 9172, 
  "phenomena": 9173, 
  "transferring": 9174, 
  "Patent": 9175, 
  "postponed": 9176, 
  "decor": 9177, 
  "declined": 9178, 
  "upgraded": 9179, 
  "complying": 9180, 
  "amp": 9181, 
  "conception": 9182, 
  "passage": 9183, 
  "Prof.": 9184, 
  "ath": 9185, 
  "Ap@@": 9186, 
  "powder": 9187, 
  "confront": 9188, 
  "Albanian": 9189, 
  "jump": 9190, 
  "tot@@": 9191, 
  "Wa@@": 9192, 
  "Cuban": 9193, 
  "strip": 9194, 
  "19@@": 9195, 
  "stock@@": 9196, 
  "warned": 9197, 
  "possess": 9198, 
  "Building": 9199, 
  "pump": 9200, 
  "Trump": 9201, 
  "shapes": 9202, 
  "personalized": 9203, 
  "power@@": 9204, 
  "claiming": 9205, 
  "tos": 9206, 
  "monopolies": 9207, 
  "pul@@": 9208, 
  "ecosystems": 9209, 
  "lon@@": 9210, 
  "dying": 9211, 
  "dat@@": 9212, 
  "truck": 9213, 
  "1970s": 9214, 
  "chaos": 9215, 
  "cycles": 9216, 
  "engaging": 9217, 
  "W.": 9218, 
  "ony": 9219, 
  "Euros": 9220, 
  "unite": 9221, 
  "mails": 9222, 
  "anybody": 9223, 
  "donations": 9224, 
  "Cro@@": 9225, 
  "lung": 9226, 
  "Friendly": 9227, 
  "Class": 9228, 
  "ases": 9229, 
  "Hussein": 9230, 
  "insecurity": 9231, 
  "construct": 9232, 
  "moratorium": 9233, 
  "fauna": 9234, 
  "forefront": 9235, 
  "nowhere": 9236, 
  "Trans": 9237, 
  "hydrogen": 9238, 
  "fulfill": 9239, 
  "zen": 9240, 
  "basin": 9241, 
  "lying": 9242, 
  "Neu@@": 9243, 
  "Visa": 9244, 
  "ill@@": 9245, 
  "Holland": 9246, 
  "teeth": 9247, 
  "aesthetic": 9248, 
  "Prince": 9249, 
  "installer": 9250, 
  "exp@@": 9251, 
  "mobilisation": 9252, 
  "roadmap": 9253, 
  "injuries": 9254, 
  "redundant": 9255, 
  "Tel@@": 9256, 
  "unexpected": 9257, 
  "motto": 9258, 
  "documentary": 9259, 
  "pair": 9260, 
  "Micro@@": 9261, 
  "administrator": 9262, 
  "connects": 9263, 
  "IV@@": 9264, 
  "auf@@": 9265, 
  "Borg": 9266, 
  "gra": 9267, 
  "Naples": 9268, 
  "WORD": 9269, 
  "Lounge": 9270, 
  "SC": 9271, 
  "He": 9272, 
  "brown": 9273, 
  "Open@@": 9274, 
  "Far@@": 9275, 
  "Anti@@": 9276, 
  "masters": 9277, 
  "commenting": 9278, 
  "SU@@": 9279, 
  "gues": 9280, 
  "bis": 9281, 
  "deliberate": 9282, 
  "wir": 9283, 
  "lab@@": 9284, 
  "positioning": 9285, 
  "durable": 9286, 
  "zo": 9287, 
  "appeals": 9288, 
  "LIFE": 9289, 
  "Panel": 9290, 
  "Air@@": 9291, 
  "Ref": 9292, 
  "undermined": 9293, 
  "Liberals": 9294, 
  "laboratories": 9295, 
  "emotions": 9296, 
  "ratings": 9297, 
  "sister": 9298, 
  "pin@@": 9299, 
  "heim": 9300, 
  "bikes": 9301, 
  "Ticket": 9302, 
  "Image": 9303, 
  "defended": 9304, 
  "ingen": 9305, 
  "Lamy": 9306, 
  "reimbursement": 9307, 
  "informing": 9308, 
  "ARE": 9309, 
  "cosmetic": 9310, 
  "Dry": 9311, 
  "drawings": 9312, 
  "precedent": 9313, 
  "animation": 9314, 
  "Eu@@": 9315, 
  "fourthly": 9316, 
  "rigid": 9317, 
  "tends": 9318, 
  "learnt": 9319, 
  "cing": 9320, 
  "Bet@@": 9321, 
  "cement": 9322, 
  "altered": 9323, 
  "Andreas": 9324, 
  "differing": 9325, 
  "exchanged": 9326, 
  "reviewing": 9327, 
  "criticisms": 9328, 
  "Tarifa": 9329, 
  "gent": 9330, 
  "breakthrough": 9331, 
  "ist@@": 9332, 
  "honor": 9333, 
  "ford": 9334, 
  "sl@@": 9335, 
  "ums": 9336, 
  "destroying": 9337, 
  "encryption": 9338, 
  "sentences": 9339, 
  "LE@@": 9340, 
  "Century": 9341, 
  "fruitful": 9342, 
  "2.1": 9343, 
  "attributed": 9344, 
  "ab": 9345, 
  "Aus@@": 9346, 
  "Leonardo": 9347, 
  "slot": 9348, 
  "EDF": 9349, 
  "Ven@@": 9350, 
  "refusing": 9351, 
  "ades": 9352, 
  "oper@@": 9353, 
  "nach": 9354, 
  "hin@@": 9355, 
  "privilege": 9356, 
  "Milosevic": 9357, 
  "Frank": 9358, 
  "forcing": 9359, 
  "relocation": 9360, 
  "conform": 9361, 
  "fragmentation": 9362, 
  "threatens": 9363, 
  "Cape": 9364, 
  "regeneration": 9365, 
  "mid@@": 9366, 
  "lie@@": 9367, 
  "concerted": 9368, 
  "versatile": 9369, 
  "exc@@": 9370, 
  "retro@@": 9371, 
  "violated": 9372, 
  "Belgrade": 9373, 
  "mobilise": 9374, 
  "05@@": 9375, 
  "lifted": 9376, 
  "eni@@": 9377, 
  "Bol@@": 9378, 
  "Chair": 9379, 
  "C5": 9380, 
  "DNA": 9381, 
  "prosecution": 9382, 
  "3.0": 9383, 
  "worthwhile": 9384, 
  "ken@@": 9385, 
  "Summer": 9386, 
  "pel@@": 9387, 
  "scan": 9388, 
  "spi@@": 9389, 
  "virtue": 9390, 
  "BUSINESS": 9391, 
  "Gothic": 9392, 
  "dru@@": 9393, 
  "traded": 9394, 
  "226": 9395, 
  "vor": 9396, 
  "unclear": 9397, 
  "ises": 9398, 
  "nit@@": 9399, 
  "Essen": 9400, 
  "buyers": 9401, 
  "Mar": 9402, 
  "dependency": 9403, 
  "Freedom": 9404, 
  "gran@@": 9405, 
  "instruction": 9406, 
  "sie": 9407, 
  "ineffective": 9408, 
  "reaffirmed": 9409, 
  "cartel": 9410, 
  "temple": 9411, 
  "18.@@": 9412, 
  "mented": 9413, 
  "cocktail": 9414, 
  "GUE": 9415, 
  "Multi@@": 9416, 
  "fur@@": 9417, 
  "Pet@@": 9418, 
  "incidentally": 9419, 
  "din": 9420, 
  "Competitiveness": 9421, 
  "dynamics": 9422, 
  "Mad@@": 9423, 
  "feasibility": 9424, 
  "ea": 9425, 
  "brochure": 9426, 
  "trillion": 9427, 
  "entrusted": 9428, 
  "Garda": 9429, 
  "ean": 9430, 
  "seating": 9431, 
  "9001": 9432, 
  "Marie": 9433, 
  "laundry": 9434, 
  "monitors": 9435, 
  "explaining": 9436, 
  "calculate": 9437, 
  "enchanting": 9438, 
  "Mercedes": 9439, 
  "constituency": 9440, 
  "benchmark": 9441, 
  "GSP": 9442, 
  "tired": 9443, 
  "Wikicars": 9444, 
  "var": 9445, 
  "Ferrero": 9446, 
  "aga": 9447, 
  "traces": 9448, 
  "mankind": 9449, 
  "zur": 9450, 
  "Marine": 9451, 
  "var@@": 9452, 
  "pity": 9453, 
  "yer": 9454, 
  "Now": 9455, 
  "liber@@": 9456, 
  "SCH@@": 9457, 
  "Bill": 9458, 
  "monastery": 9459, 
  "extract": 9460, 
  "realization": 9461, 
  "gourmet": 9462, 
  "Tr@@": 9463, 
  "West@@": 9464, 
  "shelter": 9465, 
  "API": 9466, 
  "disappointing": 9467, 
  "photographer": 9468, 
  "understands": 9469, 
  "defect": 9470, 
  "lush": 9471, 
  "foot@@": 9472, 
  "remark": 9473, 
  "inserted": 9474, 
  "slaughter": 9475, 
  "hitherto": 9476, 
  "priced": 9477, 
  "ward": 9478, 
  "delightful": 9479, 
  "catalog": 9480, 
  "sei@@": 9481, 
  "Les": 9482, 
  "secular": 9483, 
  "ash@@": 9484, 
  "Photocopying": 9485, 
  "expecting": 9486, 
  "det": 9487, 
  "revise": 9488, 
  "proceeding": 9489, 
  "Rock": 9490, 
  "2.4": 9491, 
  "prints": 9492, 
  "allowance": 9493, 
  "Local": 9494, 
  "esta": 9495, 
  "Euratom": 9496, 
  "exercising": 9497, 
  "hybrid": 9498, 
  "eren": 9499, 
  "Bio@@": 9500, 
  "hol@@": 9501, 
  "emphasized": 9502, 
  "lt": 9503, 
  "PROCESSED": 9504, 
  "peaks": 9505, 
  "Börse": 9506, 
  "salary": 9507, 
  "browse": 9508, 
  "reproductive": 9509, 
  "Spirit": 9510, 
  "1.4": 9511, 
  "7,@@": 9512, 
  "bans": 9513, 
  "Gor@@": 9514, 
  "gratitude": 9515, 
  "й": 9516, 
  "dor@@": 9517, 
  "whi@@": 9518, 
  "exert": 9519, 
  "kers": 9520, 
  "lec@@": 9521, 
  "FR@@": 9522, 
  "comitology": 9523, 
  "appearing": 9524, 
  "disciplines": 9525, 
  "pumps": 9526, 
  "Limited": 9527, 
  "appliances": 9528, 
  "ming": 9529, 
  "yard": 9530, 
  "bly": 9531, 
  "RA": 9532, 
  "complemented": 9533, 
  "volunteers": 9534, 
  "End": 9535, 
  "shi@@": 9536, 
  "operative": 9537, 
  "See": 9538, 
  "graphy": 9539, 
  "promenade": 9540, 
  "hub": 9541, 
  "proprietary": 9542, 
  "Ol@@": 9543, 
  "slave": 9544, 
  "pper": 9545, 
  "launches": 9546, 
  "outlines": 9547, 
  "banning": 9548, 
  "ados": 9549, 
  "caution": 9550, 
  "finger": 9551, 
  "fireplace": 9552, 
  "aren": 9553, 
  "professionalism": 9554, 
  "EB@@": 9555, 
  "associate": 9556, 
  "premature": 9557, 
  "rounds": 9558, 
  "alise": 9559, 
  "seal": 9560, 
  "observer": 9561, 
  "Sc@@": 9562, 
  "Dan@@": 9563, 
  "mol@@": 9564, 
  "Waldner": 9565, 
  "junior": 9566, 
  "Zi@@": 9567, 
  "scandal": 9568, 
  "bits": 9569, 
  "peninsula": 9570, 
  "confused": 9571, 
  "Byrne": 9572, 
  "QU@@": 9573, 
  "ja@@": 9574, 
  "deregulation": 9575, 
  "wen@@": 9576, 
  "FC": 9577, 
  "yacht": 9578, 
  "rooted": 9579, 
  "fli@@": 9580, 
  "eth@@": 9581, 
  "condemnation": 9582, 
  "ROM": 9583, 
  "bets": 9584, 
  "E.": 9585, 
  "mixing": 9586, 
  "eds": 9587, 
  "Mexican": 9588, 
  "Sant": 9589, 
  "harsh": 9590, 
  "Light": 9591, 
  "Juan": 9592, 
  "mainstream": 9593, 
  "kom@@": 9594, 
  "capitalist": 9595, 
  "Lam@@": 9596, 
  "sharply": 9597, 
  "cel@@": 9598, 
  "disappointment": 9599, 
  "entrepreneurial": 9600, 
  "qui": 9601, 
  "publicity": 9602, 
  "lesser": 9603, 
  "appalling": 9604, 
  "gifts": 9605, 
  "loop": 9606, 
  "19.@@": 9607, 
  "straightforward": 9608, 
  "Programmes": 9609, 
  "Package": 9610, 
  "Che@@": 9611, 
  "Sarkozy": 9612, 
  "val": 9613, 
  "Learning": 9614, 
  "benchmarks": 9615, 
  "án": 9616, 
  "Hill": 9617, 
  "Rom@@": 9618, 
  "provinces": 9619, 
  "colourful": 9620, 
  "juice": 9621, 
  "cave": 9622, 
  "approximation": 9623, 
  "break@@": 9624, 
  "piracy": 9625, 
  "Championship": 9626, 
  "Source": 9627, 
  "optimization": 9628, 
  "disarmament": 9629, 
  "dam@@": 9630, 
  "inspectors": 9631, 
  "sick": 9632, 
  "tering": 9633, 
  "Sciences": 9634, 
  "Hei@@": 9635, 
  "challenged": 9636, 
  "Kra@@": 9637, 
  "entirety": 9638, 
  "tures": 9639, 
  "rentals": 9640, 
  "les@@": 9641, 
  "Santiago": 9642, 
  "Ham@@": 9643, 
  "ø@@": 9644, 
  "Baden": 9645, 
  "prohibit": 9646, 
  "12th": 9647, 
  "Smith": 9648, 
  "proactive": 9649, 
  "Australian": 9650, 
  "Mayor": 9651, 
  "ao": 9652, 
  "Ges@@": 9653, 
  "airspace": 9654, 
  "restricting": 9655, 
  "Good": 9656, 
  "robots": 9657, 
  "definite": 9658, 
  "consultancy": 9659, 
  "PH@@": 9660, 
  "Kol@@": 9661, 
  "seize": 9662, 
  "Resources": 9663, 
  "GBP": 9664, 
  "alists": 9665, 
  "Days": 9666, 
  "continents": 9667, 
  "ras": 9668, 
  "creditors": 9669, 
  "recordings": 9670, 
  "employs": 9671, 
  "conversation": 9672, 
  "habitats": 9673, 
  "vague": 9674, 
  "blend": 9675, 
  "Instrument": 9676, 
  "contaminated": 9677, 
  "swim": 9678, 
  "Province": 9679, 
  "capitali@@": 9680, 
  "vari@@": 9681, 
  "Provence": 9682, 
  "domains": 9683, 
  "ku": 9684, 
  "Vit@@": 9685, 
  "From": 9686, 
  "interpret": 9687, 
  "coup": 9688, 
  "prevailing": 9689, 
  "PAR@@": 9690, 
  "opposing": 9691, 
  "1978": 9692, 
  "п@@": 9693, 
  "restraint": 9694, 
  "unification": 9695, 
  "Hal@@": 9696, 
  "acceding": 9697, 
  "irresponsible": 9698, 
  "alcoholic": 9699, 
  "On@@": 9700, 
  "enthusiastic": 9701, 
  "Fri@@": 9702, 
  "Wolfgang": 9703, 
  "hydraulic": 9704, 
  "Tan@@": 9705, 
  "nominal": 9706, 
  "equitable": 9707, 
  "Position": 9708, 
  "rebuild": 9709, 
  "Cleaning": 9710, 
  "betting": 9711, 
  "ura": 9712, 
  "Of": 9713, 
  "Part": 9714, 
  "An": 9715, 
  "readily": 9716, 
  "balances": 9717, 
  "Tibetan": 9718, 
  "weaken": 9719, 
  "deliberations": 9720, 
  "casting": 9721, 
  "Other": 9722, 
  "beginners": 9723, 
  "Frattini": 9724, 
  "pas": 9725, 
  "FREE": 9726, 
  "38@@": 9727, 
  "likes": 9728, 
  "english": 9729, 
  "GA": 9730, 
  "shots": 9731, 
  "attain": 9732, 
  "SL": 9733, 
  "intuitive": 9734, 
  "stepped": 9735, 
  "1975": 9736, 
  "Kat@@": 9737, 
  "poorly": 9738, 
  "BA": 9739, 
  "SMS": 9740, 
  "duplication": 9741, 
  "eller": 9742, 
  "gates": 9743, 
  "Basque": 9744, 
  "alignment": 9745, 
  "surpluses": 9746, 
  "magical": 9747, 
  "laptop": 9748, 
  "stipulated": 9749, 
  "thread": 9750, 
  "sanitation": 9751, 
  "drought": 9752, 
  "stell@@": 9753, 
  "exemplary": 9754, 
  "valleys": 9755, 
  "butter": 9756, 
  "Bolkestein": 9757, 
  "Bou@@": 9758, 
  "ALL": 9759, 
  "cleaner": 9760, 
  "Cardiff": 9761, 
  "scenic": 9762, 
  "ETS": 9763, 
  "forty": 9764, 
  "Israelis": 9765, 
  "Kazakhstan": 9766, 
  "sacrifice": 9767, 
  "Medi@@": 9768, 
  "exporters": 9769, 
  "reinforcement": 9770, 
  "cla@@": 9771, 
  "1.6": 9772, 
  "exhibitors": 9773, 
  "nel": 9774, 
  "circles": 9775, 
  "interfere": 9776, 
  "cozy": 9777, 
  "FOR@@": 9778, 
  "VII": 9779, 
  "yours": 9780, 
  "binary": 9781, 
  "bankruptcy": 9782, 
  "vin@@": 9783, 
  "But": 9784, 
  "influential": 9785, 
  "playground": 9786, 
  "reunification": 9787, 
  "profitability": 9788, 
  "overlap": 9789, 
  "pf@@": 9790, 
  "horny": 9791, 
  "mortgage": 9792, 
  "appoint": 9793, 
  "MA@@": 9794, 
  "gladly": 9795, 
  ".com.": 9796, 
  "TER@@": 9797, 
  "dress": 9798, 
  "refuge": 9799, 
  "antitrust": 9800, 
  "fan@@": 9801, 
  "fal@@": 9802, 
  "farmer": 9803, 
  "Conciliation": 9804, 
  "Kinnock": 9805, 
  "explanatory": 9806, 
  "Tal@@": 9807, 
  "Olympus": 9808, 
  "redundancies": 9809, 
  "Liikanen": 9810, 
  "remembered": 9811, 
  "dozens": 9812, 
  "Ibiza": 9813, 
  "precondition": 9814, 
  "predecessor": 9815, 
  "UL@@": 9816, 
  "demo": 9817, 
  "ner@@": 9818, 
  "Oslo": 9819, 
  "complies": 9820, 
  "s.com": 9821, 
  "recipients": 9822, 
  "ots": 9823, 
  "tile": 9824, 
  "dom@@": 9825, 
  "Sel@@": 9826, 
  "Functioning": 9827, 
  "8,@@": 9828, 
  "awaits": 9829, 
  "1967": 9830, 
  "tap": 9831, 
  "port@@": 9832, 
  "dirty": 9833, 
  "cloud": 9834, 
  "focal": 9835, 
  "wil@@": 9836, 
  "swe@@": 9837, 
  "redress": 9838, 
  "ong@@": 9839, 
  "Advocate": 9840, 
  "archaeological": 9841, 
  "Johannesburg": 9842, 
  "extraction": 9843, 
  "optimize": 9844, 
  "eur": 9845, 
  "cornerstone": 9846, 
  "pipe": 9847, 
  "17.@@": 9848, 
  "coloured": 9849, 
  "delight": 9850, 
  "cos": 9851, 
  "dental": 9852, 
  "4379": 9853, 
  "oven": 9854, 
  "Plan@@": 9855, 
  "Č@@": 9856, 
  "winds": 9857, 
  "govern": 9858, 
  "EM": 9859, 
  "ately": 9860, 
  "Sales": 9861, 
  "wholeheartedly": 9862, 
  "eck": 9863, 
  "CS@@": 9864, 
  "inability": 9865, 
  "copying": 9866, 
  "hard@@": 9867, 
  "Cambridge": 9868, 
  "aqu@@": 9869, 
  "intensified": 9870, 
  "friendship": 9871, 
  "Bus": 9872, 
  "quo": 9873, 
  "spirits": 9874, 
  "composer": 9875, 
  "maize": 9876, 
  "consolidating": 9877, 
  "Dem@@": 9878, 
  "flags": 9879, 
  "ures": 9880, 
  "ome": 9881, 
  "red@@": 9882, 
  "deepen": 9883, 
  "memorable": 9884, 
  "sponsored": 9885, 
  "2050": 9886, 
  "fathers": 9887, 
  "speedy": 9888, 
  "enthusiasts": 9889, 
  "reconcile": 9890, 
  "harvest": 9891, 
  "detrimental": 9892, 
  "fis@@": 9893, 
  "fashionable": 9894, 
  "Sports": 9895, 
  "Cy@@": 9896, 
  "letting": 9897, 
  "Ali@@": 9898, 
  "lucky": 9899, 
  "Panasonic": 9900, 
  "File": 9901, 
  "usable": 9902, 
  "eligibility": 9903, 
  "hyper@@": 9904, 
  "Word": 9905, 
  "Ren@@": 9906, 
  "somebody": 9907, 
  "tastes": 9908, 
  "Fischer": 9909, 
  "Uruguay": 9910, 
  "Mis@@": 9911, 
  "influenza": 9912, 
  "breath": 9913, 
  "snack": 9914, 
  "oning": 9915, 
  "café": 9916, 
  "sle@@": 9917, 
  "Harbour": 9918, 
  "transmit": 9919, 
  "Managing": 9920, 
  "sign@@": 9921, 
  "civilisation": 9922, 
  "consciousness": 9923, 
  "ECSC": 9924, 
  "Tax": 9925, 
  "excessively": 9926, 
  "literary": 9927, 
  "roaming": 9928, 
  "vaccines": 9929, 
  "onia": 9930, 
  "thresholds": 9931, 
  "Dun@@": 9932, 
  "advocated": 9933, 
  "pluralism": 9934, 
  "embrace": 9935, 
  "Ara@@": 9936, 
  "lan": 9937, 
  "touched": 9938, 
  "Philippines": 9939, 
  "bis@@": 9940, 
  "celebrations": 9941, 
  "particles": 9942, 
  "climb": 9943, 
  "consuming": 9944, 
  "columns": 9945, 
  "prof@@": 9946, 
  "GMO": 9947, 
  "Treasury": 9948, 
  "bomb": 9949, 
  "Pl@@": 9950, 
  "sat": 9951, 
  "NGO": 9952, 
  "fle@@": 9953, 
  "Tribunal": 9954, 
  "royal": 9955, 
  "grows": 9956, 
  "locals": 9957, 
  "expressions": 9958, 
  "anna": 9959, 
  "hed": 9960, 
  "Pas@@": 9961, 
  "Credit": 9962, 
  "anc@@": 9963, 
  "Buyer": 9964, 
  "RELATIONS": 9965, 
  "depression": 9966, 
  "hereby": 9967, 
  "destructive": 9968, 
  "м": 9969, 
  "weakened": 9970, 
  "Picard": 9971, 
  "oria": 9972, 
  "packing": 9973, 
  "patented": 9974, 
  "idyllic": 9975, 
  "Prix": 9976, 
  "Fe@@": 9977, 
  "tz": 9978, 
  "authorization": 9979, 
  "alleviate": 9980, 
  "combinations": 9981, 
  "tubes": 9982, 
  "â@@": 9983, 
  "cautious": 9984, 
  "seasons": 9985, 
  "informations": 9986, 
  "como": 9987, 
  "icons": 9988, 
  "traveling": 9989, 
  "facilitates": 9990, 
  "congestion": 9991, 
  "surprisingly": 9992, 
  "î@@": 9993, 
  "wheat": 9994, 
  "proceeds": 9995, 
  "loyalty": 9996, 
  "absent": 9997, 
  "consumed": 9998, 
  "Chicago": 9999, 
  "flu@@": 10000, 
  "Il@@": 10001, 
  "ling@@": 10002, 
  "interviews": 10003, 
  "aggregate": 10004, 
  "strain": 10005, 
  "dent": 10006, 
  "illicit": 10007, 
  "suicide": 10008, 
  "mal": 10009, 
  "suggesting": 10010, 
  "1976": 10011, 
  "pollutants": 10012, 
  "1982": 10013, 
  "hum@@": 10014, 
  "bills": 10015, 
  "Equality": 10016, 
  "Channel": 10017, 
  "travelers": 10018, 
  "Advisory": 10019, 
  "instructed": 10020, 
  "zum": 10021, 
  "extensions": 10022, 
  "discovering": 10023, 
  "8th": 10024, 
  "shifting": 10025, 
  "PP@@": 10026, 
  "Claude": 10027, 
  "Stu@@": 10028, 
  "uns": 10029, 
  "arisen": 10030, 
  "veto": 10031, 
  "Sen@@": 10032, 
  "Kan@@": 10033, 
  "designation": 10034, 
  "hip": 10035, 
  "dorf": 10036, 
  "Insurance": 10037, 
  "offshore": 10038, 
  "ín": 10039, 
  "Stra@@": 10040, 
  "nat@@": 10041, 
  "tastefully": 10042, 
  "illustrate": 10043, 
  "reminder": 10044, 
  "stopping": 10045, 
  "epidemic": 10046, 
  "dismantling": 10047, 
  "170": 10048, 
  "amounting": 10049, 
  "supposedly": 10050, 
  "regulator": 10051, 
  "pic@@": 10052, 
  "Chapter": 10053, 
  "149": 10054, 
  "ecommerce": 10055, 
  "Nuclear": 10056, 
  "Banquet": 10057, 
  "112": 10058, 
  "borrowing": 10059, 
  "eda": 10060, 
  "tal@@": 10061, 
  "biking": 10062, 
  "Cypriot": 10063, 
  "Gift": 10064, 
  "Joe": 10065, 
  "payable": 10066, 
  "dare": 10067, 
  "Opportunities": 10068, 
  "slowdown": 10069, 
  "offensive": 10070, 
  "pressed": 10071, 
  "thesis": 10072, 
  "elect": 10073, 
  "2,000": 10074, 
  "migrant": 10075, 
  "hatred": 10076, 
  "snow@@": 10077, 
  "Gate": 10078, 
  "bot@@": 10079, 
  "Laeken": 10080, 
  "elaborate": 10081, 
  "ero@@": 10082, 
  "petition": 10083, 
  "cluster": 10084, 
  "unsatisfactory": 10085, 
  "monument": 10086, 
  "Cannes": 10087, 
  "rejecting": 10088, 
  "anonymous": 10089, 
  "os@@": 10090, 
  "showers": 10091, 
  "progressively": 10092, 
  "3000": 10093, 
  "LAN": 10094, 
  "honey": 10095, 
  "creatures": 10096, 
  "infections": 10097, 
  "stro@@": 10098, 
  "facilitation": 10099, 
  "resumption": 10100, 
  "appealing": 10101, 
  "engineer": 10102, 
  "analysing": 10103, 
  "steering": 10104, 
  "console": 10105, 
  "pipes": 10106, 
  "authoritarian": 10107, 
  "predict": 10108, 
  "Tru@@": 10109, 
  "relatives": 10110, 
  "Franco": 10111, 
  "exhaust": 10112, 
  "volcanic": 10113, 
  "anticipate": 10114, 
  "simultaneous": 10115, 
  "lowering": 10116, 
  "backs": 10117, 
  "cellar": 10118, 
  "designate": 10119, 
  "11th": 10120, 
  "ain": 10121, 
  "Alpha": 10122, 
  "ör@@": 10123, 
  "constituted": 10124, 
  "materi@@": 10125, 
  "125": 10126, 
  "Ag@@": 10127, 
  "GE": 10128, 
  "cruise": 10129, 
  "retreat": 10130, 
  "Voyager": 10131, 
  "overcoming": 10132, 
  "shoot": 10133, 
  "cosmetics": 10134, 
  "deci@@": 10135, 
  "loose": 10136, 
  "Trading": 10137, 
  "mainstreaming": 10138, 
  "sup@@": 10139, 
  "enz@@": 10140, 
  "Hy@@": 10141, 
  "lessly": 10142, 
  "101": 10143, 
  "Cairo": 10144, 
  "slots": 10145, 
  "dian": 10146, 
  "minimise": 10147, 
  "Airconditioning": 10148, 
  "Movement": 10149, 
  "9th": 10150, 
  "tones": 10151, 
  "disadvantages": 10152, 
  "shoe": 10153, 
  "bus@@": 10154, 
  "ction": 10155, 
  "habits": 10156, 
  "duc@@": 10157, 
  "Computer": 10158, 
  "1960": 10159, 
  "Pla@@": 10160, 
  "fiction": 10161, 
  "Bavarian": 10162, 
  "LED": 10163, 
  "ün@@": 10164, 
  "geopolitical": 10165, 
  "emails": 10166, 
  "Phase": 10167, 
  "rä@@": 10168, 
  "tahun": 10169, 
  "pocket": 10170, 
  "ERS": 10171, 
  "downturn": 10172, 
  "terminate": 10173, 
  "Bat@@": 10174, 
  "decentralised": 10175, 
  "Version": 10176, 
  "Brok": 10177, 
  "Viviane": 10178, 
  "dd@@": 10179, 
  "amounted": 10180, 
  "stor@@": 10181, 
  "cio": 10182, 
  "Urban": 10183, 
  "lamps": 10184, 
  "activation": 10185, 
  "metre": 10186, 
  "Nu@@": 10187, 
  "enjoyment": 10188, 
  "0.1": 10189, 
  "Infrastructure": 10190, 
  "ESC": 10191, 
  "ut": 10192, 
  "county": 10193, 
  "refunds": 10194, 
  "Volkswagen": 10195, 
  "abortion": 10196, 
  "2.3": 10197, 
  "Equal": 10198, 
  "70@@": 10199, 
  "drama": 10200, 
  "accounted": 10201, 
  "EPP": 10202, 
  "disorders": 10203, 
  "Upper": 10204, 
  "administered": 10205, 
  "odds": 10206, 
  "Young": 10207, 
  "Read": 10208, 
  "smuggling": 10209, 
  "rough": 10210, 
  "Release": 10211, 
  "invented": 10212, 
  "far@@": 10213, 
  "net@@": 10214, 
  "replies": 10215, 
  "NI@@": 10216, 
  "Baroness": 10217, 
  "notwithstanding": 10218, 
  "cake": 10219, 
  "guardian": 10220, 
  "Ski": 10221, 
  "cab@@": 10222, 
  "zy@@": 10223, 
  "mentioning": 10224, 
  "owe": 10225, 
  "immune": 10226, 
  "journeys": 10227, 
  "Migration": 10228, 
  "Update": 10229, 
  "dle": 10230, 
  "gam@@": 10231, 
  "antibiotics": 10232, 
  "shocks": 10233, 
  "cont@@": 10234, 
  "seriousness": 10235, 
  "biomass": 10236, 
  "coun@@": 10237, 
  "Premier": 10238, 
  "migratory": 10239, 
  "venues": 10240, 
  "tournaments": 10241, 
  "Sec@@": 10242, 
  "ř@@": 10243, 
  "Adjustment": 10244, 
  "iting": 10245, 
  "attributes": 10246, 
  "eti@@": 10247, 
  "duly": 10248, 
  "empire": 10249, 
  "Pap@@": 10250, 
  "readmission": 10251, 
  "catastrophe": 10252, 
  "sulphur": 10253, 
  "struggling": 10254, 
  "abide": 10255, 
  "Weekly": 10256, 
  "finalised": 10257, 
  "champion": 10258, 
  "reciprocity": 10259, 
  "compliant": 10260, 
  "eing": 10261, 
  "wie": 10262, 
  "distort": 10263, 
  "Is@@": 10264, 
  "lebih": 10265, 
  "physics": 10266, 
  "sail": 10267, 
  "evolved": 10268, 
  "manufactures": 10269, 
  "seventh": 10270, 
  "shipped": 10271, 
  "brake": 10272, 
  "cloning": 10273, 
  "Juncker": 10274, 
  "singing": 10275, 
  "sentenced": 10276, 
  "Eurojust": 10277, 
  "contradictory": 10278, 
  "kingdom": 10279, 
  "Apache": 10280, 
  "FL@@": 10281, 
  "BY": 10282, 
  "1960s": 10283, 
  "Carlos": 10284, 
  "EST": 10285, 
  "tet": 10286, 
  "Buenos": 10287, 
  "thrust": 10288, 
  "noting": 10289, 
  "outlets": 10290, 
  "irregular": 10291, 
  "bass": 10292, 
  "simplicity": 10293, 
  "ue": 10294, 
  "vil@@": 10295, 
  "inde@@": 10296, 
  "blu@@": 10297, 
  "Gibraltar": 10298, 
  "Cl@@": 10299, 
  "presently": 10300, 
  "prostitution": 10301, 
  "reciprocal": 10302, 
  "Orchestra": 10303, 
  "spheres": 10304, 
  "ende": 10305, 
  "Ram@@": 10306, 
  "crowd": 10307, 
  "kel@@": 10308, 
  "comprise": 10309, 
  "Victoria": 10310, 
  "Lithuanian": 10311, 
  "radically": 10312, 
  "kitchenette": 10313, 
  "Advanced": 10314, 
  "aded": 10315, 
  "compounds": 10316, 
  "circum@@": 10317, 
  "publishers": 10318, 
  "supplemented": 10319, 
  "ho": 10320, 
  "Barack": 10321, 
  "enn@@": 10322, 
  "cafes": 10323, 
  "Chris": 10324, 
  "invention": 10325, 
  "Yemen": 10326, 
  "tness": 10327, 
  "massages": 10328, 
  "Sun@@": 10329, 
  "Vor@@": 10330, 
  "grapes": 10331, 
  "rolled": 10332, 
  "Ecofin": 10333, 
  "Aires": 10334, 
  "counted": 10335, 
  "mainland": 10336, 
  "1968": 10337, 
  "enhancement": 10338, 
  "edges": 10339, 
  "ceramic": 10340, 
  "County": 10341, 
[...]
