{
  "eos": 65609, 
  "UNK": 1, 
  ",": 2, 
  ".": 3, 
  "die": 4, 
  "der": 5, 
  "und": 6, 
  "in": 7, 
  "zu": 8, 
  "den": 9, 
  "von": 10, 
  "für": 11, 
  "das": 12, 
  "@-@": 13, 
  "ist": 14, 
  "mit": 15, 
  "auf": 16, 
  "des": 17, 
  "im": 18, 
  "eine": 19, 
  "es": 20, 
  "werden": 21, 
  "wir": 22, 
  "&quot;": 23, 
  "ein": 24, 
  "nicht": 25, 
  "dem": 26, 
  "dass": 27, 
  "Sie": 28, 
  "sich": 29, 
  "-": 30, 
  "ich": 31, 
  "auch": 32, 
  ")": 33, 
  "(": 34, 
  "wird": 35, 
  "sind": 36, 
  ":": 37, 
  "an": 38, 
  "als": 39, 
  "um": 40, 
  "über": 41, 
  "zur": 42, 
  "oder": 43, 
  "wie": 44, 
  "hat": 45, 
  "bei": 46, 
  "einer": 47, 
  "haben": 48, 
  "sie": 49, 
  "Kommission": 50, 
  "diese": 51, 
  "aus": 52, 
  "einen": 53, 
  "nach": 54, 
  "können": 55, 
  "durch": 56, 
  "zum": 57, 
  "wenn": 58, 
  "einem": 59, 
  "dieser": 60, 
  "/": 61, 
  "EU": 62, 
  "nur": 63, 
  "kann": 64, 
  "vor": 65, 
  "so": 66, 
  "er": 67, 
  "uns": 68, 
  "aber": 69, 
  "noch": 70, 
  "daß": 71, 
  "wurde": 72, 
  "Europäischen": 73, 
  "!": 74, 
  "am": 75, 
  "alle": 76, 
  "was": 77, 
  "müssen": 78, 
  "sein": 79, 
  "Union": 80, 
  "Herr": 81, 
  "sehr": 82, 
  "diesem": 83, 
  "?": 84, 
  "Mitgliedstaaten": 85, 
  "mehr": 86, 
  "ihre": 87, 
  "eines": 88, 
  "man": 89, 
  "unter": 90, 
  "bis": 91, 
  "dieses": 92, 
  "sowie": 93, 
  "dies": 94, 
  "vom": 95, 
  "zwischen": 96, 
  ";": 97, 
  "war": 98, 
  "hier": 99, 
  "Europäische": 100, 
  "Rat": 101, 
  "unsere": 102, 
  "möchte": 103, 
  "%": 104, 
  "damit": 105, 
  "gibt": 106, 
  "Präsident": 107, 
  "da": 108, 
  "keine": 109, 
  "muss": 110, 
  "Europa": 111, 
  "anderen": 112, 
  "Bericht": 113, 
  "Hotel": 114, 
  "&apos;": 115, 
  "wurden": 116, 
  "Parlament": 117, 
  "the": 118, 
  "gegen": 119, 
  "diesen": 120, 
  "Entwicklung": 121, 
  "heute": 122, 
  "dann": 123, 
  "Maßnahmen": 124, 
  "de": 125, 
  "neue": 126, 
  "Ihnen": 127, 
  "immer": 128, 
  "Jahr": 129, 
  "seine": 130, 
  "Unternehmen": 131, 
  "jedoch": 132, 
  "...": 133, 
  "a": 134, 
  "ihrer": 135, 
  "neuen": 136, 
  "bereits": 137, 
  "europäischen": 138, 
  "Zeit": 139, 
  "sollte": 140, 
  "Frau": 141, 
  "Menschen": 142, 
  "dazu": 143, 
  "unserer": 144, 
  "Informationen": 145, 
  "ohne": 146, 
  "denen": 147, 
  "zwei": 148, 
  "sondern": 149, 
  "Jahren": 150, 
  "sollten": 151, 
  "andere": 152, 
  "Rahmen": 153, 
  "habe": 154, 
  "insbesondere": 155, 
  "Bereich": 156, 
  "finden": 157, 
  "viele": 158, 
  "Zusammenarbeit": 159, 
  "allen": 160, 
  "seit": 161, 
  "and": 162, 
  "weitere": 163, 
  "Frage": 164, 
  "mich": 165, 
  "einige": 166, 
  "ganz": 167, 
  "doch": 168, 
  "während": 169, 
  "jetzt": 170, 
  "2": 171, 
  "darauf": 172, 
  "Ihre": 173, 
  "machen": 174, 
  "ihr": 175, 
  "daher": 176, 
  "denn": 177, 
  "ihren": 178, 
  "seiner": 179, 
  "dafür": 180, 
  "liegt": 181, 
  "Lage": 182, 
  "bietet": 183, 
  "soll": 184, 
  "weil": 185, 
  "dabei": 186, 
  "Welt": 187, 
  "geht": 188, 
  "Unterstützung": 189, 
  "Länder": 190, 
  "ob": 191, 
  "nun": 192, 
  "Jahre": 193, 
  "wieder": 194, 
  "selbst": 195, 
  "meine": 196, 
  "1": 197, 
  "ab": 198, 
  "Richtlinie": 199, 
  "darüber": 200, 
  "schon": 201, 
  "of": 202, 
  "lassen": 203, 
  "würde": 204, 
  "beim": 205, 
  "Arbeit": 206, 
  "Ziel": 207, 
  "allem": 208, 
  "Vorschlag": 209, 
  "Land": 210, 
  "Ländern": 211, 
  "s": 212, 
  "waren": 213, 
  "wollen": 214, 
  "en": 215, 
  "Herrn": 216, 
  "deshalb": 217, 
  "drei": 218, 
  "wo": 219, 
  "mir": 220, 
  "viel": 221, 
  "ersten": 222, 
  "3": 223, 
  "Fragen": 224, 
  "Teil": 225, 
  "erhalten": 226, 
  "möglich": 227, 
  "unseren": 228, 
  "bin": 229, 
  "unser": 230, 
  "Bürger": 231, 
  "stehen": 232, 
  "gut": 233, 
  "Sicherheit": 234, 
  "un@@": 235, 
  "to": 236, 
  "also": 237, 
  "welche": 238, 
  "Bedeutung": 239, 
  "geben": 240, 
  "ver@@": 241, 
  "besteht": 242, 
  "deren": 243, 
  "-@@": 244, 
  "etwas": 245, 
  "&#93;": 246, 
  "&#91;": 247, 
  "stellen": 248, 
  "steht": 249, 
  "er@@": 250, 
  "politischen": 251, 
  "Recht": 252, 
  "Fall": 253, 
  "weiter": 254, 
  "worden": 255, 
  "wichtig": 256, 
  "letzten": 257, 
  "sagen": 258, 
  "seinen": 259, 
  "an@@": 260, 
  "Parlaments": 261, 
  "Zimmer": 262, 
  "Regierung": 263, 
  "Daten": 264, 
  "sowohl": 265, 
  "Gemeinschaft": 266, 
  "innerhalb": 267, 
  "Staaten": 268, 
  "wäre": 269, 
  "sehen": 270, 
  "natürlich": 271, 
  "10": 272, 
  "Programm": 273, 
  "große": 274, 
  "außerdem": 275, 
  "könnte": 276, 
  "kommen": 277, 
  "tun": 278, 
  "Kommissar": 279, 
  "besonders": 280, 
  "Euro": 281, 
  "internationalen": 282, 
  "Verfügung": 283, 
  "davon": 284, 
  "Ende": 285, 
  "Art": 286, 
  "Politik": 287, 
  "Artikel": 288, 
  "Rates": 289, 
  "einfach": 290, 
  "Möglichkeit": 291, 
  "bitte": 292, 
  "Problem": 293, 
  "Rolle": 294, 
  "Namen": 295, 
  "aller": 296, 
  "einmal": 297, 
  "Hilfe": 298, 
  "unterstützen": 299, 
  "vielen": 300, 
  "großen": 301, 
  "Stadt": 302, 
  "zwar": 303, 
  "4": 304, 
  "Probleme": 305, 
  "hatte": 306, 
  "europäische": 307, 
  "Seite": 308, 
  "Zusammenhang": 309, 
  "kein": 310, 
  "gegenüber": 311, 
  "Weise": 312, 
  "meiner": 313, 
  "du": 314, 
  "muß": 315, 
  "Zukunft": 316, 
  "Thema": 317, 
  "System": 318, 
  "Mittel": 319, 
  "verschiedenen": 320, 
  "ab@@": 321, 
  "Umsetzung": 322, 
  "bieten": 323, 
  "erreichen": 324, 
  "i": 325, 
  "5": 326, 
  "alles": 327, 
  "sollen": 328, 
  "USA": 329, 
  "stellt": 330, 
  "ihnen": 331, 
  "Kollegen": 332, 
  "Ebene": 333, 
  "nationalen": 334, 
  "Schutz": 335, 
  "e": 336, 
  "führen": 337, 
  "Wirtschaft": 338, 
  "dort": 339, 
  "beiden": 340, 
  "weiterhin": 341, 
  "eigenen": 342, 
  "Region": 343, 
  "te": 344, 
  "erste": 345, 
  "allerdings": 346, 
  "Weg": 347, 
  "Frauen": 348, 
  "öffentlichen": 349, 
  "ge@@": 350, 
  "jeder": 351, 
  "&amp;": 352, 
  "Kunden": 353, 
  "ja": 354, 
  "politische": 355, 
  "E": 356, 
  "aufgrund": 357, 
  "wissen": 358, 
  "en@@": 359, 
  "ten": 360, 
  "Beispiel": 361, 
  "Deutschland": 362, 
  "Fraktion": 363, 
  "kommt": 364, 
  "Millionen": 365, 
  "+": 366, 
  "befindet": 367, 
  "bringen": 368, 
  "etwa": 369, 
  "Seiten": 370, 
  "Verfahren": 371, 
  "Strategie": 372, 
  "nehmen": 373, 
  "Förderung": 374, 
  "wirklich": 375, 
  "Ver@@": 376, 
  "hinaus": 377, 
  "2009": 378, 
  "weniger": 379, 
  "möchten": 380, 
  "unterstützt": 381, 
  "indem": 382, 
  "direkt": 383, 
  "Ihrer": 384, 
  "Ziele": 385, 
  "Zugang": 386, 
  "Grundlage": 387, 
  "­": 388, 
  "Lösung": 389, 
  "ein@@": 390, 
  "la": 391, 
  "Tag": 392, 
  "gilt": 393, 
  "entfernt": 394, 
  "is": 395, 
  "Europas": 396, 
  "darin": 397, 
  "Internet": 398, 
  "on": 399, 
  "all": 400, 
  "ebenfalls": 401, 
  "daran": 402, 
  "Produkte": 403, 
  "Website": 404, 
  "Situation": 405, 
  "Markt": 406, 
  "20": 407, 
  "aus@@": 408, 
  "pro": 409, 
  "bzw.": 410, 
  "Anwendung": 411, 
  "K@@": 412, 
  "zusammen": 413, 
  "gehen": 414, 
  "gemeinsamen": 415, 
  "m": 416, 
  "Personen": 417, 
  "Ihren": 418, 
  "gemacht": 419, 
  "Meinung": 420, 
  "gleichzeitig": 421, 
  "Regionen": 422, 
  "wirtschaftlichen": 423, 
  "be@@": 424, 
  "schaffen": 425, 
  "Bezug": 426, 
  "dessen": 427, 
  "Bereichen": 428, 
  "Auswirkungen": 429, 
  "k@@": 430, 
  "�": 431, 
  "Verordnung": 432, 
  "Vertrag": 433, 
  "sogar": 434, 
  "Leben": 435, 
  "solche": 436, 
  "Abkommen": 437, 
  "ins": 438, 
  "Ihr": 439, 
  "Kosten": 440, 
  "o": 441, 
  "ihrem": 442, 
  "Uhr": 443, 
  "2010": 444, 
  "betrifft": 445, 
  "will": 446, 
  "Rechte": 447, 
  "Behörden": 448, 
  "meisten": 449, 
  "Form": 450, 
  "einigen": 451, 
  "wichtige": 452, 
  "Minister": 453, 
  "unserem": 454, 
  "Qualität": 455, 
  "Verbesserung": 456, 
  "gerade": 457, 
  "2000": 458, 
  "S@@": 459, 
  "nächsten": 460, 
  "gemeinsame": 461, 
  "nämlich": 462, 
  "handelt": 463, 
  "Grund": 464, 
  "Kinder": 465, 
  "genau": 466, 
  "wegen": 467, 
  "Verhandlungen": 468, 
  "s@@": 469, 
  "sozialen": 470, 
  "Vorschläge": 471, 
  "gute": 472, 
  "2008": 473, 
  "2007": 474, 
  "t": 475, 
  "würden": 476, 
  "Entscheidung": 477, 
  "Reihe": 478, 
  "Präsidentin": 479, 
  "sei": 480, 
  "darf": 481, 
  "seinem": 482, 
  "dürfen": 483, 
  "besser": 484, 
  "nutzen": 485, 
  "ihm": 486, 
  "d": 487, 
  "30": 488, 
  "Hinblick": 489, 
  "15": 490, 
  "Bedingungen": 491, 
  "neben": 492, 
  "beispielsweise": 493, 
  "Vorschriften": 494, 
  "auf@@": 495, 
  "P@@": 496, 
  "A@@": 497, 
  "Aussprache": 498, 
  "Dienstleistungen": 499, 
  "gesagt": 500, 
  "Interesse": 501, 
  "Beziehungen": 502, 
  "erst": 503, 
  "ebenso": 504, 
  "t@@": 505, 
  "erforderlich": 506, 
  "könnten": 507, 
  "deutlich": 508, 
  "Gebiet": 509, 
  "macht": 510, 
  "B@@": 511, 
  "sicher": 512, 
  "arbeiten": 513, 
  "T@@": 514, 
  "Ab@@": 515, 
  "keinen": 516, 
  "ihn": 517, 
  "derzeit": 518, 
  "Haus": 519, 
  "hin": 520, 
  "vielleicht": 521, 
  "Gesellschaft": 522, 
  "Ansicht": 523, 
  "jeden": 524, 
  "Gruppe": 525, 
  "I": 526, 
  "brauchen": 527, 
  "bedeutet": 528, 
  "Ort": 529, 
  "erreicht": 530, 
  "statt": 531, 
  "Fortschritte": 532, 
  "*": 533, 
  "l": 534, 
  "6": 535, 
  "Hotels": 536, 
  "Menschenrechte": 537, 
  "halten": 538, 
  "in@@": 539, 
  "je": 540, 
  "nichts": 541, 
  "as": 542, 
  "Punkt": 543, 
  "vier": 544, 
  "obwohl": 545, 
  "weit": 546, 
  "über@@": 547, 
  "China": 548, 
  "z@@": 549, 
  "Abstimmung": 550, 
  "Möglichkeiten": 551, 
  "zunächst": 552, 
  "Beitrag": 553, 
  "insgesamt": 554, 
  "G@@": 555, 
  "internationale": 556, 
  "besten": 557, 
  "D@@": 558, 
  "klar": 559, 
  "gesamten": 560, 
  "Forschung": 561, 
  "L@@": 562, 
  "gemeinsam": 563, 
  "_": 564, 
  "Umwelt": 565, 
  "einzelnen": 566, 
  "Die": 567, 
  "Vereinigten": 568, 
  "for": 569, 
  "angesichts": 570, 
  "Frankreich": 571, 
  "An@@": 572, 
  "findet": 573, 
  "schließlich": 574, 
  "Software": 575, 
  "notwendig": 576, 
  "glaube": 577, 
  "Demokratie": 578, 
  "Institutionen": 579, 
  "Ergebnisse": 580, 
  "2006": 581, 
  "Mitglieder": 582, 
  "weltweit": 583, 
  "50": 584, 
  "Verantwortung": 585, 
  "schnell": 586, 
  "verwendet": 587, 
  "Schaffung": 588, 
  "jedes": 589, 
  "ent@@": 590, 
  "werde": 591, 
  "Investitionen": 592, 
  "Verbraucher": 593, 
  "darum": 594, 
  "Richtung": 595, 
  "bleiben": 596, 
  "N@@": 597, 
  "gehört": 598, 
  "Bekämpfung": 599, 
  "jede": 600, 
  "dar": 601, 
  "ermöglicht": 602, 
  "Republik": 603, 
  "hinsichtlich": 604, 
  "zudem": 605, 
  "verbessern": 606, 
  "Landwirtschaft": 607, 
  "verschiedene": 608, 
  "Dank": 609, 
  "führt": 610, 
  "Wachstum": 611, 
  "dadurch": 612, 
  "fördern": 613, 
  "weiteren": 614, 
  "Schritt": 615, 
  "fast": 616, 
  "bereit": 617, 
  "angenommen": 618, 
  "g@@": 619, 
  "gemäß": 620, 
  "re@@": 621, 
  "12": 622, 
  "d@@": 623, 
  "Ergebnis": 624, 
  "zu@@": 625, 
  "bekannt": 626, 
  "wirtschaftliche": 627, 
  "Bevölkerung": 628, 
  "wichtigsten": 629, 
  "Service": 630, 
  "H@@": 631, 
  "per": 632, 
  "7": 633, 
  "rund": 634, 
  "E@@": 635, 
  "Angelegenheiten": 636, 
  "M@@": 637, 
  "ter": 638, 
  "&#124;": 639, 
  "Kontrolle": 640, 
  "F@@": 641, 
  "ferner": 642, 
  "Debatte": 643, 
  "Jahres": 644, 
  "Wettbewerb": 645, 
  "fest": 646, 
  "n@@": 647, 
  "zeigt": 648, 
  "8": 649, 
  "Rechtsvorschriften": 650, 
  "kleinen": 651, 
  "Beschäftigung": 652, 
  "Bestimmungen": 653, 
  "setzen": 654, 
  "at": 655, 
  "Liste": 656, 
  "einschließlich": 657, 
  "tatsächlich": 658, 
  "Gesundheit": 659, 
  "Erweiterung": 660, 
  "Ein@@": 661, 
  "um@@": 662, 
  "US": 663, 
  "oft": 664, 
  "Nähe": 665, 
  "al@@": 666, 
  "hoffe": 667, 
  "Ausschuss": 668, 
  "mehrere": 669, 
  "Türkei": 670, 
  "wobei": 671, 
  "Krise": 672, 
  "hatten": 673, 
  "wichtigen": 674, 
  "entwickelt": 675, 
  "Nutzung": 676, 
  "lange": 677, 
  "Projekt": 678, 
  "Initiative": 679, 
  "Handel": 680, 
  "C@@": 681, 
  "somit": 682, 
  "Herren": 683, 
  "verfügt": 684, 
  "sprechen": 685, 
  "helfen": 686, 
  "Projekte": 687, 
  "Preis": 688, 
  "100": 689, 
  "sch@@": 690, 
  "R@@": 691, 
  "2005": 692, 
  "f@@": 693, 
  "Geschichte": 694, 
  "gestellt": 695, 
  "et": 696, 
  "ermöglichen": 697, 
  "Programme": 698, 
  "spielen": 699, 
  "gewährleisten": 700, 
  "neu": 701, 
  "enthält": 702, 
  "EG": 703, 
  "km": 704, 
  "soziale": 705, 
  "Industrie": 706, 
  "öffentliche": 707, 
  "Erklärung": 708, 
  "wenig": 709, 
  "tragen": 710, 
  "Verwendung": 711, 
  "e@@": 712, 
  "2004": 713, 
  "liegen": 714, 
  "Aufgabe": 715, 
  "le": 716, 
  "hätte": 717, 
  "warum": 718, 
  "it": 719, 
  "Mitglied": 720, 
  "O@@": 721, 
  "konnte": 722, 
  "€": 723, 
  "Ihrem": 724, 
  "Integration": 725, 
  "Erfolg": 726, 
  "Einsatz": 727, 
  "Einführung": 728, 
  "Antwort": 729, 
  "enden": 730, 
  "Tatsache": 731, 
  "jedem": 732, 
  "fünf": 733, 
  "o@@": 734, 
  "Ausdruck": 735, 
  "leider": 736, 
  "Italien": 737, 
  "siehe": 738, 
  "000": 739, 
  "ungs@@": 740, 
  "Damen": 741, 
  "gen": 742, 
  "W@@": 743, 
  "Mitteilung": 744, 
  "Juni": 745, 
  "2003": 746, 
  "bleibt": 747, 
  "m@@": 748, 
  "bestimmte": 749, 
  "EUR": 750, 
  "V@@": 751, 
  "sten": 752, 
  "bisher": 753, 
  "kleine": 754, 
  "Z@@": 755, 
  "Berichterstatter": 756, 
  "vor@@": 757, 
  "beitragen": 758, 
  "Bildung": 759, 
  "n": 760, 
  "i@@": 761, 
  "y": 762, 
  "Version": 763, 
  "Regierungen": 764, 
  "Zahl": 765, 
  "Landes": 766, 
  "Aus@@": 767, 
  "Spanien": 768, 
  "Mail": 769, 
  "st@@": 770, 
  "25": 771, 
  "sorgen": 772, 
  "enthalten": 773, 
  "Dialog": 774, 
  "Minuten": 775, 
  "Verbindung": 776, 
  "Auffassung": 777, 
  "z.B.": 778, 
  "befinden": 779, 
  "gab": 780, 
  "Russland": 781, 
  "2002": 782, 
  "falls": 783, 
  "el": 784, 
  "bestimmten": 785, 
  "Blick": 786, 
  "Zentrum": 787, 
  "Dezember": 788, 
  "2001": 789, 
  "voll": 790, 
  "wer": 791, 
  "ende": 792, 
  "Hintergrund": 793, 
  "Vor@@": 794, 
  "ch@@": 795, 
  "gehören": 796, 
  "Lösungen": 797, 
  "Themen": 798, 
  "ung": 799, 
  "Bemühungen": 800, 
  "verbunden": 801, 
  "Energie": 802, 
  "Mal": 803, 
  "danken": 804, 
  "zeigen": 805, 
  "Mitgliedstaat": 806, 
  "Lissabon": 807, 
  "Änderungen": 808, 
  "Notwendigkeit": 809, 
  "Geld": 810, 
  ".@@": 811, 
  "trotz": 812, 
  "Gelegenheit": 813, 
  "denke": 814, 
  "neuer": 815, 
  "Gerichtshof": 816, 
  "Ausschusses": 817, 
  "bestehen": 818, 
  "Restaurant": 819, 
  "k": 820, 
  "Kommissarin": 821, 
  "ern": 822, 
  "gegeben": 823, 
  "europäischer": 824, 
  "Öffentlichkeit": 825, 
  "mein": 826, 
  "Partner": 827, 
  "zurück": 828, 
  "Zeitpunkt": 829, 
  "a@@": 830, 
  "heißt": 831, 
  "b@@": 832, 
  "Kolleginnen": 833, 
  "Interessen": 834, 
  "unseres": 835, 
  "l@@": 836, 
  "geführt": 837, 
  "leisten": 838, 
  "lässt": 839, 
  "Durchführung": 840, 
  "bekommen": 841, 
  "gerne": 842, 
  "Kultur": 843, 
  "erster": 844, 
  "sieht": 845, 
  "nachdem": 846, 
  "Änderungsanträge": 847, 
  "32": 848, 
  "Höhe": 849, 
  "Finanzierung": 850, 
  "C": 851, 
  "gleichen": 852, 
  "meinen": 853, 
  "Platz": 854, 
  "Gründen": 855, 
  "Entschließung": 856, 
  "weiß": 857, 
  "Regeln": 858, 
  "Änderungsantrag": 859, 
  "Abgeordneten": 860, 
  "Mai": 861, 
  "zweiten": 862, 
  "beide": 863, 
  "r": 864, 
  "verfügen": 865, 
  "Verpflichtungen": 866, 
  "Kontakt": 867, 
  "hohen": 868, 
  "11": 869, 
  "durchgeführt": 870, 
  "zahlreiche": 871, 
  "recht": 872, 
  "Reform": 873, 
  "Binnenmarkt": 874, 
  "Konferenz": 875, 
  "ungen": 876, 
  "gebracht": 877, 
  "später": 878, 
  "u@@": 879, 
  "anderer": 880, 
  "großer": 881, 
  "wohl": 882, 
  "ganzen": 883, 
  "Anfang": 884, 
  "Prozess": 885, 
  "Bereiche": 886, 
  "verwenden": 887, 
  "Entscheidungen": 888, 
  "bevor": 889, 
  "Beihilfen": 890, 
  "Monaten": 891, 
  "Wert": 892, 
  "März": 893, 
  "zweite": 894, 
  "Woche": 895, 
  "Anforderungen": 896, 
  "Preise": 897, 
  "lediglich": 898, 
  "richtig": 899, 
  "entwickeln": 900, 
  "y@@": 901, 
  "meines": 902, 
  "Mio.": 903, 
  "Angebot": 904, 
  "sagte": 905, 
  "folgenden": 906, 
  "z": 907, 
  "Haupt@@": 908, 
  "Text": 909, 
  "tes": 910, 
  "be": 911, 
  "September": 912, 
  "dennoch": 913, 
  "gestimmt": 914, 
  "unternehmen": 915, 
  "Vertreter": 916, 
  "bereich": 917, 
  "eren": 918, 
  "Wettbewerbsfähigkeit": 919, 
  "gelten": 920, 
  "9": 921, 
  "eigene": 922, 
  "ganze": 923, 
  "A": 924, 
  "system": 925, 
  "g": 926, 
  "Aktivitäten": 927, 
  "Anzahl": 928, 
  "hohe": 929, 
  "genießen": 930, 
  "ischen": 931, 
  "Herausforderungen": 932, 
  "gesamte": 933, 
  "24": 934, 
  "Raum": 935, 
  "vergangenen": 936, 
  "se": 937, 
  "40": 938, 
  "el@@": 939, 
  "Nationen": 940, 
  "ihres": 941, 
  "ziehen": 942, 
  "B": 943, 
  "leben": 944, 
  "Transparenz": 945, 
  "wichtiger": 946, 
  "Stunden": 947, 
  "nimmt": 948, 
  "treffen": 949, 
  "stark": 950, 
  "guten": 951, 
  "ar@@": 952, 
  "völlig": 953, 
  "de@@": 954, 
  "Online": 955, 
  "Kenntnis": 956, 
  "Oktober": 957, 
  "Mehrheit": 958, 
  "Produktion": 959, 
  "erneut": 960, 
  "li@@": 961, 
  "ge": 962, 
  "u": 963, 
  "Mitarbeiter": 964, 
  "p@@": 965, 
  "Standpunkt": 966, 
  "J@@": 967, 
  "Tage": 968, 
  "Auswahl": 969, 
  "Stellungnahme": 970, 
  "Parteien": 971, 
  "I@@": 972, 
  "vertreten": 973, 
  "Änderung": 974, 
  "Finanz@@": 975, 
  "solchen": 976, 
  "bessere": 977, 
  "eingesetzt": 978, 
  "Griechenland": 979, 
  "Erfahrung": 980, 
  "Folgen": 981, 
  "v@@": 982, 
  "Fällen": 983, 
  "Organisationen": 984, 
  "Wort": 985, 
  "Regelung": 986, 
  "Bild": 987, 
  "größten": 988, 
  "f": 989, 
  "besondere": 990, 
  "äußerst": 991, 
  "Person": 992, 
  "Kampf": 993, 
  "Kraft": 994, 
  "Be@@": 995, 
  "allein": 996, 
  "Januar": 997, 
  "Familie": 998, 
  "Wahl": 999, 
  "r@@": 1000, 
  "00": 1001, 
  "kurz": 1002, 
  "Wasser": 1003, 
  "entsprechenden": 1004, 
  "Präsidenten": 1005, 
  "anderem": 1006, 
  "h@@": 1007, 
  "Grenzen": 1008, 
  "with": 1009, 
  "Ansatz": 1010, 
  "Anstrengungen": 1011, 
  "Sch@@": 1012, 
  "Juli": 1013, 
  "ändern": 1014, 
  "Sprache": 1015, 
  "erzielt": 1016, 
  "Zeitraum": 1017, 
  "Hand": 1018, 
  "genommen": 1019, 
  "ti@@": 1020, 
  "weder": 1021, 
  "Re@@": 1022, 
  "wählen": 1023, 
  "verstehen": 1024, 
  "Stelle": 1025, 
  "1999": 1026, 
  "Ressourcen": 1027, 
  "Annahme": 1028, 
  "prüfen": 1029, 
  "Gefahr": 1030, 
  "entsprechend": 1031, 
  "Brüssel": 1032, 
  "festgelegt": 1033, 
  "Gewalt": 1034, 
  "verpflichtet": 1035, 
  "alten": 1036, 
  "or@@": 1037, 
  "nie": 1038, 
  "Verwaltung": 1039, 
  "genannten": 1040, 
  "di@@": 1041, 
  "beschlossen": 1042, 
  "aufgenommen": 1043, 
  "bezüglich": 1044, 
  "c@@": 1045, 
  "ers": 1046, 
  "Un@@": 1047, 
  "Arbeits@@": 1048, 
  "Schritte": 1049, 
  "folgende": 1050, 
  "meinem": 1051, 
  "nationale": 1052, 
  "bar": 1053, 
  "al": 1054, 
  "geschaffen": 1055, 
  "November": 1056, 
  "klicken": 1057, 
  "Programms": 1058, 
  "allgemeinen": 1059, 
  "berücksichtigt": 1060, 
  "bringt": 1061, 
  "Punkte": 1062, 
  "los": 1063, 
  "es@@": 1064, 
  "or": 1065, 
  "sechs": 1066, 
  "leicht": 1067, 
  "technischen": 1068, 
  "Funktion": 1069, 
  "suchen": 1070, 
  "konnten": 1071, 
  "18": 1072, 
  "versuchen": 1073, 
  "at@@": 1074, 
  "Aspekte": 1075, 
  "Arbeitnehmer": 1076, 
  "Reformen": 1077, 
  "einzige": 1078, 
  "freien": 1079, 
  "scheint": 1080, 
  "diejenigen": 1081, 
  "hotel": 1082, 
  "vorgelegt": 1083, 
  "Medien": 1084, 
  "14": 1085, 
  "Umgebung": 1086, 
  "Aufmerksamkeit": 1087, 
  "Herzen": 1088, 
  "j@@": 1089, 
  "Meer": 1090, 
  "Behandlung": 1091, 
  "Sinne": 1092, 
  "Natur": 1093, 
  "Einrichtung": 1094, 
  "schriftlich": 1095, 
  "liche": 1096, 
  "technische": 1097, 
  "bestehenden": 1098, 
  "In@@": 1099, 
  "zehn": 1100, 
  "del": 1101, 
  "13": 1102, 
  "jeweiligen": 1103, 
  "ger": 1104, 
  "Königreich": 1105, 
  "1.": 1106, 
  "Bürgern": 1107, 
  "Freiheit": 1108, 
  "vorgeschlagen": 1109, 
  "wann": 1110, 
  "Linie": 1111, 
  "außerhalb": 1112, 
  "Schlussfolgerungen": 1113, 
  "zweitens": 1114, 
  "vorgesehen": 1115, 
  "5@@": 1116, 
  "Organisation": 1117, 
  "Berichts": 1118, 
  "frei": 1119, 
  "di": 1120, 
  "ausgestattet": 1121, 
  "Vertrags": 1122, 
  "Erfahrungen": 1123, 
  "Information": 1124, 
  "größte": 1125, 
  "selbstverständlich": 1126, 
  "regionalen": 1127, 
  "deutschen": 1128, 
  "gleich": 1129, 
  "ische": 1130, 
  "politik": 1131, 
  "fragen": 1132, 
  "Unter@@": 1133, 
  "®": 1134, 
  "Dinge": 1135, 
  "ste": 1136, 
  "Arbeitsplätze": 1137, 
  "Verkehr": 1138, 
  "un": 1139, 
  "aktuellen": 1140, 
  "erfüllen": 1141, 
  "verhindern": 1142, 
  "Kriterien": 1143, 
  "privaten": 1144, 
  "Gäste": 1145, 
  "gar": 1146, 
  "Position": 1147, 
  "April": 1148, 
  "Vereinbarung": 1149, 
  "Er@@": 1150, 
  "Diskussion": 1151, 
  "kam": 1152, 
  "st": 1153, 
  "Insel": 1154, 
  "erklärte": 1155, 
  "folgt": 1156, 
  "erfolgt": 1157, 
  "Polen": 1158, 
  "zusätzliche": 1159, 
  "wenige": 1160, 
  "EN": 1161, 
  "geschlossen": 1162, 
  "Österreich": 1163, 
  "eigentlich": 1164, 
  "Spiel": 1165, 
  "lichen": 1166, 
  "Erachtens": 1167, 
  "on@@": 1168, 
  "Initiativen": 1169, 
  "behandelt": 1170, 
  "neues": 1171, 
  "16": 1172, 
  "6@@": 1173, 
  "are": 1174, 
  "T": 1175, 
  "häufig": 1176, 
  "Stärkung": 1177, 
  "heutigen": 1178, 
  "U@@": 1179, 
  "erwarten": 1180, 
  "mindestens": 1181, 
  "erklärt": 1182, 
  "us": 1183, 
  "umgesetzt": 1184, 
  "chen": 1185, 
  "Gemeinsamen": 1186, 
  "b": 1187, 
  "fahren": 1188, 
  "Jahrhundert": 1189, 
  "nahm": 1190, 
  "benötigen": 1191, 
  "setzt": 1192, 
  "ca.": 1193, 
  "Prüfung": 1194, 
  "Technologie": 1195, 
  "sicherzustellen": 1196, 
  "Vertrauen": 1197, 
  "Stabilität": 1198, 
  "que": 1199, 
  "Sache": 1200, 
  "Gruppen": 1201, 
  "hätten": 1202, 
  "hoch": 1203, 
  "by": 1204, 
  "eher": 1205, 
  "Wirtschafts@@": 1206, 
  "AG": 1207, 
  "Schwierigkeiten": 1208, 
  "la@@": 1209, 
  "Auf@@": 1210, 
  "ra@@": 1211, 
  "ale": 1212, 
  "Einrichtungen": 1213, 
  "Einigung": 1214, 
  "Bürgerinnen": 1215, 
  "unter@@": 1216, 
  "verbessert": 1217, 
  "Basis": 1218, 
  "Systems": 1219, 
  "Sektor": 1220, 
  "Prioritäten": 1221, 
  "vollständig": 1222, 
  "Partnerschaft": 1223, 
  "Aufgaben": 1224, 
  "Sicherheits@@": 1225, 
  "stärker": 1226, 
  "Anerkennung": 1227, 
  "geworden": 1228, 
  "ter@@": 1229, 
  "si@@": 1230, 
  "Vorteile": 1231, 
  "S": 1232, 
  "Arbeiten": 1233, 
  "Bewertung": 1234, 
  "ens": 1235, 
  "Irland": 1236, 
  "hinter": 1237, 
  "getan": 1238, 
  "Beginn": 1239, 
  "lich": 1240, 
  "erwartet": 1241, 
  "Innovation": 1242, 
  "Macht": 1243, 
  "Einklang": 1244, 
  "BIP": 1245, 
  "nahe": 1246, 
  "schützen": 1247, 
  "Bar": 1248, 
  "EIB": 1249, 
  "Milliarden": 1250, 
  "finanziellen": 1251, 
  "erstens": 1252, 
  "Technologien": 1253, 
  "GmbH": 1254, 
  "Fonds": 1255, 
  "Nr.": 1256, 
  "Küche": 1257, 
  "x": 1258, 
  "halte": 1259, 
  "Team": 1260, 
  "größere": 1261, 
  "TV": 1262, 
  "gefunden": 1263, 
  "Strand": 1264, 
  "Praxis": 1265, 
  "Gästebewertungen": 1266, 
  "Rechnung": 1267, 
  "Wasser@@": 1268, 
  "fordert": 1269, 
  "seines": 1270, 
  "bald": 1271, 
  "8@@": 1272, 
  "Fehler": 1273, 
  "sobald": 1274, 
  "ro@@": 1275, 
  "entspricht": 1276, 
  "kommenden": 1277, 
  "gern": 1278, 
  "Armut": 1279, 
  "nachhaltige": 1280, 
  "sofort": 1281, 
  "Leitlinien": 1282, 
  "Druck": 1283, 
  "Design": 1284, 
  "Flughafen": 1285, 
  "Inhalt": 1286, 
  "Systeme": 1287, 
  "veröffentlicht": 1288, 
  "DER": 1289, 
  "Server": 1290, 
  "Haushalt": 1291, 
  "morgen": 1292, 
  "entscheiden": 1293, 
  "60": 1294, 
  "very": 1295, 
  "Frieden": 1296, 
  "Gebieten": 1297, 
  "erfolgreich": 1298, 
  "Berlin": 1299, 
  "4@@": 1300, 
  "Musik": 1301, 
  "programm": 1302, 
  "Staat": 1303, 
  "Folge": 1304, 
  "WTO": 1305, 
  "KMU": 1306, 
  "Präsidentschaft": 1307, 
  "Anfrage": 1308, 
  "Vereinten": 1309, 
  "Tagen": 1310, 
  "Instrument": 1311, 
  "zusätzlich": 1312, 
  "Benutzer": 1313, 
  "ere": 1314, 
  "os": 1315, 
  "Wochen": 1316, 
  "Empfehlungen": 1317, 
  "entsprechende": 1318, 
  "Beitritt": 1319, 
  "Firma": 1320, 
  "begrüße": 1321, 
  "globalen": 1322, 
  "verantwortlich": 1323, 
  "vergessen": 1324, 
  "le@@": 1325, 
  "fordern": 1326, 
  "Sicht": 1327, 
  "ert": 1328, 
  "tätig": 1329, 
  "Werte": 1330, 
  "Instrumente": 1331, 
  "Monate": 1332, 
  "Wahlen": 1333, 
  "Über@@": 1334, 
  "betreffenden": 1335, 
  "Adresse": 1336, 
  "this": 1337, 
  "gewährleistet": 1338, 
  "bilden": 1339, 
  "übernehmen": 1340, 
  "Solidarität": 1341, 
  "finanzielle": 1342, 
  "möglicherweise": 1343, 
  "Hinsicht": 1344, 
  "Konzept": 1345, 
  "kannst": 1346, 
  "Ausgaben": 1347, 
  "letzte": 1348, 
  "Vergangenheit": 1349, 
  "zumindest": 1350, 
  "welches": 1351, 
  "Um@@": 1352, 
  "ts": 1353, 
  "zahlreichen": 1354, 
  "Tagesordnung": 1355, 
  "c": 1356, 
  "darstellt": 1357, 
  "7@@": 1358, 
  "Opfer": 1359, 
  "IP": 1360, 
  "0@@": 1361, 
  "stärken": 1362, 
  "Frühstück": 1363, 
  "w@@": 1364, 
  "Angaben": 1365, 
  "Abschluss": 1366, 
  "Wege": 1367, 
  "et@@": 1368, 
  "Überwachung": 1369, 
  "Falle": 1370, 
  "Tagung": 1371, 
  "allgemeine": 1372, 
  "II": 1373, 
  "gesetzt": 1374, 
  "aktuelle": 1375, 
  "begrüßt": 1376, 
  "kosten": 1377, 
  "genutzt": 1378, 
  "legen": 1379, 
  "lang": 1380, 
  "Protokoll": 1381, 
  "Dienste": 1382, 
  "berücksichtigen": 1383, 
  "à": 1384, 
  "Dokument": 1385, 
  "Beteiligung": 1386, 
  "beste": 1387, 
  "mehreren": 1388, 
  "dringend": 1389, 
  "ausschließlich": 1390, 
  "Ausbildung": 1391, 
  "Vielfalt": 1392, 
  "darunter": 1393, 
  "ber@@": 1394, 
  "stimmen": 1395, 
  "ländlichen": 1396, 
  "dienen": 1397, 
  "besonderen": 1398, 
  "erforderlichen": 1399, 
  "demokratischen": 1400, 
  "lokalen": 1401, 
  "end": 1402, 
  "ging": 1403, 
  "erfüllt": 1404, 
  "Bilder": 1405, 
  "getroffen": 1406, 
  "Tat": 1407, 
  "Stand": 1408, 
  "gewesen": 1409, 
  "versucht": 1410, 
  "richtige": 1411, 
  "Entwicklungen": 1412, 
  "Umfang": 1413, 
  "Schlusselwortern": 1414, 
  "se@@": 1415, 
  "we": 1416, 
  "2013": 1417, 
  "genug": 1418, 
  "New": 1419, 
  "lesen": 1420, 
  "usw.": 1421, 
  "überhaupt": 1422, 
  "Anteil": 1423, 
  "Windows": 1424, 
  "em": 1425, 
  "Urlaub": 1426, 
  "Koordinierung": 1427, 
  "Bau@@": 1428, 
  "ergreifen": 1429, 
  "verfahren": 1430, 
  "stets": 1431, 
  "Tätigkeit": 1432, 
  "oben": 1433, 
  "D": 1434, 
  "erhöhen": 1435, 
  "folgen": 1436, 
  "Sitzung": 1437, 
  "beginnen": 1438, 
  "paar": 1439, 
  "Zustimmung": 1440, 
  "modernen": 1441, 
  "besuchen": 1442, 
  "kaum": 1443, 
  "h": 1444, 
  "fuer": 1445, 
  "durch@@": 1446, 
  "0": 1447, 
  "Atmosphäre": 1448, 
  "Einhaltung": 1449, 
  "historischen": 1450, 
  "bestimmt": 1451, 
  "regionale": 1452, 
  "Ukraine": 1453, 
  "Bank": 1454, 
  "wesentlich": 1455, 
  "umfasst": 1456, 
  "=": 1457, 
  "Der": 1458, 
  "Dateien": 1459, 
  "Aufenthalt": 1460, 
  "Angelegenheit": 1461, 
  "danach": 1462, 
  "freuen": 1463, 
  "politischer": 1464, 
  "200": 1465, 
  "erlaubt": 1466, 
  "maßnahmen": 1467, 
  "erkennen": 1468, 
  "Gebäude": 1469, 
  "danke": 1470, 
  "Terrorismus": 1471, 
  "ri@@": 1472, 
  "les": 1473, 
  "unterschiedlichen": 1474, 
  "abschließend": 1475, 
  "schwer": 1476, 
  "eindeutig": 1477, 
  "B.": 1478, 
  "O": 1479, 
  "che": 1480, 
  "verfügbar": 1481, 
  "Zweck": 1482, 
  "notwendigen": 1483, 
  "Gebiete": 1484, 
  "Wunsch": 1485, 
  "gesehen": 1486, 
  "offen": 1487, 
  "konkrete": 1488, 
  "Prozent": 1489, 
  "Gipfel": 1490, 
  "zurück@@": 1491, 
  "17": 1492, 
  "betroffenen": 1493, 
  "1998": 1494, 
  "eingeführt": 1495, 
  "Engagement": 1496, 
  "Portugal": 1497, 
  "Anspruch": 1498, 
  "Fischerei": 1499, 
  "Restaurants": 1500, 
  "aktiv": 1501, 
  "Osten": 1502, 
  "gezeigt": 1503, 
  "nationaler": 1504, 
  "geändert": 1505, 
  "anders": 1506, 
  "zahlen": 1507, 
  "staatliche": 1508, 
  "Ausschuß": 1509, 
  "Haushalts@@": 1510, 
  "Umwelt@@": 1511, 
  "Datei": 1512, 
  "ar": 1513, 
  "am@@": 1514, 
  "9@@": 1515, 
  "derzeitigen": 1516, 
  "mal": 1517, 
  "den@@": 1518, 
  "überzeugt": 1519, 
  "endlich": 1520, 
  "Personal": 1521, 
  "moderne": 1522, 
  "ken": 1523, 
  "erzielen": 1524, 
  "trägt": 1525, 
  "unbedingt": 1526, 
  "Banken": 1527, 
  "persönlichen": 1528, 
  "z.": 1529, 
  "außer": 1530, 
  "th@@": 1531, 
  "Afrika": 1532, 
  "eben": 1533, 
  "Februar": 1534, 
  "begrüßen": 1535, 
  "eingerichtet": 1536, 
  "amerikanischen": 1537, 
  "Untersuchung": 1538, 
  "Entwurf": 1539, 
  "Verfassung": 1540, 
  "Wirtschafts-": 1541, 
  "vermeiden": 1542, 
  "Justiz": 1543, 
  "wahrscheinlich": 1544, 
  "Vorhaben": 1545, 
  "gerecht": 1546, 
  "Belgien": 1547, 
  "Schweden": 1548, 
  "500": 1549, 
  "zeit": 1550, 
  "Steuer@@": 1551, 
  "der@@": 1552, 
  "wesentlichen": 1553, 
  "hält": 1554, 
  "Absatz": 1555, 
  "bedarf": 1556, 
  "systeme": 1557, 
  "ne": 1558, 
  "bewusst": 1559, 
  "you": 1560, 
  "Märkte": 1561, 
  "kennen": 1562, 
  "erinnern": 1563, 
  "Produkten": 1564, 
  "sen": 1565, 
  "jeweils": 1566, 
  "entweder": 1567, 
  "automatisch": 1568, 
  "Analyse": 1569, 
  "Dollar": 1570, 
  "Krieg": 1571, 
  "Grund@@": 1572, 
  "unten": 1573, 
  "sämtliche": 1574, 
  "wären": 1575, 
  "Al@@": 1576, 
  "umfassende": 1577, 
  "Nutzen": 1578, 
  "au@@": 1579, 
  "one": 1580, 
  "dagegen": 1581, 
  "andererseits": 1582, 
  "80": 1583, 
  "Sterne": 1584, 
  "room": 1585, 
  "unabhängig": 1586, 
  "erfahren": 1587, 
  "mit@@": 1588, 
  "Paris": 1589, 
  "Besuch": 1590, 
  "Berichterstatterin": 1591, 
  "genannt": 1592, 
  "The": 1593, 
  "is@@": 1594, 
  "Kommunikation": 1595, 
  "Standards": 1596, 
  "Leistungen": 1597, 
  "Teilnehmer": 1598, 
  "Bad": 1599, 
  "verfolgen": 1600, 
  "Vergleich": 1601, 
  "Management": 1602, 
  "Markt@@": 1603, 
  "Gesamt@@": 1604, 
  "Pressemitteilung": 1605, 
  "www.@@": 1606, 
  "fallen": 1607, 
  "freie": 1608, 
  "Agenda": 1609, 
  "Spieler": 1610, 
  "&gt;": 1611, 
  "ung@@": 1612, 
  "schen": 1613, 
  "teilweise": 1614, 
  "Ich": 1615, 
  "Berichte": 1616, 
  "Richtlinien": 1617, 
  "Japan": 1618, 
  "Produkt": 1619, 
  "http": 1620, 
  "Schweiz": 1621, 
  "gekommen": 1622, 
  "3@@": 1623, 
  "Arten": 1624, 
  "ler": 1625, 
  "Voraussetzungen": 1626, 
  "glauben": 1627, 
  "Infrastruktur": 1628, 
  "2020": 1629, 
  "profitieren": 1630, 
  "genehmigt": 1631, 
  "ten@@": 1632, 
  "gegenwärtig": 1633, 
  "gelegen": 1634, 
  "jüngsten": 1635, 
  "lösen": 1636, 
  "alen": 1637, 
  "from": 1638, 
  "bitten": 1639, 
  "entschieden": 1640, 
  "Sonder@@": 1641, 
  "gleiche": 1642, 
  "zentrale": 1643, 
  "Überprüfung": 1644, 
  "Partei": 1645, 
  "Irak": 1646, 
  "deine": 1647, 
  "Aufnahme": 1648, 
  "Handels@@": 1649, 
  "Ihres": 1650, 
  "darstellen": 1651, 
  "internationaler": 1652, 
  "Verpflichtung": 1653, 
  "Karte": 1654, 
  "Mitteln": 1655, 
  "Herstellung": 1656, 
  "möglichst": 1657, 
  "27": 1658, 
  "gen@@": 1659, 
  "Veränderungen": 1660, 
  "ges": 1661, 
  "Antrag": 1662, 
  "konzentrieren": 1663, 
  "as@@": 1664, 
  "Regelungen": 1665, 
  "Beschluss": 1666, 
  "benutzt": 1667, 
  "Kindern": 1668, 
  "Übereinkommen": 1669, 
  "Funktionen": 1670, 
  "zuständigen": 1671, 
  "Anwendungen": 1672, 
  "zuletzt": 1673, 
  "informieren": 1674, 
  "Inhalte": 1675, 
  "Sommer": 1676, 
  "ser@@": 1677, 
  "auswärtige": 1678, 
  "Israel": 1679, 
  "Idee": 1680, 
  "2011": 1681, 
  "Leute": 1682, 
  "Aufbau": 1683, 
  "..": 1684, 
  "licher": 1685, 
  "Rumänien": 1686, 
  "Phase": 1687, 
  "erfolgen": 1688, 
  "San": 1689, 
  "1997": 1690, 
  "hierzu": 1691, 
  "@": 1692, 
  "übrigen": 1693, 
  "ma@@": 1694, 
  "Herausforderung": 1695, 
  "treten": 1696, 
  "zugleich": 1697, 
  "trotzdem": 1698, 
  "benutzen": 1699, 
  "Regel": 1700, 
  "gelangen": 1701, 
  "Hersteller": 1702, 
  "französischen": 1703, 
  "Chance": 1704, 
  "vorgeschlagenen": 1705, 
  "sicherlich": 1706, 
  "Vorbereitung": 1707, 
  "klare": 1708, 
  "U": 1709, 
  "Hause": 1710, 
  "ger@@": 1711, 
  "beteiligt": 1712, 
  "verfolgt": 1713, 
  "braucht": 1714, 
  "Priorität": 1715, 
  "Vorsitz": 1716, 
  "weiterer": 1717, 
  "nächste": 1718, 
  "denken": 1719, 
  "erstellt": 1720, 
  "do": 1721, 
  "erleben": 1722, 
  "Sprachen": 1723, 
  "lernen": 1724, 
  "Di@@": 1725, 
  "online": 1726, 
  "Neu@@": 1727, 
  "bestätigt": 1728, 
  "sofern": 1729, 
  "Rück@@": 1730, 
  "möglichkeiten": 1731, 
  "gefördert": 1732, 
  "Computer": 1733, 
  "stand": 1734, 
  "beziehen": 1735, 
  "te@@": 1736, 
  "künftigen": 1737, 
  "Zeichen": 1738, 
  "it@@": 1739, 
  "Volk": 1740, 
  "Maßnahme": 1741, 
  "21": 1742, 
  "erte": 1743, 
  "ei@@": 1744, 
  "ur@@": 1745, 
  "Einfluss": 1746, 
  "abgeschlossen": 1747, 
  "speziell": 1748, 
  "gt": 1749, 
  "p": 1750, 
  "jene": 1751, 
  ".com": 1752, 
  "Haltung": 1753, 
  "Delegation": 1754, 
  "Berücksichtigung": 1755, 
  "hoffen": 1756, 
  "entsprechen": 1757, 
  "wünschen": 1758, 
  "me": 1759, 
  "Suche": 1760, 
  "Risiken": 1761, 
  "X": 1762, 
  "ed": 1763, 
  "Bedenken": 1764, 
  "handeln": 1765, 
  "positive": 1766, 
  "unterschiedliche": 1767, 
  "Familien": 1768, 
  "Augen": 1769, 
  "rechtlichen": 1770, 
  "akzeptieren": 1771, 
  "betrachtet": 1772, 
  "Homepage": 1773, 
  "spielt": 1774, 
  "erung": 1775, 
  "entstehen": 1776, 
  "Finanzen": 1777, 
  "Abkommens": 1778, 
  "Achtung": 1779, 
  "wichtigste": 1780, 
  "IT": 1781, 
  "ing": 1782, 
  "schließen": 1783, 
  "Gemeinschafts@@": 1784, 
  "erten": 1785, 
  "isch": 1786, 
  "ständig": 1787, 
  "hoch@@": 1788, 
  "Y@@": 1789, 
  "Grundsatz": 1790, 
  "freue": 1791, 
  "überprüfen": 1792, 
  "19": 1793, 
  "angeboten": 1794, 
  "Waren": 1795, 
  "é@@": 1796, 
  "bare": 1797, 
  "Grundsätze": 1798, 
  "rechts": 1799, 
  "Arbeitslosigkeit": 1800, 
  "Park": 1801, 
  "Teile": 1802, 
  "erstellen": 1803, 
  "hinweisen": 1804, 
  "ne@@": 1805, 
  "Site": 1806, 
  "festgestellt": 1807, 
  "L": 1808, 
  "geleistet": 1809, 
  "funktioniert": 1810, 
  "August": 1811, 
  "gefordert": 1812, 
  "lo@@": 1813, 
  "Treffen": 1814, 
  "betont": 1815, 
  "geeignet": 1816, 
  "arbeitet": 1817, 
  "Ungarn": 1818, 
  "Paket": 1819, 
  "Iran": 1820, 
  "daraus": 1821, 
  "anderes": 1822, 
  "markt": 1823, 
  "teilen": 1824, 
  "welcher": 1825, 
  "Daten@@": 1826, 
  "erwähnt": 1827, 
  "Anpassung": 1828, 
  "Mitte": 1829, 
  "Rechts@@": 1830, 
  "Straße": 1831, 
  "reichen": 1832, 
  "Sorge": 1833, 
  "Luxemburg": 1834, 
  "Menge": 1835, 
  "erhält": 1836, 
  "ber": 1837, 
  "Standard": 1838, 
  "Stimme": 1839, 
  "Aktionen": 1840, 
  "rasch": 1841, 
  "em@@": 1842, 
  "Währung": 1843, 
  "Spiel@@": 1844, 
  "besseren": 1845, 
  "G": 1846, 
  "baren": 1847, 
  "sp@@": 1848, 
  "ausdrücklich": 1849, 
  "Betrieb": 1850, 
  "private": 1851, 
  "gesprochen": 1852, 
  "X@@": 1853, 
  "Lesung": 1854, 
  "London": 1855, 
  "umfassenden": 1856, 
  "1996": 1857, 
  "verstärkt": 1858, 
  "70": 1859, 
  "nen": 1860, 
  "Modell": 1861, 
  "La": 1862, 
  "ko@@": 1863, 
  "laut": 1864, 
  "positiv": 1865, 
  "wenden": 1866, 
  "ie": 1867, 
  "betreffen": 1868, 
  "benötigt": 1869, 
  "Bulgarien": 1870, 
  "nach@@": 1871, 
  "Agentur": 1872, 
  "Webseite": 1873, 
  "ke": 1874, 
  "starke": 1875, 
  "dank": 1876, 
  "miteinander": 1877, 
  "sk@@": 1878, 
  "kulturellen": 1879, 
  "Web": 1880, 
  "Mitgliedern": 1881, 
  "90": 1882, 
  "Indien": 1883, 
  "her": 1884, 
  "jederzeit": 1885, 
  "gestalten": 1886, 
  "größeren": 1887, 
  "Wirkung": 1888, 
  "erheblich": 1889, 
  "Preis@@": 1890, 
  "Empfehlung": 1891, 
  "Pro@@": 1892, 
  "Kunst": 1893, 
  "22": 1894, 
  "hin@@": 1895, 
  "Zeiten": 1896, 
  "Ar@@": 1897, 
  "Großbritannien": 1898, 
  "no": 1899, 
  "Strategien": 1900, 
  "x@@": 1901, 
  "Barcelona": 1902, 
  "einiger": 1903, 
  "hauptsächlich": 1904, 
  "Kosovo": 1905, 
  "Rede": 1906, 
  "nachhaltigen": 1907, 
  "Bedürfnisse": 1908, 
  "St@@": 1909, 
  "verbundenen": 1910, 
  "jährlich": 1911, 
  "Forderung": 1912, 
  "Nach@@": 1913, 
  "Unterkategorien": 1914, 
  "300": 1915, 
  "erklären": 1916, 
  "Verringerung": 1917, 
  "Globalisierung": 1918, 
  "Formen": 1919, 
  "Status": 1920, 
  "Maße": 1921, 
  "euch": 1922, 
  "2012": 1923, 
  "Gesetz": 1924, 
  "durchaus": 1925, 
  "informiert": 1926, 
  "deswegen": 1927, 
  "überall": 1928, 
  "Ro@@": 1929, 
  "vi@@": 1930, 
  "Internationalen": 1931, 
  "schlägt": 1932, 
  "Zweifel": 1933, 
  "Hinweis": 1934, 
  "gegenwärtigen": 1935, 
  "Tätigkeiten": 1936, 
  "Entwicklungs@@": 1937, 
  "Titel": 1938, 
  "volle": 1939, 
  "Verhältnis": 1940, 
  "möglichen": 1941, 
  "aufgefordert": 1942, 
  "angezeigt": 1943, 
  "erleichtern": 1944, 
  "erhöht": 1945, 
  "beachten": 1946, 
  "zuvor": 1947, 
  "dient": 1948, 
  "gegründet": 1949, 
  "gewinnen": 1950, 
  "ation": 1951, 
  "manchmal": 1952, 
  "wollte": 1953, 
  "führte": 1954, 
  "Europäer": 1955, 
  "seien": 1956, 
  "humanitäre": 1957, 
  "gewährt": 1958, 
  "UND": 1959, 
  "vorhanden": 1960, 
  "einsetzen": 1961, 
  "solcher": 1962, 
  "ck@@": 1963, 
  "1995": 1964, 
  "vorliegenden": 1965, 
  "Städte": 1966, 
  "betonen": 1967, 
  "dürfte": 1968, 
  "Problemen": 1969, 
  "Stellung": 1970, 
  "sagt": 1971, 
  "britischen": 1972, 
  "hingewiesen": 1973, 
  "schwierig": 1974, 
  "ster": 1975, 
  "Risiko": 1976, 
  "Unternehmens": 1977, 
  "Stellen": 1978, 
  "ch": 1979, 
  "wert": 1980, 
  "her@@": 1981, 
  "junge": 1982, 
  "stattfinden": 1983, 
  "UN": 1984, 
  "ad@@": 1985, 
  "wenigen": 1986, 
  "inzwischen": 1987, 
  "stimme": 1988, 
  "Elemente": 1989, 
  "hören": 1990, 
  "Drittländern": 1991, 
  "programme": 1992, 
  "Bedarf": 1993, 
  "deutsche": 1994, 
  "Meter": 1995, 
  "Forderungen": 1996, 
  "Anlagen": 1997, 
  "Effizienz": 1998, 
  "stellte": 1999, 
  "zusammen@@": 2000, 
  "innen": 2001, 
  "Fach@@": 2002, 
  "nachfolgend": 2003, 
  "alte": 2004, 
  "stelle": 2005, 
  "übernachten": 2006, 
  "betroffen": 2007, 
  "vielmehr": 2008, 
  "zuständige": 2009, 
  "not": 2010, 
  "op@@": 2011, 
  "geschützt": 2012, 
  "Geschäfts@@": 2013, 
  "Festlegung": 2014, 
  "zufolge": 2015, 
  "ergeben": 2016, 
  "Vielzahl": 2017, 
  "eln": 2018, 
  "Leistung": 2019, 
  "Hälfte": 2020, 
  "Produktions@@": 2021, 
  "geprüft": 2022, 
  "soweit": 2023, 
  "Niveau": 2024, 
  "ta@@": 2025, 
  "mittels": 2026, 
  "Fälle": 2027, 
  "zi@@": 2028, 
  "etc.": 2029, 
  "Bestandteil": 2030, 
  "Fortschritt": 2031, 
  "Erhöhung": 2032, 
  "Universität": 2033, 
  "eingehen": 2034, 
  "zuständig": 2035, 
  "ausreichend": 2036, 
  "liches": 2037, 
  "staatlichen": 2038, 
  "gi@@": 2039, 
  "fällt": 2040, 
  "regelmäßig": 2041, 
  "ischer": 2042, 
  "zen": 2043, 
  "sche": 2044, 
  "Aspekt": 2045, 
  "liebe": 2046, 
  "Aktionsplan": 2047, 
  "offensichtlich": 2048, 
  "Welt@@": 2049, 
  "Emissionen": 2050, 
  "Wissen": 2051, 
  "Schwerpunkt": 2052, 
  "erfordert": 2053, 
  "globale": 2054, 
  "Erzeugnisse": 2055, 
  "geschehen": 2056, 
  "erscheint": 2057, 
  "Besucher": 2058, 
  "See": 2059, 
  "Liberalisierung": 2060, 
  "übertragen": 2061, 
  "relativ": 2062, 
  "sen@@": 2063, 
  "damals": 2064, 
  "ni@@": 2065, 
  "links": 2066, 
  "Studie": 2067, 
  "sicherstellen": 2068, 
  "Erklärungen": 2069, 
  "Dimension": 2070, 
  "richtigen": 2071, 
  "tem": 2072, 
  "land": 2073, 
  "Abgeordnete": 2074, 
  "Normen": 2075, 
  "Ideen": 2076, 
  "po@@": 2077, 
  "sektor": 2078, 
  "diskutieren": 2079, 
  "zugunsten": 2080, 
  "Land@@": 2081, 
  "Übernahme": 2082, 
  "verlassen": 2083, 
  "aufmerksam": 2084, 
  "spezielle": 2085, 
  "da@@": 2086, 
  "35": 2087, 
  "23": 2088, 
  "Klimawandel": 2089, 
  "Teilnahme": 2090, 
  "om@@": 2091, 
  "u.": 2092, 
  "Ge@@": 2093, 
  "täglich": 2094, 
  "Flexibilität": 2095, 
  "Finnland": 2096, 
  "ellen": 2097, 
  "V": 2098, 
  "Video": 2099, 
  "Ausland": 2100, 
  "Garten": 2101, 
  "Unabhängigkeit": 2102, 
  "Gründe": 2103, 
  "M": 2104, 
  "tern": 2105, 
  "zählen": 2106, 
  "é": 2107, 
  "kürzlich": 2108, 
  "verabschiedet": 2109, 
  "Diskriminierung": 2110, 
  "willkommen": 2111, 
  "legt": 2112, 
  "acht": 2113, 
  "geltenden": 2114, 
  "ate": 2115, 
  "men": 2116, 
  "laden": 2117, 
  "Sanktionen": 2118, 
  "garantiert": 2119, 
  "2@@": 2120, 
  "künftig": 2121, 
  "Kultur@@": 2122, 
  "systems": 2123, 
  "F": 2124, 
  "persönlich": 2125, 
  "d.": 2126, 
  "Jahrhunderts": 2127, 
  "men@@": 2128, 
  "feststellen": 2129, 
  "schreiben": 2130, 
  "gutes": 2131, 
  "229": 2132, 
  "that": 2133, 
  "International": 2134, 
  "ä@@": 2135, 
  "spezifischen": 2136, 
  "Texte": 2137, 
  "Komfort": 2138, 
  "Stil": 2139, 
  "Das": 2140, 
  "jungen": 2141, 
  "Zivilgesellschaft": 2142, 
  "Einzel@@": 2143, 
  "absolut": 2144, 
  "Auto": 2145, 
  "Laufe": 2146, 
  "elle": 2147, 
  "Fähigkeit": 2148, 
  "ations@@": 2149, 
  "bezeichnet": 2150, 
  "sieben": 2151, 
  "langen": 2152, 
  "Dienst": 2153, 
  "In": 2154, 
  "Worte": 2155, 
  "au": 2156, 
  "ol@@": 2157, 
  "frage": 2158, 
  "Monat": 2159, 
  "Hauses": 2160, 
  "länger": 2161, 
  "Vereinbarungen": 2162, 
  "Austausch": 2163, 
  "Reaktion": 2164, 
  "Plan": 2165, 
  "Mobilität": 2166, 
  "Kroatien": 2167, 
  "vorlegen": 2168, 
  "großes": 2169, 
  "kaufen": 2170, 
  "Vorteil": 2171, 
  "1.@@": 2172, 
  "einfache": 2173, 
  "starken": 2174, 
  "ationen": 2175, 
  "groß": 2176, 
  "CD": 2177, 
  "teil": 2178, 
  "Teilen": 2179, 
  "Steuern": 2180, 
  "ze": 2181, 
  "Schluss": 2182, 
  "Zypern": 2183, 
  "Rechts": 2184, 
  "senden": 2185, 
  "einzigen": 2186, 
  "Voraussetzung": 2187, 
  "welchen": 2188, 
  "Anlage": 2189, 
  "Unterschiede": 2190, 
  "Sozial@@": 2191, 
  "Patienten": 2192, 
  "ak@@": 2193, 
  "ender": 2194, 
  "Name": 2195, 
  "ange@@": 2196, 
  "Zeit@@": 2197, 
  "ö@@": 2198, 
  "Prinzip": 2199, 
  "Technik": 2200, 
  "R": 2201, 
  "Größe": 2202, 
  "ac@@": 2203, 
  "keinerlei": 2204, 
  "beinhaltet": 2205, 
  "niemand": 2206, 
  "us@@": 2207, 
  "betrachten": 2208, 
  "beginnt": 2209, 
  "positiven": 2210, 
  "Methode": 2211, 
  "Dänemark": 2212, 
  "P": 2213, 
  "Niederlande": 2214, 
  "weg": 2215, 
  "erhebliche": 2216, 
  "ka": 2217, 
  "daten": 2218, 
  "Zahlen": 2219, 
  "ER@@": 2220, 
  "Netz": 2221, 
  "ideal": 2222, 
  "Abend": 2223, 
  "Zu@@": 2224, 
  "Terrasse": 2225, 
  "weltweiten": 2226, 
  "Kon@@": 2227, 
  "dritten": 2228, 
  "to@@": 2229, 
  "ben": 2230, 
  "Kirche": 2231, 
  "herzlich": 2232, 
  "wesentliche": 2233, 
  "wissenschaftlichen": 2234, 
  "Beschreibung": 2235, 
  "schönen": 2236, 
  "bi@@": 2237, 
  "demokratische": 2238, 
  "est@@": 2239, 
  "Gericht": 2240, 
  "politisch": 2241, 
  "italienischen": 2242, 
  "kon@@": 2243, 
  "2.": 2244, 
  "angesprochen": 2245, 
  "wodurch": 2246, 
  "unternommen": 2247, 
  "führenden": 2248, 
  "eng": 2249, 
  "Tel": 2250, 
  "unmittelbar": 2251, 
  "vollständige": 2252, 
  "Mittelpunkt": 2253, 
  "bezug": 2254, 
  "befassen": 2255, 
  "Worten": 2256, 
  "Verträge": 2257, 
  "weist": 2258, 
  "Verkehrs@@": 2259, 
  "Business": 2260, 
  "Struktur": 2261, 
  "Fuß": 2262, 
  "spezifische": 2263, 
  "Absicht": 2264, 
  "besitzt": 2265, 
  "zufrieden": 2266, 
  "Strukturfonds": 2267, 
  "reagieren": 2268, 
  "Politiker": 2269, 
  "garantieren": 2270, 
  "h.": 2271, 
  "laufen": 2272, 
  "Informations@@": 2273, 
  "ot@@": 2274, 
  "umzusetzen": 2275, 
  "früher": 2276, 
  "Bau": 2277, 
  "künftige": 2278, 
  "K": 2279, 
  "Projekten": 2280, 
  "CO2": 2281, 
  "Nutzer": 2282, 
  "fr": 2283, 
  "Mar@@": 2284, 
  "weiteres": 2285, 
  "Ereignisse": 2286, 
  "finanziert": 2287, 
  "Sehenswürdigkeiten": 2288, 
  "mögliche": 2289, 
  "bildet": 2290, 
  "echte": 2291, 
  "langfristige": 2292, 
  "our": 2293, 
  "Verständnis": 2294, 
  "Entwicklungsländern": 2295, 
  "Film": 2296, 
  "warten": 2297, 
  "Führung": 2298, 
  "höhere": 2299, 
  "sichern": 2300, 
  "derartige": 2301, 
  "gehalten": 2302, 
  "Einbeziehung": 2303, 
  "Nachfrage": 2304, 
  "ehemaligen": 2305, 
  "nennen": 2306, 
  "man@@": 2307, 
  "Verbesserungen": 2308, 
  "zunehmend": 2309, 
  "mi@@": 2310, 
  "Moment": 2311, 
  "Du": 2312, 
  "entdecken": 2313, 
  "Grundrechte": 2314, 
  "abhängig": 2315, 
  "gel@@": 2316, 
  "Tiere": 2317, 
  "Zielen": 2318, 
  "Sport": 2319, 
  "verringern": 2320, 
  "voller": 2321, 
  "Antworten": 2322, 
  "Nacht": 2323, 
  "est": 2324, 
  "verloren": 2325, 
  "Wissenschaft": 2326, 
  "anbieten": 2327, 
  "einzelne": 2328, 
  "gelegt": 2329, 
  "zusätzlichen": 2330, 
  "Linux": 2331, 
  "Anliegen": 2332, 
  "Generation": 2333, 
  "anlagen": 2334, 
  "Produkt@@": 2335, 
  "einerseits": 2336, 
  "Amsterdam": 2337, 
  "Museum": 2338, 
  "Begriff": 2339, 
  "Partnern": 2340, 
  "17@@": 2341, 
  "ausge@@": 2342, 
  "abge@@": 2343, 
  "komplett": 2344, 
  "praktisch": 2345, 
  "teilnehmen": 2346, 
  "Ri@@": 2347, 
  "empfehlen": 2348, 
  "hoher": 2349, 
  "achten": 2350, 
  "Li@@": 2351, 
  "vorschlagen": 2352, 
  "Geschäftsordnung": 2353, 
  "cht": 2354, 
  "Installation": 2355, 
  "Hoffnung": 2356, 
  "Methoden": 2357, 
  "Auftrag": 2358, 
  "Genehmigung": 2359, 
  "allgemein": 2360, 
  "speziellen": 2361, 
  "Inseln": 2362, 
  "offenen": 2363, 
  "Kritik": 2364, 
  "bereitgestellt": 2365, 
  "zer@@": 2366, 
  "ergriffen": 2367, 
  "Debian": 2368, 
  "Sektoren": 2369, 
  "hierbei": 2370, 
  "anerkannt": 2371, 
  "kostenlos": 2372, 
  "gestern": 2373, 
  "Villa": 2374, 
  "Kinder@@": 2375, 
  "Umständen": 2376, 
  "PC": 2377, 
  "schneller": 2378, 
  "schöne": 2379, 
  "Reise": 2380, 
  "Botschaft": 2381, 
  "konkreten": 2382, 
  "Gegensatz": 2383, 
  "unterstütze": 2384, 
  "$": 2385, 
  "Mo@@": 2386, 
  "Arbeitsplätzen": 2387, 
  "betreffend": 2388, 
  "Sinn": 2389, 
  "nunmehr": 2390, 
  "bislang": 2391, 
  "zuerst": 2392, 
  "spanischen": 2393, 
  "zugänglich": 2394, 
  "Aussicht": 2395, 
  "laufenden": 2396, 
  "Veranstaltungen": 2397, 
  "Vorschlägen": 2398, 
  "rechtliche": 2399, 
  "Bereitstellung": 2400, 
  "45": 2401, 
  "Anbieter": 2402, 
  "spricht": 2403, 
  "En@@": 2404, 
  "De@@": 2405, 
  "hervor": 2406, 
  "anhand": 2407, 
  "Landwirte": 2408, 
  "breite": 2409, 
  "seitens": 2410, 
  "Programmen": 2411, 
  "einge@@": 2412, 
  "Firmen": 2413, 
  "Tradition": 2414, 
  "entscheidend": 2415, 
  "ag@@": 2416, 
  "guter": 2417, 
  "bestimmter": 2418, 
  "ing@@": 2419, 
  "verstärken": 2420, 
  "persönliche": 2421, 
  "genauso": 2422, 
  "eröffnet": 2423, 
  "Netzwerk": 2424, 
  "Web@@": 2425, 
  "van": 2426, 
  "angemessene": 2427, 
  "Forum": 2428, 
  "Gesundheits@@": 2429, 
  "Forschungs@@": 2430, 
  "Urteil": 2431, 
  "bewegen": 2432, 
  "Märkten": 2433, 
  "wichtiges": 2434, 
  "sa@@": 2435, 
  "hergestellt": 2436, 
  "Agrarpolitik": 2437, 
  "wiederum": 2438, 
  "geschieht": 2439, 
  "Kompromiss": 2440, 
  "Sitz": 2441, 
  "Kontrollen": 2442, 
  "liefern": 2443, 
  "aten": 2444, 
  "keiner": 2445, 
  "ster@@": 2446, 
  "Groß@@": 2447, 
  "all@@": 2448, 
  "solange": 2449, 
  "ons": 2450, 
  "lage": 2451, 
  "traditionellen": 2452, 
  "mo@@": 2453, 
  "Hoch@@": 2454, 
  "Dokumente": 2455, 
  "mm": 2456, 
  "fand": 2457, 
  "sonst": 2458, 
  "Entwicklungsländer": 2459, 
  "geöffnet": 2460, 
  "Diskussionen": 2461, 
  "Beihilfe": 2462, 
  "d.h.": 2463, 
  "ker": 2464, 
  "1994": 2465, 
  "ff@@": 2466, 
  "Grenze": 2467, 
  "richten": 2468, 
  "Realität": 2469, 
  "Mann": 2470, 
  "Beratung": 2471, 
  "28": 2472, 
  "beschäftigt": 2473, 
  "Allgemeinen": 2474, 
  "Fähigkeiten": 2475, 
  "Hauptstadt": 2476, 
  "reicht": 2477, 
  "Ordnung": 2478, 
  "Licht": 2479, 
  "DE": 2480, 
  "international": 2481, 
  "Männer": 2482, 
  "beträgt": 2483, 
  "Ausbau": 2484, 
  "sage": 2485, 
  "Beiträge": 2486, 
  "Harmonisierung": 2487, 
  "{": 2488, 
  "Strukturen": 2489, 
  "Fotos": 2490, 
  "Eindruck": 2491, 
  "ci@@": 2492, 
  "Unterkunft": 2493, 
  "ü@@": 2494, 
  "H": 2495, 
  "pro@@": 2496, 
  "einheitlichen": 2497, 
  "Willen": 2498, 
  "Sport@@": 2499, 
  "grundlegenden": 2500, 
  "kleiner": 2501, 
  "Kern@@": 2502, 
  "Vorgehen": 2503, 
  "reden": 2504, 
  "Club": 2505, 
  "Arbeitsmarkt": 2506, 
  "ek@@": 2507, 
  "bedingungen": 2508, 
  "Experten": 2509, 
  "ed@@": 2510, 
  "Charakter": 2511, 
  "Verkauf": 2512, 
  "einverstanden": 2513, 
  "weshalb": 2514, 
  "fen": 2515, 
  "grundsätzlich": 2516, 
  "verlangen": 2517, 
  "Co@@": 2518, 
  "anstatt": 2519, 
  "Erde": 2520, 
  "wirksam": 2521, 
  "2014": 2522, 
  "Verwirklichung": 2523, 
  "gezogen": 2524, 
  "westlichen": 2525, 
  "läuft": 2526, 
  "Option": 2527, 
  "gewisse": 2528, 
  "aufzunehmen": 2529, 
  "1@@": 2530, 
  "Verbot": 2531, 
  "Bi@@": 2532, 
  "gewählt": 2533, 
  "angeht": 2534, 
  "Ma@@": 2535, 
  "übernommen": 2536, 
  "im@@": 2537, 
  "Beispiele": 2538, 
  "Gegenteil": 2539, 
  "Staats@@": 2540, 
  "N": 2541, 
  "Beschlüsse": 2542, 
  "bestehende": 2543, 
  "Definition": 2544, 
  "ungs-": 2545, 
  "prozess": 2546, 
  "Krankheiten": 2547, 
  "Staatssekretär": 2548, 
  "Gespräche": 2549, 
  "zentralen": 2550, 
  "Verbreitung": 2551, 
  "dienste": 2552, 
  "Gesetzgebung": 2553, 
  "arbeit": 2554, 
  "Ent@@": 2555, 
  "Ausnahme": 2556, 
  "anschließend": 2557, 
  "eh@@": 2558, 
  "begonnen": 2559, 
  "Links": 2560, 
  "Angebote": 2561, 
  "vorzulegen": 2562, 
  "ap@@": 2563, 
  "Berg@@": 2564, 
  "Mitgliedschaft": 2565, 
  "16@@": 2566, 
  "len": 2567, 
  "per@@": 2568, 
  "Altstadt": 2569, 
  "Verhalten": 2570, 
  "wirksame": 2571, 
  "öffentlich": 2572, 
  "durchzuführen": 2573, 
  "Grunde": 2574, 
  "nötig": 2575, 
  "Mit@@": 2576, 
  "Entschließungsantrag": 2577, 
  "booking.com": 2578, 
  "19.": 2579, 
  "industrie": 2580, 
  "höchste": 2581, 
  "diskutiert": 2582, 
  "ideale": 2583, 
  "eingeleitet": 2584, 
  "lokale": 2585, 
  "were": 2586, 
  "AKP": 2587, 
  "Lebens@@": 2588, 
  "natürlichen": 2589, 
  "Gründung": 2590, 
  "vorgenommen": 2591, 
  "gung": 2592, 
  "begann": 2593, 
  "York": 2594, 
  "Modernisierung": 2595, 
  "verlieren": 2596, 
  "Hotel@@": 2597, 
  "Gesetze": 2598, 
  "Kombination": 2599, 
  "Faktoren": 2600, 
  "Verfügbarkeit": 2601, 
  "ene": 2602, 
  "kurzem": 2603, 
  "grundlegende": 2604, 
  "Bar@@": 2605, 
  "angemessen": 2606, 
  "basiert": 2607, 
  "erhältlich": 2608, 
  "Einstellung": 2609, 
  "mag": 2610, 
  "vorgesehenen": 2611, 
  "Vorschlags": 2612, 
  "Schutz@@": 2613, 
  "ECU": 2614, 
  "cht@@": 2615, 
  "Unternehmens@@": 2616, 
  "staff": 2617, 
  "strategischen": 2618, 
  "Mittel@@": 2619, 
  "Mon@@": 2620, 
  "sh@@": 2621, 
  "Beratungen": 2622, 
  "Verbindungen": 2623, 
  "kulturelle": 2624, 
  "ges@@": 2625, 
  "zweifellos": 2626, 
  "Bewegung": 2627, 
  "World": 2628, 
  "Rezeption": 2629, 
  "Erwartungen": 2630, 
  "ine": 2631, 
  "akzeptiert": 2632, 
  "enen": 2633, 
  "15@@": 2634, 
  "beteiligen": 2635, 
  "une": 2636, 
  "Zustand": 2637, 
  "Schäden": 2638, 
  "Bo@@": 2639, 
  "Telefon": 2640, 
  "Natur@@": 2641, 
  "Datenbank": 2642, 
  "Tourismus": 2643, 
  "dritte": 2644, 
  "Dr.": 2645, 
  "bezieht": 2646, 
  "Aktion": 2647, 
  "ce": 2648, 
  "behandeln": 2649, 
  "Anschluss": 2650, 
  "26": 2651, 
  "erlauben": 2652, 
  "a.": 2653, 
  "Gemeinschaften": 2654, 
  "strategie": 2655, 
  "mittel": 2656, 
  "Fraktionen": 2657, 
  "do@@": 2658, 
  "Verwaltungs@@": 2659, 
  "raum": 2660, 
  "Material": 2661, 
  "Zahlungen": 2662, 
  "beschränkt": 2663, 
  "Darlehen": 2664, 
  "Flug@@": 2665, 
  "unterzeichnet": 2666, 
  "Ministerin": 2667, 
  "art": 2668, 
  "nochmals": 2669, 
  "Veranstaltung": 2670, 
  "vollkommen": 2671, 
  "drittens": 2672, 
  "Ko@@": 2673, 
  "Gesellschaften": 2674, 
  "finde": 2675, 
  "ina": 2676, 
  "werte": 2677, 
  "vorgeschlagene": 2678, 
  "manche": 2679, 
  "Nahen": 2680, 
  "ST@@": 2681, 
  "so@@": 2682, 
  "Landschaft": 2683, 
  "Schule": 2684, 
  "hinzu": 2685, 
  "nahezu": 2686, 
  "Gewährleistung": 2687, 
  "sch": 2688, 
  "abzu@@": 2689, 
  "75": 2690, 
  "du@@": 2691, 
  "qu@@": 2692, 
  "Amerika": 2693, 
  "amerikanische": 2694, 
  "zwei@@": 2695, 
  "Waffen": 2696, 
  "Politiken": 2697, 
  "vollen": 2698, 
  "u.a.": 2699, 
  "Afghanistan": 2700, 
  "Services": 2701, 
  "fer@@": 2702, 
  "schwierigen": 2703, 
  "ut@@": 2704, 
  "Kunden@@": 2705, 
  "wirtschaftlicher": 2706, 
  "näher": 2707, 
  "gelungen": 2708, 
  "zusammenarbeiten": 2709, 
  "3.": 2710, 
  "entwickelten": 2711, 
  "Buch": 2712, 
  "Holz@@": 2713, 
  "teile": 2714, 
  "ss@@": 2715, 
  "Vizepräsident": 2716, 
  "Po@@": 2717, 
  "Versuch": 2718, 
  "Ruhe": 2719, 
  "elektronischen": 2720, 
  "neuesten": 2721, 
  "Slowakei": 2722, 
  "Amt": 2723, 
  "re": 2724, 
  "Bahnhof": 2725, 
  "verlangt": 2726, 
  "Untersuchungen": 2727, 
  "erinnert": 2728, 
  "Center": 2729, 
  "ER": 2730, 
  "trifft": 2731, 
  "ausgesetzt": 2732, 
  "heutige": 2733, 
  "Und": 2734, 
  "menschlichen": 2735, 
  "höher": 2736, 
  "}": 2737, 
  "wissenschaftliche": 2738, 
  "Kategorie": 2739, 
  "öffnen": 2740, 
  "Se@@": 2741, 
  "gebiet": 2742, 
  "früheren": 2743, 
  "service": 2744, 
  "isches": 2745, 
  "zählt": 2746, 
  "w": 2747, 
  "Veröffentlichung": 2748, 
  "stimmt": 2749, 
  "Westen": 2750, 
  "zustimmen": 2751, 
  "Par@@": 2752, 
  "Druck@@": 2753, 
  "Beteiligten": 2754, 
  "fi@@": 2755, 
  "Farben": 2756, 
  "but": 2757, 
  "Binnenmarktes": 2758, 
  "Presse": 2759, 
  "innovative": 2760, 
  "letztlich": 2761, 
  "stehenden": 2762, 
  "Englisch": 2763, 
  "Apartments": 2764, 
  "schafft": 2765, 
  "bekämpfen": 2766, 
  "Klimaanlage": 2767, 
  "Angriff": 2768, 
  "rechten": 2769, 
  "steigen": 2770, 
  "Süden": 2771, 
  "Lebensmittel": 2772, 
  "Gestaltung": 2773, 
  "Planung": 2774, 
  "2015": 2775, 
  "Chancen": 2776, 
  "Spiele": 2777, 
  "durchführen": 2778, 
  "historische": 2779, 
  "höchsten": 2780, 
  "Serie": 2781, 
  "entlang": 2782, 
  "Marktes": 2783, 
  "Klima": 2784, 
  "Roma": 2785, 
  "zeiten": 2786, 
  "Selbst@@": 2787, 
  "Maß": 2788, 
  "Gefühl": 2789, 
  "weisen": 2790, 
  "Zimmern": 2791, 
  "Wirtschaftswachstum": 2792, 
  "Ratspräsident": 2793, 
  "gruppe": 2794, 
  "have": 2795, 
  "Farb@@": 2796, 
  "20.": 2797, 
  "Raums": 2798, 
  "good": 2799, 
  "ell": 2800, 
  "führende": 2801, 
  "ha@@": 2802, 
  "Ober@@": 2803, 
  "System@@": 2804, 
  "Charta": 2805, 
  "Stadtzentrum": 2806, 
  "co@@": 2807, 
  "Wien": 2808, 
  "Schaden": 2809, 
  "Inter@@": 2810, 
  "ismus": 2811, 
  "ts@@": 2812, 
  "verschiedener": 2813, 
  "Fahr@@": 2814, 
  "Gas@@": 2815, 
  "Eigenschaften": 2816, 
  "höheren": 2817, 
  "Organe": 2818, 
  "So@@": 2819, 
  "Energien": 2820, 
  "Praktiken": 2821, 
  "schutz": 2822, 
  "Kooperation": 2823, 
  "sichergestellt": 2824, 
  "beruht": 2825, 
  "ma": 2826, 
  "weitgehend": 2827, 
  "ens@@": 2828, 
  "organisiert": 2829, 
  "Mrd.": 2830, 
  "Microsoft": 2831, 
  "Tra@@": 2832, 
  "ul@@": 2833, 
  "Stunde": 2834, 
  "Verbrechen": 2835, 
  "hilft": 2836, 
  "heraus": 2837, 
  "Stoffe": 2838, 
  "Gästen": 2839, 
  "Stadt@@": 2840, 
  "ali@@": 2841, 
  "festgelegten": 2842, 
  "Erholung": 2843, 
  "Privat@@": 2844, 
  "entscheidender": 2845, 
  "ursprünglichen": 2846, 
  "buchen": 2847, 
  "starten": 2848, 
  "schnelle": 2849, 
  "Umweltschutz": 2850, 
  "Freunde": 2851, 
  "bedeuten": 2852, 
  "Betrag": 2853, 
  "Reise@@": 2854, 
  "St.": 2855, 
  "il@@": 2856, 
  "10@@": 2857, 
  "bequem": 2858, 
  "bei@@": 2859, 
  "Lebens": 2860, 
  "Karten": 2861, 
  "Dialogs": 2862, 
  "rechte": 2863, 
  "ta": 2864, 
  "elektronische": 2865, 
  "EN@@": 2866, 
  "par@@": 2867, 
  "Gott": 2868, 
  "ep@@": 2869, 
  "Handels": 2870, 
  "Wein@@": 2871, 
  "ans": 2872, 
  "Energie@@": 2873, 
  "Google": 2874, 
  "v": 2875, 
  "gemeinschaftlichen": 2876, 
  "Architektur": 2877, 
  "sin@@": 2878, 
  "ana": 2879, 
  "erstmals": 2880, 
  "Anhang": 2881, 
  "bekannten": 2882, 
  "chinesischen": 2883, 
  "Con@@": 2884, 
  "erweitert": 2885, 
  "Geist": 2886, 
  "Körper": 2887, 
  "09": 2888, 
  "Format": 2889, 
  "ca": 2890, 
  "Alter": 2891, 
  "scher": 2892, 
  "vorschriften": 2893, 
  "eb@@": 2894, 
  "Ö@@": 2895, 
  "geschrieben": 2896, 
  "reisen": 2897, 
  "Download": 2898, 
  "ersucht": 2899, 
  "hängt": 2900, 
  "bemühen": 2901, 
  "Besorgnis": 2902, 
  "ent": 2903, 
  "Vereinfachung": 2904, 
  "Küste": 2905, 
  "21.": 2906, 
  "NATO": 2907, 
  "Handeln": 2908, 
  "bemüht": 2909, 
  "Durch@@": 2910, 
  "Umfeld": 2911, 
  "entscheidende": 2912, 
  "Schlüssel@@": 2913, 
  "Flüchtlinge": 2914, 
  "Kontroll@@": 2915, 
  "400": 2916, 
  "#": 2917, 
  "Völker": 2918, 
  "verändert": 2919, 
  "erk@@": 2920, 
  "ausgerichtet": 2921, 
  "Tod": 2922, 
  "Slowenien": 2923, 
  "Übereinstimmung": 2924, 
  "1992": 2925, 
  "Optionen": 2926, 
  "Norden": 2927, 
  "verursacht": 2928, 
  "erfolgreiche": 2929, 
  "notwendige": 2930, 
  "Per@@": 2931, 
  "Z": 2932, 
  "Zuständigkeit": 2933, 
  "fühlen": 2934, 
  "erscheinen": 2935, 
  "lag": 2936, 
  "entschlossen": 2937, 
  "kurze": 2938, 
  "Punkten": 2939, 
  "bestand": 2940, 
  "²": 2941, 
  "Nummer": 2942, 
  "Plattform": 2943, 
  "ernst": 2944, 
  "Musik@@": 2945, 
  "tritt": 2946, 
  "1993": 2947, 
  "berühmten": 2948, 
  "entstanden": 2949, 
  "Car@@": 2950, 
  "Beweis": 2951, 
  "Su@@": 2952, 
  "Beseitigung": 2953, 
  "ausgeschlossen": 2954, 
  "Freude": 2955, 
  "Gerichte": 2956, 
  "Anstieg": 2957, 
  "Zugriff": 2958, 
  "gruppen": 2959, 
  "aktive": 2960, 
  "unverzüglich": 2961, 
  "sorgt": 2962, 
  "Pflicht": 2963, 
  "funktionieren": 2964, 
  "Konflikt": 2965, 
  "Erfüllung": 2966, 
  "echten": 2967, 
  "Verteidigung": 2968, 
  "Ausführungen": 2969, 
  "aufnehmen": 2970, 
  "meist": 2971, 
  "Geräte": 2972, 
  "besitzen": 2973, 
  "Kar@@": 2974, 
  "Materialien": 2975, 
  "Anfragen": 2976, 
  "Zwecke": 2977, 
  "Litauen": 2978, 
  "Kunde": 2979, 
  "annehmen": 2980, 
  "Schulen": 2981, 
  "direkte": 2982, 
  "tut": 2983, 
  "Wohlstand": 2984, 
  "Ausarbeitung": 2985, 
  "losen": 2986, 
  "Überzeugung": 2987, 
  "eigenes": 2988, 
  "Wahl@@": 2989, 
  "Einwanderung": 2990, 
  "Asien": 2991, 
  "Boden": 2992, 
  "Link": 2993, 
  "Gemeinsame": 2994, 
  "il": 2995, 
  "hierfür": 2996, 
  "Hohen": 2997, 
  "systemen": 2998, 
  "Werbung": 2999, 
  "Schiffe": 3000, 
  "wieder@@": 3001, 
  "tet": 3002, 
  "ursprünglich": 3003, 
  "Preisen": 3004, 
  "sozialer": 3005, 
  "Mindest@@": 3006, 
  "leiden": 3007, 
  "Gedanken": 3008, 
  "Studien": 3009, 
  "ziemlich": 3010, 
  "interessiert": 3011, 
  "Finanzierungs@@": 3012, 
  "verhindert": 3013, 
  "Kopf": 3014, 
  "russischen": 3015, 
  "strategische": 3016, 
  "produkte": 3017, 
  "Erhaltung": 3018, 
  "direkten": 3019, 
  "Dauer": 3020, 
  "ungs": 3021, 
  "Kollege": 3022, 
  "Nein": 3023, 
  "tische": 3024, 
  "tischen": 3025, 
  "Hand@@": 3026, 
  "ländliche": 3027, 
  "mann": 3028, 
  "Zentralbank": 3029, 
  "zentrum": 3030, 
  "no@@": 3031, 
  "Mittelmeer": 3032, 
  "‑": 3033, 
  "Fenster": 3034, 
  "kämpfen": 3035, 
  "Sp@@": 3036, 
  "produktion": 3037, 
  "DVD": 3038, 
  "definiert": 3039, 
  "weiter@@": 3040, 
  "lichkeit": 3041, 
  "Werk": 3042, 
  "nachdrücklich": 3043, 
  "Luft": 3044, 
  "eingehalten": 3045, 
  "hervorragende": 3046, 
  "Standard@@": 3047, 
  "Städten": 3048, 
  "Bahn": 3049, 
  "kamen": 3050, 
  "ales": 3051, 
  "Gebrauch": 3052, 
  "bekräftigt": 3053, 
  "Gleichgewicht": 3054, 
  "musste": 3055, 
  "Kommissionsmitglied": 3056, 
  "Unterschied": 3057, 
  "00@@": 3058, 
  "gegebenenfalls": 3059, 
  "Bemerkungen": 3060, 
  "me@@": 3061, 
  "gelöst": 3062, 
  "kan@@": 3063, 
  "Kriminalität": 3064, 
  "Start": 3065, 
  "ru@@": 3066, 
  "Formular": 3067, 
  "Schul@@": 3068, 
  "niemals": 3069, 
  "Maschinen": 3070, 
  "Prozesses": 3071, 
  "Kind": 3072, 
  "geeignete": 3073, 
  "na": 3074, 
  "beigetragen": 3075, 
  "Gegenstand": 3076, 
  "2.@@": 3077, 
  "Details": 3078, 
  "01": 3079, 
  "Foto": 3080, 
  "ähnliche": 3081, 
  "Man@@": 3082, 
  "illegalen": 3083, 
  "Konsultation": 3084, 
  "schlagen": 3085, 
  "Wirklichkeit": 3086, 
  "Test@@": 3087, 
  "aufge@@": 3088, 
  "ausgezeichnete": 3089, 
  "Männern": 3090, 
  "deiner": 3091, 
  "Element": 3092, 
  "out": 3093, 
  "150": 3094, 
  "Umgang": 3095, 
  "Vi@@": 3096, 
  "Kapitel": 3097, 
  "Vertretern": 3098, 
  "verleihen": 3099, 
  "ungefähr": 3100, 
  "einbezogen": 3101, 
  "sonstige": 3102, 
  "14@@": 3103, 
  "einzu@@": 3104, 
  "humanitären": 3105, 
  "Lebensmittel@@": 3106, 
  "Alternative": 3107, 
  "Kunst@@": 3108, 
  "untersucht": 3109, 
  "ehemalige": 3110, 
  "vereinbart": 3111, 
  "Lo@@": 3112, 
  "Europe": 3113, 
  "bestätigen": 3114, 
  "lose": 3115, 
  "infolge": 3116, 
  "französische": 3117, 
  "su@@": 3118, 
  "Regime": 3119, 
  "Ratsvorsitz": 3120, 
  "langfristig": 3121, 
  "tra@@": 3122, 
  "Frist": 3123, 
  "Euro@@": 3124, 
  "pf@@": 3125, 
  "City": 3126, 
  "Abschnitt": 3127, 
  "Einkommen": 3128, 
  "jemand": 3129, 
  "platz": 3130, 
  "vorhandenen": 3131, 
  "Regierungskonferenz": 3132, 
  "Bild@@": 3133, 
  "GAP": 3134, 
  "Websites": 3135, 
  "testen": 3136, 
  "Garantie": 3137, 
  "gebieten": 3138, 
  "Wahrheit": 3139, 
  "britische": 3140, 
  "tieren": 3141, 
  "schön": 3142, 
  "Kanada": 3143, 
  "Komponenten": 3144, 
  "ß@@": 3145, 
  "öffentlicher": 3146, 
  "lagen": 3147, 
  "Beifall": 3148, 
  "ersetzt": 3149, 
  "behalten": 3150, 
  "erlassen": 3151, 
  "gesch@@": 3152, 
  "getragen": 3153, 
  "Betriebs@@": 3154, 
  "con@@": 3155, 
  "einheitliche": 3156, 
  "Vorsitzes": 3157, 
  "Pi@@": 3158, 
  "einfachen": 3159, 
  "Minderheiten": 3160, 
  "erfolgreichen": 3161, 
  "Beschäftigungs@@": 3162, 
  "Code": 3163, 
  "übernimmt": 3164, 
  "beteiligten": 3165, 
  "Kontext": 3166, 
  "schicken": 3167, 
  "Kapital@@": 3168, 
  "jegliche": 3169, 
  "Straßen": 3170, 
  "Akteure": 3171, 
  "Ausführung": 3172, 
  "sinnvoll": 3173, 
  "berg": 3174, 
  "Hafen": 3175, 
  "investieren": 3176, 
  "ner": 3177, 
  "Reduzierung": 3178, 
  "Ausstattung": 3179, 
  "umgeben": 3180, 
  "Bus": 3181, 
  "mitten": 3182, 
  "beraten": 3183, 
  "abgelehnt": 3184, 
  "á@@": 3185, 
  "verfügbaren": 3186, 
  "Kur@@": 3187, 
  "praktische": 3188, 
  "lautet": 3189, 
  "gebiete": 3190, 
  "langfristigen": 3191, 
  "verbringen": 3192, 
  "fest@@": 3193, 
  "go": 3194, 
  "ra": 3195, 
  "Geschäfte": 3196, 
  "verurteilt": 3197, 
  "Or@@": 3198, 
  "installiert": 3199, 
  "gestatten": 3200, 
  "Regierungschefs": 3201, 
  "bisherigen": 3202, 
  "vieler": 3203, 
  "°": 3204, 
  "breiten": 3205, 
  "geb@@": 3206, 
  "last": 3207, 
  "produziert": 3208, 
  "Eltern": 3209, 
  "falsch": 3210, 
  "folglich": 3211, 
  "liefert": 3212, 
  "Le@@": 3213, 
  "Vereinigte": 3214, 
  "Jugend": 3215, 
  "anbelangt": 3216, 
  "sches": 3217, 
  "Rechtsstaatlichkeit": 3218, 
  "í@@": 3219, 
  "ergänzt": 3220, 
  "Qualitäts@@": 3221, 
  "Kontakte": 3222, 
  "Chinas": 3223, 
  "überprüft": 3224, 
  "gewähren": 3225, 
  "location": 3226, 
  "werk": 3227, 
  "Ausgangspunkt": 3228, 
  "tre@@": 3229, 
  "bestimmen": 3230, 
  "gte": 3231, 
  "Erstellung": 3232, 
  "präsentiert": 3233, 
  "regeln": 3234, 
  "Prinzipien": 3235, 
  "sti@@": 3236, 
  "Enterprise": 3237, 
  "Pläne": 3238, 
  "klaren": 3239, 
  "Konsens": 3240, 
  "11.": 3241, 
  "inter@@": 3242, 
  "Sprach@@": 3243, 
  "4.": 3244, 
  "internen": 3245, 
  "Tri@@": 3246, 
  "Winter": 3247, 
  "Vertragsverletzungsverfahren": 3248, 
  "Wirtschaftspolitik": 3249, 
  "sichere": 3250, 
  "Rom": 3251, 
  "derzeitige": 3252, 
  "übrigens": 3253, 
  "End@@": 3254, 
  "Problems": 3255, 
  "Programm@@": 3256, 
  "gs": 3257, 
  "PDF": 3258, 
  "des@@": 3259, 
  "ben@@": 3260, 
  "Haftung": 3261, 
  "ausgezeichneten": 3262, 
  "einig": 3263, 
  "begrenzt": 3264, 
  "Transport": 3265, 
  "ums": 3266, 
  "Beziehung": 3267, 
  "unabhängigen": 3268, 
  "Projekt@@": 3269, 
  "Mensch": 3270, 
  "Bedrohung": 3271, 
  "weise": 3272, 
  "Tisch": 3273, 
  "ort": 3274, 
  "Wirksamkeit": 3275, 
  "Wein": 3276, 
  "regionaler": 3277, 
  "EWG": 3278, 
  "Ausstellung": 3279, 
  "pi@@": 3280, 
  "sorgfältig": 3281, 
  "extrem": 3282, 
  "Hindernisse": 3283, 
  "Zahlungs@@": 3284, 
  "schönsten": 3285, 
  "ausgesprochen": 3286, 
  "Niederlanden": 3287, 
  "Golf": 3288, 
  "Brasilien": 3289, 
  "sehe": 3290, 
  "800": 3291, 
  "zieht": 3292, 
  "Ambiente": 3293, 
  "up": 3294, 
  "Öl@@": 3295, 
  "Außenpolitik": 3296, 
  "Institution": 3297, 
  "Freizügigkeit": 3298, 
  "Potenzial": 3299, 
  "besonderer": 3300, 
  "welchem": 3301, 
  "genannte": 3302, 
  "vorher": 3303, 
  "institutionellen": 3304, 
  "Klein@@": 3305, 
  "Ex@@": 3306, 
  "griechischen": 3307, 
  "Grenz@@": 3308, 
  "festzulegen": 3309, 
  "Gegen@@": 3310, 
  "entsteht": 3311, 
  "ou@@": 3312, 
  "integrierten": 3313, 
  "Staates": 3314, 
  "gespielt": 3315, 
  "dienst": 3316, 
  "reduzieren": 3317, 
  "gestärkt": 3318, 
  "Studenten": 3319, 
  "Post@@": 3320, 
  "stärkere": 3321, 
  "verkaufen": 3322, 
  "Künstler": 3323, 
  "Si@@": 3324, 
  "fordere": 3325, 
  "DIE": 3326, 
  "Barroso": 3327, 
  "bezahlen": 3328, 
  "stellung": 3329, 
  "chten": 3330, 
  "kurzen": 3331, 
  "Anlass": 3332, 
  "1990": 3333, 
  "geplanten": 3334, 
  "and@@": 3335, 
  "98": 3336, 
  "ob@@": 3337, 
  "Badezimmer": 3338, 
  "ruhigen": 3339, 
  "Fernseh@@": 3340, 
  "bedeutende": 3341, 
  "Energieeffizienz": 3342, 
  "ation@@": 3343, 
  "33": 3344, 
  "Korruption": 3345, 
  "management": 3346, 
  "Angst": 3347, 
  "fördert": 3348, 
  "ähnlich": 3349, 
  "vollem": 3350, 
  "Eigentum": 3351, 
  "cher": 3352, 
  "Fahrzeuge": 3353, 
  "normalerweise": 3354, 
  "Ministerium": 3355, 
  "Klasse": 3356, 
  "wonach": 3357, 
  "effiziente": 3358, 
  "essen": 3359, 
  "lu@@": 3360, 
  "unmöglich": 3361, 
  "Estland": 3362, 
  "Arbeitsplatz": 3363, 
  "Kohäsionspolitik": 3364, 
  "Runde": 3365, 
  "Bucht": 3366, 
  "Kamera": 3367, 
  "gu@@": 3368, 
  "AN@@": 3369, 
  "95": 3370, 
  "bau": 3371, 
  "hervorheben": 3372, 
  "betrieben": 3373, 
  "dern": 3374, 
  "wirtschaftlich": 3375, 
  "unterliegen": 3376, 
  "form": 3377, 
  "Investitions@@": 3378, 
  "äußern": 3379, 
  "mittleren": 3380, 
  "riesigen": 3381, 
  "Gewicht": 3382, 
  "wer@@": 3383, 
  "Nachrichten": 3384, 
  "99": 3385, 
  "Identität": 3386, 
  "Sicherung": 3387, 
  "Durchsetzung": 3388, 
  "unabhängige": 3389, 
  "geplant": 3390, 
  "dir": 3391, 
  "Branche": 3392, 
  "Bu@@": 3393, 
  "entgegen": 3394, 
  "Tonnen": 3395, 
  "ve": 3396, 
  "cken": 3397, 
  "Überlegungen": 3398, 
  "einzigartige": 3399, 
  "Ebenen": 3400, 
  "umfassen": 3401, 
  "konzentriert": 3402, 
  "Übersetzung": 3403, 
  "angesehen": 3404, 
  "Bestellung": 3405, 
  "13@@": 3406, 
  "ds": 3407, 
  "UNO": 3408, 
  "formen": 3409, 
  "5.": 3410, 
  "gratulieren": 3411, 
  "aler": 3412, 
  "überzeugen": 3413, 
  "gestaltet": 3414, 
  "29": 3415, 
  "verändern": 3416, 
  "ausgeführt": 3417, 
  "regelung": 3418, 
  "schauen": 3419, 
  "Verfahrens": 3420, 
  "Zusammenhalt": 3421, 
  "ant": 3422, 
  "Rechtsgrundlage": 3423, 
  "verehrte": 3424, 
  "Ratspräsidentschaft": 3425, 
  "Dorf": 3426, 
  "Systemen": 3427, 
  "ell@@": 3428, 
  "Ausgabe": 3429, 
  "Luft@@": 3430, 
  "bau@@": 3431, 
  "IN@@": 3432, 
  "anzu@@": 3433, 
  "bo@@": 3434, 
  "chte": 3435, 
  "EZB": 3436, 
  "Einwohner": 3437, 
  "individuelle": 3438, 
  "Ziel@@": 3439, 
  "verstanden": 3440, 
  "einfacher": 3441, 
  "ati@@": 3442, 
  "offene": 3443, 
  "wollten": 3444, 
  "verkauft": 3445, 
  "zurückzuführen": 3446, 
  "Lettland": 3447, 
  "berechtigt": 3448, 
  "hingegen": 3449, 
  "entspannen": 3450, 
  "ft": 3451, 
  "digitalen": 3452, 
  "Sektors": 3453, 
  "how": 3454, 
  "gebaut": 3455, 
  "einzusetzen": 3456, 
  "Dusche": 3457, 
  "sodass": 3458, 
  "Premierminister": 3459, 
  "einschlägigen": 3460, 
  "menschliche": 3461, 
  "Kräfte": 3462, 
  "heit": 3463, 
  "vorbereitet": 3464, 
  "frei@@": 3465, 
  "j": 3466, 
  "Ã": 3467, 
  "ir@@": 3468, 
  "überein": 3469, 
  "Internet@@": 3470, 
  "Förder@@": 3471, 
  "ho@@": 3472, 
  "Mikro@@": 3473, 
  "Erreichung": 3474, 
  "interessante": 3475, 
  "schlecht": 3476, 
  "zugrunde": 3477, 
  "egal": 3478, 
  "S.": 3479, 
  "steigern": 3480, 
  "auszu@@": 3481, 
  "letztendlich": 3482, 
  "ec@@": 3483, 
  "richtet": 3484, 
  "Fassung": 3485, 
  "ex@@": 3486, 
  "Serbien": 3487, 
  "gezwungen": 3488, 
  "Behörde": 3489, 
  "Regierungs@@": 3490, 
  "gespeichert": 3491, 
  "Signal": 3492, 
  "Kurs": 3493, 
  "Nicht@@": 3494, 
  "31": 3495, 
  "go@@": 3496, 
  "grenzüberschreitenden": 3497, 
  "abgestimmt": 3498, 
  "mittlerweile": 3499, 
  "Newsletter": 3500, 
  "Überblick": 3501, 
  "versch@@": 3502, 
  "Errichtung": 3503, 
  "geboren": 3504, 
  "besorgt": 3505, 
  "Delegationen": 3506, 
  "erter": 3507, 
  "offiziellen": 3508, 
  "Norwegen": 3509, 
  "Group": 3510, 
  "rufen": 3511, 
  "Krankheit": 3512, 
  "konfrontiert": 3513, 
  "München": 3514, 
  "Einheit": 3515, 
  "Verarbeitung": 3516, 
  "Bereitschaft": 3517, 
  "beobachten": 3518, 
  "organisieren": 3519, 
  "wei@@": 3520, 
  "36": 3521, 
  "Übergang": 3522, 
  "Rückkehr": 3523, 
  "Lieferung": 3524, 
  "Finanzkrise": 3525, 
  "Vision": 3526, 
  "Mission": 3527, 
  "™": 3528, 
  "Marke": 3529, 
  "alt": 3530, 
  "Farbe": 3531, 
  "effizient": 3532, 
  "angegeben": 3533, 
  "18.": 3534, 
  "größer": 3535, 
  "Deutschen": 3536, 
  "Wandel": 3537, 
  "Costa": 3538, 
  "Werke": 3539, 
  "Mio": 3540, 
  "Ber@@": 3541, 
  "Essen": 3542, 
  "Mechanismen": 3543, 
  "senken": 3544, 
  "erhielt": 3545, 
  "bu@@": 3546, 
  "gten": 3547, 
  "bericht": 3548, 
  "angewandt": 3549, 
  "abgesehen": 3550, 
  "Bosnien": 3551, 
  "Steigerung": 3552, 
  "verkehr": 3553, 
  "Buchung": 3554, 
  "Projekts": 3555, 
  "Madrid": 3556, 
  "con": 3557, 
  "Post": 3558, 
  "Abschaffung": 3559, 
  "Einstellungen": 3560, 
  "Kilometer": 3561, 
  "ck": 3562, 
  "wirtschaft": 3563, 
  "your": 3564, 
  "bel@@": 3565, 
  "Vorstellung": 3566, 
  "serviert": 3567, 
  "Agrar@@": 3568, 
  "W": 3569, 
  "Qu@@": 3570, 
  "0,@@": 3571, 
  "Nachhaltigkeit": 3572, 
  "ec.europa.eu": 3573, 
  "angemessenen": 3574, 
  "AR@@": 3575, 
  "leistungen": 3576, 
  "effektiv": 3577, 
  "Gegend": 3578, 
  "III": 3579, 
  "Vorlage": 3580, 
  "Investoren": 3581, 
  "gerichtet": 3582, 
  "traditionelle": 3583, 
  "genden": 3584, 
  "europäisches": 3585, 
  "feld": 3586, 
  "enthaltenen": 3587, 
  "solches": 3588, 
  "richtlinie": 3589, 
  "Senkung": 3590, 
  "angepasst": 3591, 
  "Ware": 3592, 
  "schriftliche": 3593, 
  "gewonnen": 3594, 
  "passiert": 3595, 
  "beglückwünschen": 3596, 
  "umfangreiche": 3597, 
  "Lu@@": 3598, 
  "ersetzen": 3599, 
  "enger": 3600, 
  "ran@@": 3601, 
  "Änderungsanträgen": 3602, 
  "fehlt": 3603, 
  "af@@": 3604, 
  "diesbezüglich": 3605, 
  "Verbraucherschutz": 3606, 
  "fall": 3607, 
  "tion": 3608, 
  "eri@@": 3609, 
  "Leistungs@@": 3610, 
  "Kauf": 3611, 
  "Gefahren": 3612, 
  "Übereinkommens": 3613, 
  "Mangel": 3614, 
  "wirksamen": 3615, 
  "Ch@@": 3616, 
  "kostet": 3617, 
  "genügend": 3618, 
  "EWSA": 3619, 
  "anti@@": 3620, 
  "en-": 3621, 
  "Teil@@": 3622, 
  "Viertel": 3623, 
  "tu@@": 3624, 
  "Polizei": 3625, 
  "De": 3626, 
  "Staats-": 3627, 
  "Plenum": 3628, 
  "schutz@@": 3629, 
  "eingereicht": 3630, 
  "Bestimmung": 3631, 
  "Schlafzimmer": 3632, 
  "Stück": 3633, 
  "Drittel": 3634, 
  "vorstellen": 3635, 
  "¤": 3636, 
  "Freiheiten": 3637, 
  "machte": 3638, 
  "Netze": 3639, 
  "Mi@@": 3640, 
  "....": 3641, 
  "Auge": 3642, 
  "Mechanismus": 3643, 
  "Grad": 3644, 
  "entwickelte": 3645, 
  "militärischen": 3646, 
  "hervorgehoben": 3647, 
  "02": 3648, 
  "can": 3649, 
  "ven@@": 3650, 
  "AL@@": 3651, 
  "gemeinsamer": 3652, 
  "Her@@": 3653, 
  "läßt": 3654, 
  "Island": 3655, 
  "entwicklung": 3656, 
  "sicheren": 3657, 
  "besch@@": 3658, 
  "erreichbar": 3659, 
  "Spa": 3660, 
  "Zoll@@": 3661, 
  "Einzelheiten": 3662, 
  "Versorgung": 3663, 
  "ergibt": 3664, 
  "3.@@": 3665, 
  "Gleichstellung": 3666, 
  "großem": 3667, 
  "rein": 3668, 
  "Fischerei@@": 3669, 
  "verbinden": 3670, 
  "einrichtungen": 3671, 
  "Verteilung": 3672, 
  "wiederholt": 3673, 
  "jenen": 3674, 
  "installieren": 3675, 
  "leichter": 3676, 
  "individuellen": 3677, 
  "Eurozone": 3678, 
  "12@@": 3679, 
  "CH@@": 3680, 
  "tz@@": 3681, 
  "erheblichen": 3682, 
  "Ausrichtung": 3683, 
  "erfordern": 3684, 
  "tr@@": 3685, 
  "sicherheit": 3686, 
  "Mitarbeitern": 3687, 
  "1991": 3688, 
  "dar@@": 3689, 
  "wohnen": 3690, 
  "hinzufügen": 3691, 
  "Provinz": 3692, 
  "beschrieben": 3693, 
  "Wünsche": 3694, 
  "Pool": 3695, 
  "reduziert": 3696, 
  "verringert": 3697, 
  "Öffnung": 3698, 
  "gestattet": 3699, 
  "beschäftigen": 3700, 
  "integriert": 3701, 
  "una": 3702, 
  "Star": 3703, 
  "vereinbar": 3704, 
  "perfekt": 3705, 
  "Wohn@@": 3706, 
  "Mazedonien": 3707, 
  "gesellschaft": 3708, 
  "Sorgen": 3709, 
  "Malta": 3710, 
  "vous": 3711, 
  "ieren": 3712, 
  "inmitten": 3713, 
  "umsetzen": 3714, 
  "ha": 3715, 
  "ters": 3716, 
  "druck": 3717, 
  "Sonne": 3718, 
  "geboten": 3719, 
  "sogenannten": 3720, 
  "15.": 3721, 
  "eingegangen": 3722, 
  "Beschränkungen": 3723, 
  "pre@@": 3724, 
  "Verlust": 3725, 
  "Webseiten": 3726, 
  "vollständigen": 3727, 
  "55": 3728, 
  "Schlüssel": 3729, 
  "Meeres@@": 3730, 
  "landwirtschaftlichen": 3731, 
  "Bank@@": 3732, 
  "Fischer": 3733, 
  "nahmen": 3734, 
  "verboten": 3735, 
  "Katastrophe": 3736, 
  "ach@@": 3737, 
  "endes": 3738, 
  "Steuerung": 3739, 
  "Nachricht": 3740, 
  "gearbeitet": 3741, 
  "IN": 3742, 
  "übermittelt": 3743, 
  "ari@@": 3744, 
  "vermitteln": 3745, 
  "Verbrauchern": 3746, 
  "vieles": 3747, 
  "Zuge": 3748, 
  "Rahmenbedingungen": 3749, 
  "bewältigen": 3750, 
  "hei@@": 3751, 
  "page": 3752, 
  "via": 3753, 
  "Ziffer": 3754, 
  "mussten": 3755, 
  "erörtert": 3756, 
  "eller": 3757, 
  "Rest": 3758, 
  "scheinen": 3759, 
  "Ausmaß": 3760, 
  "zentral": 3761, 
  "Bildungs@@": 3762, 
  "verstärkte": 3763, 
  "technik": 3764, 
  "verdient": 3765, 
  "digitale": 3766, 
  "Quellen": 3767, 
  "politisches": 3768, 
  "jährlichen": 3769, 
  "48": 3770, 
  "Quelle": 3771, 
  "vereinbarten": 3772, 
  "34": 3773, 
  "fe": 3774, 
  "preise": 3775, 
  "verteilt": 3776, 
  "Pro": 3777, 
  "militärische": 3778, 
  "stattdessen": 3779, 
  "Kopenhagen": 3780, 
  "Versammlung": 3781, 
  "he": 3782, 
  "ms": 3783, 
  "Ni@@": 3784, 
  "Liebe": 3785, 
  "optimale": 3786, 
  "6.": 3787, 
  "Gra@@": 3788, 
  "Bundes@@": 3789, 
  "herrscht": 3790, 
  "Funktionieren": 3791, 
  "Modelle": 3792, 
  "berichten": 3793, 
  "langsam": 3794, 
  "Ergebnissen": 3795, 
  "fonds": 3796, 
  "ener@@": 3797, 
  "generell": 3798, 
  "gerät": 3799, 
  "freundlich": 3800, 
  "Informationsgesellschaft": 3801, 
  "Wiederaufbau": 3802, 
  "Casino": 3803, 
  "lin@@": 3804, 
  "externen": 3805, 
  "Band": 3806, 
  "umfassend": 3807, 
  "Währungsunion": 3808, 
  "jener": 3809, 
  "Nachbarn": 3810, 
  "beabsichtigt": 3811, 
  "neun": 3812, 
  "TEN": 3813, 
  "dich": 3814, 
  "Know": 3815, 
  "Militär@@": 3816, 
  "programms": 3817, 
  "ergänzen": 3818, 
  "schweren": 3819, 
  "Gu@@": 3820, 
  "bauen": 3821, 
  "Tour": 3822, 
  "Ansichten": 3823, 
  "hohem": 3824, 
  "Geld@@": 3825, 
  "Regulierung": 3826, 
  "res": 3827, 
  "bereiche": 3828, 
  "Sal@@": 3829, 
  "natürliche": 3830, 
  "see": 3831, 
  "betreiben": 3832, 
  "rechnen": 3833, 
  "barer": 3834, 
  "EWR": 3835, 
  "gewissen": 3836, 
  "WLAN": 3837, 
  "tri@@": 3838, 
  "Perspektive": 3839, 
  "kl@@": 3840, 
  "ly": 3841, 
  "rei@@": 3842, 
  "komme": 3843, 
  "aktivieren": 3844, 
  "tion@@": 3845, 
  "Befugnisse": 3846, 
  "rooms": 3847, 
  "erteilt": 3848, 
  "Frei@@": 3849, 
  "pp@@": 3850, 
  "03": 3851, 
  "co": 3852, 
  "wesentlicher": 3853, 
  "Grand": 3854, 
  "Außen@@": 3855, 
  "Migration": 3856, 
  "Bewältigung": 3857, 
  "einzuführen": 3858, 
  "voll@@": 3859, 
  "unterschiedlich": 3860, 
  "außerordentlich": 3861, 
  "Stimmen": 3862, 
  "Kapital": 3863, 
  "Wahrung": 3864, 
  "geplante": 3865, 
  "Faktor": 3866, 
  "Ausweitung": 3867, 
  "Browser": 3868, 
  "Verletzung": 3869, 
  "enge": 3870, 
  "za": 3871, 
  "Glaubwürdigkeit": 3872, 
  "Weiteren": 3873, 
  "breakfast": 3874, 
  "Wirtschaftskrise": 3875, 
  "insofern": 3876, 
  "600": 3877, 
  "Lehr@@": 3878, 
  "erzeugt": 3879, 
  "aussprechen": 3880, 
  "Regionalpolitik": 3881, 
  "wachsenden": 3882, 
  "anischen": 3883, 
  "Rei@@": 3884, 
  "auswirken": 3885, 
  "beschränken": 3886, 
  "mon@@": 3887, 
  "Open": 3888, 
  "bilateralen": 3889, 
  "Stufe": 3890, 
  "hochwertige": 3891, 
  "nicht@@": 3892, 
  "Personal@@": 3893, 
  "gebeten": 3894, 
  "Gerichtshofs": 3895, 
  "07": 3896, 
  "Kampagne": 3897, 
  "Kulturen": 3898, 
  "errichtet": 3899, 
  "Konsequenzen": 3900, 
  "ES": 3901, 
  "hoffentlich": 3902, 
  "Familien@@": 3903, 
  "Schengen": 3904, 
  "son": 3905, 
  "det": 3906, 
  "auftreten": 3907, 
  "Jean": 3908, 
  "vo@@": 3909, 
  "Ä@@": 3910, 
  "teten": 3911, 
  "Hostels": 3912, 
  "ku@@": 3913, 
  "Herbst": 3914, 
  "Frankfurt": 3915, 
  "vorgelegten": 3916, 
  "Leitung": 3917, 
  "Betreiber": 3918, 
  "stolz": 3919, 
  "zeit@@": 3920, 
  "08": 3921, 
  "97": 3922, 
  "ko": 3923, 
  "Haushaltsplan": 3924, 
  "unterscheiden": 3925, 
  "inklusive": 3926, 
  "barkeit": 3927, 
  "Mandat": 3928, 
  "rück@@": 3929, 
  "Com@@": 3930, 
  "Medien@@": 3931, 
  "•": 3932, 
  "Investitionsbank": 3933, 
  "aufzu@@": 3934, 
  "tan@@": 3935, 
  "ausgezeichnet": 3936, 
  "Michael": 3937, 
  "Flughäfen": 3938, 
  "kontaktieren": 3939, 
  "Y": 3940, 
  "Pre@@": 3941, 
  "Innovationen": 3942, 
  "zugute": 3943, 
  "festzustellen": 3944, 
  "wi@@": 3945, 
  "Versionen": 3946, 
  "lan@@": 3947, 
  "tigen": 3948, 
  "Haus@@": 3949, 
  "Eisenbahn@@": 3950, 
  "va": 3951, 
  "konkret": 3952, 
  "del@@": 3953, 
  "John": 3954, 
  "ler@@": 3955, 
  "anzuwenden": 3956, 
  "rechtzeitig": 3957, 
  "wiederholen": 3958, 
  "ser": 3959, 
  "Veränderung": 3960, 
  "angegebenen": 3961, 
  "Balkon": 3962, 
  "tige": 3963, 
  "65": 3964, 
  "Kyoto": 3965, 
  "ruhig": 3966, 
  "verbindet": 3967, 
  "erhoben": 3968, 
  "gefallen": 3969, 
  "Touristen": 3970, 
  "lei@@": 3971, 
  "Tier@@": 3972, 
  "hi@@": 3973, 
  "Vorausschau": 3974, 
  "Freunden": 3975, 
  "West@@": 3976, 
  "Sicherheitspolitik": 3977, 
  "ver": 3978, 
  "Maria": 3979, 
  "Kal@@": 3980, 
  "wahren": 3981, 
  "Dokumenten": 3982, 
  "Standort": 3983, 
  "kt": 3984, 
  "beseitigen": 3985, 
  "Liefer@@": 3986, 
  "Gang": 3987, 
  "Protokolls": 3988, 
  "legte": 3989, 
  "Nord@@": 3990, 
  "aktiven": 3991, 
  "Player": 3992, 
  "7.": 3993, 
  "96": 3994, 
  "PL": 3995, 
  "Sauna": 3996, 
  "gelingt": 3997, 
  "Anbetracht": 3998, 
  "Prozesse": 3999, 
  "Studio": 4000, 
  "erleichtert": 4001, 
  "ausgewählt": 4002, 
  "Dis@@": 4003, 
  "Positionen": 4004, 
  "effizienter": 4005, 
  "programmen": 4006, 
  "Unterzeichnung": 4007, 
  "kontrolliert": 4008, 
  "Kompetenzen": 4009, 
  "normalen": 4010, 
  "angewendet": 4011, 
  "netz": 4012, 
  "1,@@": 4013, 
  "allzu": 4014, 
  "bewerten": 4015, 
  "kleines": 4016, 
  "Stellungnahmen": 4017, 
  "Tschechische": 4018, 
  "uneingeschränkt": 4019, 
  "IWF": 4020, 
  "Gelder": 4021, 
  "bewertet": 4022, 
  "Stein@@": 4023, 
  "Gerechtigkeit": 4024, 
  "Alle": 4025, 
  "Belarus": 4026, 
  "Air": 4027, 
  "vorgestellt": 4028, 
  "Rückgang": 4029, 
  "gende": 4030, 
  "ah@@": 4031, 
  "schließt": 4032, 
  "Du@@": 4033, 
  "AS@@": 4034, 
  "Übertragung": 4035, 
  "struktur": 4036, 
  "Wettbewerbs": 4037, 
  "seite": 4038, 
  "Verbraucher@@": 4039, 
  "Wohnung": 4040, 
  "rat": 4041, 
  "17.": 4042, 
  "voraus": 4043, 
  "las": 4044, 
  "Bemerkung": 4045, 
  "Konflikte": 4046, 
  "gemeinsames": 4047, 
  "Station": 4048, 
  "eng@@": 4049, 
  "produkten": 4050, 
  "Weiterentwicklung": 4051, 
  "Situationen": 4052, 
  "enz@@": 4053, 
  "Manager": 4054, 
  "Mal@@": 4055, 
  "my": 4056, 
  "Verlauf": 4057, 
  "weltweite": 4058, 
  "Strom@@": 4059, 
  "Inkrafttreten": 4060, 
  "Entschlossenheit": 4061, 
  "sprach": 4062, 
  "vorliegen": 4063, 
  "jetzigen": 4064, 
  "Ski@@": 4065, 
  "praktischen": 4066, 
  "end@@": 4067, 
  "Wir": 4068, 
  "gelangt": 4069, 
  "onen": 4070, 
  "bus": 4071, 
  "irischen": 4072, 
  "Entlastung": 4073, 
  "Marken": 4074, 
  "beantworten": 4075, 
  "Papier": 4076, 
  "eu@@": 4077, 
  "EL@@": 4078, 
  "sur": 4079, 
  "Ägypten": 4080, 
  "UN@@": 4081, 
  "finanzieren": 4082, 
  "Regional@@": 4083, 
  "eingestellt": 4084, 
  "haus": 4085, 
  "stadt": 4086, 
  "Konto": 4087, 
  "Deutsche": 4088, 
  "gem": 4089, 
  "Chancengleichheit": 4090, 
  "Sammlung": 4091, 
  "Test": 4092, 
  "Pakistan": 4093, 
  "Berichten": 4094, 
  "gleichermaßen": 4095, 
  "befasst": 4096, 
  "behaupten": 4097, 
  "erheben": 4098, 
  "Wesentlichen": 4099, 
  "untersuchen": 4100, 
  "kontrollieren": 4101, 
  "Mexiko": 4102, 
  "interessant": 4103, 
  "müssten": 4104, 
  "Verabschiedung": 4105, 
  "Aufforderung": 4106, 
  "erzielten": 4107, 
  "gel": 4108, 
  "bestellen": 4109, 
  "stärksten": 4110, 
  "anlage": 4111, 
  "brachte": 4112, 
  "Abhängigkeit": 4113, 
  "wachsen": 4114, 
  "form@@": 4115, 
  "Agenturen": 4116, 
  "8.": 4117, 
  "individuell": 4118, 
  "beendet": 4119, 
  "Statistiken": 4120, 
  "there": 4121, 
  "Live": 4122, 
  "wirken": 4123, 
  "fer": 4124, 
  "he@@": 4125, 
  "Peter": 4126, 
  "Syrien": 4127, 
  "ator": 4128, 
  "stoffe": 4129, 
  "160": 4130, 
  "organisierten": 4131, 
  "PUNKTE": 4132, 
  "Au@@": 4133, 
  "Ernährung": 4134, 
  "Ru@@": 4135, 
  "einzigartigen": 4136, 
  "Widerspruch": 4137, 
  "anwesend": 4138, 
  "zielt": 4139, 
  "Arbeitnehmern": 4140, 
  "Volkswirtschaften": 4141, 
  "Zahlung": 4142, 
  "16.": 4143, 
  "geregelt": 4144, 
  "fort": 4145, 
  "Pakete": 4146, 
  "DES": 4147, 
  "Ursachen": 4148, 
  "angebot": 4149, 
  "Vertrages": 4150, 
  "berufliche": 4151, 
  "einzelstaatlichen": 4152, 
  "tisch": 4153, 
  "El": 4154, 
  "Außen-": 4155, 
  "negativen": 4156, 
  "zurzeit": 4157, 
  "si": 4158, 
  "CO@@": 4159, 
  "beruflichen": 4160, 
  "mer": 4161, 
  "illegale": 4162, 
  "mer@@": 4163, 
  "speichern": 4164, 
  "fassen": 4165, 
  "pour": 4166, 
  "geräte": 4167, 
  "wünsche": 4168, 
  "Le": 4169, 
  "Vater": 4170, 
  "Fernsehen": 4171, 
  "Büro": 4172, 
  "erlebt": 4173, 
  "Rechten": 4174, 
  "größeres": 4175, 
  "zukünftigen": 4176, 
  "Kommunikations@@": 4177, 
  "schrittweise": 4178, 
  "eins": 4179, 
  "punkt": 4180, 
  "Großteil": 4181, 
  "Morgen": 4182, 
  "italienische": 4183, 
  "zentren": 4184, 
  "preis": 4185, 
  "anwenden": 4186, 
  "dans": 4187, 
  "Firmen@@": 4188, 
  "Dritten": 4189, 
  "its": 4190, 
  "Messe": 4191, 
  "4.@@": 4192, 
  "Bal@@": 4193, 
  "Anmeldung": 4194, 
  "qualität": 4195, 
  "bar@@": 4196, 
  "min@@": 4197, 
  "str@@": 4198, 
  "Bars": 4199, 
  "Gerät": 4200, 
  "Kapazitäten": 4201, 
  "ISO": 4202, 
  "EL": 4203, 
  "OS": 4204, 
  "Spaß": 4205, 
  "unterstreichen": 4206, 
  "derer": 4207, 
  "Vertrags@@": 4208, 
  "Öl": 4209, 
  "bes@@": 4210, 
  "aller@@": 4211, 
  "verteidigen": 4212, 
  "geprägt": 4213, 
  "Kategorien": 4214, 
  "wirkt": 4215, 
  "IS": 4216, 
  "integrierte": 4217, 
  "Computer@@": 4218, 
  "leiten": 4219, 
  "had": 4220, 
  "mar@@": 4221, 
  "modern": 4222, 
  "tig": 4223, 
  "überwachen": 4224, 
  "sta@@": 4225, 
  "ständigen": 4226, 
  "siert": 4227, 
  "Geschäft": 4228, 
  "18@@": 4229, 
  "projekte": 4230, 
  "Abbau": 4231, 
  "Bedürfnissen": 4232, 
  "genaue": 4233, 
  "festlegen": 4234, 
  "Film@@": 4235, 
  "empfohlen": 4236, 
  "elt": 4237, 
  "Betriebe": 4238, 
  "Fest@@": 4239, 
  "wagen": 4240, 
  "Gemeinde": 4241, 
  "Beachtung": 4242, 
  "Kontinent": 4243, 
  "Anreize": 4244, 
  "entscheidenden": 4245, 
  "Generationen": 4246, 
  "gh@@": 4247, 
  "Red": 4248, 
  "festen": 4249, 
  "grenzüberschreitende": 4250, 
  "Entwicklungshilfe": 4251, 
  "Besteuerung": 4252, 
  "Jugendlichen": 4253, 
  "mitteilen": 4254, 
  "zukünftige": 4255, 
  "momentan": 4256, 
  "aufgebaut": 4257, 
  "Lebensmittelsicherheit": 4258, 
  "kraft": 4259, 
  "bekannte": 4260, 
  "wunderschönen": 4261, 
  "endgültigen": 4262, 
  "tief": 4263, 
  "ino": 4264, 
  "Jahres@@": 4265, 
  "vornehmen": 4266, 
  "ziele": 4267, 
  "knapp": 4268, 
  "BSE": 4269, 
  "EADS": 4270, 
  "är@@": 4271, 
  "gekennzeichnet": 4272, 
  "iert": 4273, 
  "ließ": 4274, 
  "reich": 4275, 
  "offizielle": 4276, 
  "Schiff": 4277, 
  "Videos": 4278, 
  "gefährdet": 4279, 
  "Eis@@": 4280, 
  "bedeutenden": 4281, 
  "schaft": 4282, 
  "Todesstrafe": 4283, 
  "RO@@": 4284, 
  "Zeitplan": 4285, 
  "selten": 4286, 
  "beizutragen": 4287, 
  "geraten": 4288, 
  "arten": 4289, 
  "lieber": 4290, 
  "37": 4291, 
  "erfreut": 4292, 
  "ini@@": 4293, 
  "stammen": 4294, 
  "Umstrukturierung": 4295, 
  "Registrierung": 4296, 
  "Sachen": 4297, 
  "erweitern": 4298, 
  "bekommt": 4299, 
  "Jahrzehnten": 4300, 
  "än@@": 4301, 
  "Sa@@": 4302, 
  "land@@": 4303, 
  "Verhandlungs@@": 4304, 
  "jedenfalls": 4305, 
  "5.@@": 4306, 
  "fertig": 4307, 
  "qualitativ": 4308, 
  "Support": 4309, 
  "Ak@@": 4310, 
  "elles": 4311, 
  "letzter": 4312, 
  "anschließen": 4313, 
  "Ku@@": 4314, 
  "Betracht": 4315, 
  "Menü": 4316, 
  "grosse": 4317, 
  "Gast": 4318, 
  "ia": 4319, 
  "Reisen": 4320, 
  "Mängel": 4321, 
  "eignet": 4322, 
  "ga@@": 4323, 
  "relevanten": 4324, 
  "überwinden": 4325, 
  "leistet": 4326, 
  "sm@@": 4327, 
  "Georgien": 4328, 
  "rate": 4329, 
  "Inflation": 4330, 
  "plus": 4331, 
  "AN": 4332, 
  "Ausbildungs@@": 4333, 
  "vertritt": 4334, 
  "Tieren": 4335, 
  "ften": 4336, 
  "erungen": 4337, 
  "12.": 4338, 
  "ernsthaft": 4339, 
  "aufzubauen": 4340, 
  "Mut": 4341, 
  "Marketing": 4342, 
  "ß": 4343, 
  "vorliegende": 4344, 
  "anzubieten": 4345, 
  "fähigkeit": 4346, 
  "3D": 4347, 
  "begleitet": 4348, 
  "Grünbuch": 4349, 
  "UNG": 4350, 
  "lebt": 4351, 
  "hohes": 4352, 
  "Inneres": 4353, 
  "effektive": 4354, 
  "Klima@@": 4355, 
  "Feld": 4356, 
  "beenden": 4357, 
  "ren": 4358, 
  "pl@@": 4359, 
  "palästinensischen": 4360, 
  "43": 4361, 
  "gegenseitigen": 4362, 
  "Zwischen@@": 4363, 
  "85": 4364, 
  "Anhörung": 4365, 
  "Ho@@": 4366, 
  "Ablehnung": 4367, 
  "Süd@@": 4368, 
  "endgültige": 4369, 
  "gegenwärtige": 4370, 
  "Deutsch": 4371, 
  "gesellschaften": 4372, 
  "Überarbeitung": 4373, 
  "10.": 4374, 
  "Lizenz": 4375, 
  "versichern": 4376, 
  "schwere": 4377, 
  "PHP": 4378, 
  "42": 4379, 
  "markt@@": 4380, 
  "keinem": 4381, 
  "mittlere": 4382, 
  "korrekt": 4383, 
  "denjenigen": 4384, 
  "verdienen": 4385, 
  "abstimmen": 4386, 
  "gra@@": 4387, 
  "La@@": 4388, 
  "GVO": 4389, 
  "49": 4390, 
  "spiel": 4391, 
  "behoben": 4392, 
  "klein": 4393, 
  "Grundsätzen": 4394, 
  "Verlängerung": 4395, 
  "Freitag": 4396, 
  "ker@@": 4397, 
  "Beurteilung": 4398, 
  "ssen": 4399, 
  "lokaler": 4400, 
  "Geschmack": 4401, 
  "ausschuss": 4402, 
  "Glück": 4403, 
  "empfangen": 4404, 
  "gan@@": 4405, 
  "Defizit": 4406, 
  "1989": 4407, 
  "For@@": 4408, 
  "dargestellt": 4409, 
  "ée": 4410, 
  "erkennt": 4411, 
  "Wissenschaftler": 4412, 
  "Erzeugung": 4413, 
  "zer": 4414, 
  "tiert": 4415, 
  "sa": 4416, 
  "Mor@@": 4417, 
  "ausländische": 4418, 
  "Entwicklungszusammenarbeit": 4419, 
  "ya": 4420, 
  "Ba@@": 4421, 
  "9.": 4422, 
  "Parkplatz": 4423, 
  "geäußert": 4424, 
  "bestimmungen": 4425, 
  "bereiten": 4426, 
  "Stiftung": 4427, 
  "Zone": 4428, 
  "National": 4429, 
  "WC": 4430, 
  "Haushalts": 4431, 
  "Tests": 4432, 
  "liste": 4433, 
  "ruft": 4434, 
  "schnellen": 4435, 
  "Grünen": 4436, 
  "Suiten": 4437, 
  "Anti@@": 4438, 
  "hr@@": 4439, 
  "tiger": 4440, 
  "Gehminuten": 4441, 
  "Volkes": 4442, 
  "Aspekten": 4443, 
  "Beschluß": 4444, 
  "fin@@": 4445, 
  "ökologischen": 4446, 
  ".....": 4447, 
  "optimal": 4448, 
  "th": 4449, 
  "enorme": 4450, 
  "erforderliche": 4451, 
  "übermitteln": 4452, 
  "staaten": 4453, 
  "technischer": 4454, 
  "Kollegin": 4455, 
  "Reform@@": 4456, 
  "Es": 4457, 
  "steuern": 4458, 
  "13.": 4459, 
  "Tages": 4460, 
  "stattfindet": 4461, 
  "IT@@": 4462, 
  "Revolution": 4463, 
  "Industrie@@": 4464, 
  "Ju@@": 4465, 
  "Volks@@": 4466, 
  "südlichen": 4467, 
  "ES@@": 4468, 
  "38": 4469, 
  "bares": 4470, 
  "MEMO": 4471, 
  "selbst@@": 4472, 
  "Gi@@": 4473, 
  "Institut": 4474, 
  "cm": 4475, 
  "geh@@": 4476, 
  "müsste": 4477, 
  "dargelegt": 4478, 
  "High": 4479, 
  "straße": 4480, 
  "Kandidaten": 4481, 
  "Führer": 4482, 
  "wa@@": 4483, 
  "Licht@@": 4484, 
  "ys": 4485, 
  "Gewässer": 4486, 
  "interne": 4487, 
  "Donnerstag": 4488, 
  "ad": 4489, 
  "ings": 4490, 
  "Pflanzen": 4491, 
  "verhalten": 4492, 
  "türkischen": 4493, 
  "spätestens": 4494, 
  "afrikanischen": 4495, 
  "ern@@": 4496, 
  "verletzt": 4497, 
  "sammeln": 4498, 
  "beschleunigen": 4499, 
  "Spezial@@": 4500, 
  "Not@@": 4501, 
  "weite": 4502, 
  "com": 4503, 
  "Top": 4504, 
  "offenbar": 4505, 
  "freundliche": 4506, 
  "Prozeß": 4507, 
  "Lateinamerika": 4508, 
  "gungs@@": 4509, 
  "leistung": 4510, 
  "weg@@": 4511, 
  "ó@@": 4512, 
  "geeigneten": 4513, 
  "präsentieren": 4514, 
  "stützen": 4515, 
  "sierung": 4516, 
  "Darstellung": 4517, 
  "Ablauf": 4518, 
  "Santa": 4519, 
  "Herz": 4520, 
  "Werbe@@": 4521, 
  "AS": 4522, 
  "chen@@": 4523, 
  "1000": 4524, 
  "Prodi": 4525, 
  "ats": 4526, 
  "06": 4527, 
  "39": 4528, 
  "organisation": 4529, 
  "Kürze": 4530, 
  "Martin": 4531, 
  "unterbreiten": 4532, 
  "Redner": 4533, 
  "av@@": 4534, 
  "zeichnet": 4535, 
  "parallel": 4536, 
  "Armee": 4537, 
  "Allianz": 4538, 
  "Häfen": 4539, 
  "David": 4540, 
  "frühen": 4541, 
  "war@@": 4542, 
  "Eingang": 4543, 
  "GD": 4544, 
  "use": 4545, 
  "Ankunft": 4546, 
  "herunterladen": 4547, 
  "selben": 4548, 
  "Schweizer": 4549, 
  "fortgesetzt": 4550, 
  "250": 4551, 
  "Hinweise": 4552, 
  "eigener": 4553, 
  "vorbei": 4554, 
  "gesetzlichen": 4555, 
  "Doppel@@": 4556, 
  "angenommenen": 4557, 
  "RE@@": 4558, 
  "Transport@@": 4559, 
  "Bearbeitung": 4560, 
  "Recht@@": 4561, 
  "Respekt": 4562, 
  "has": 4563, 
  "Geschwindigkeit": 4564, 
  "Europol": 4565, 
  "ur": 4566, 
  "besonderes": 4567, 
  "Kennzeichnung": 4568, 
  "age": 4569, 
  "ks": 4570, 
  "verweisen": 4571, 
  "Ad@@": 4572, 
  "aufs": 4573, 
  "Hof": 4574, 
  "Blog": 4575, 
  "tsch@@": 4576, 
  "prozesses": 4577, 
  "Gebühren": 4578, 
  "folgender": 4579, 
  "Wiederherstellung": 4580, 
  "Bei@@": 4581, 
  "verwaltung": 4582, 
  "Bord": 4583, 
  "Ausflüge": 4584, 
  "zulassen": 4585, 
  "ak": 4586, 
  "14.": 4587, 
  "erwerben": 4588, 
  "enst@@": 4589, 
  "Ti@@": 4590, 
  "Chi@@": 4591, 
  "antworten": 4592, 
  "Journalisten": 4593, 
  "pr@@": 4594, 
  "Schulden": 4595, 
  "mittel@@": 4596, 
  "Erinnerung": 4597, 
  "fähig": 4598, 
  "beinhalten": 4599, 
  "Gemeinden": 4600, 
  ".de": 4601, 
  "stammt": 4602, 
  "Ger@@": 4603, 
  "führung": 4604, 
  "Parlamente": 4605, 
  "05": 4606, 
  "überaus": 4607, 
  "Mehr@@": 4608, 
  "Kompetenz": 4609, 
  "Gold": 4610, 
  "Debatten": 4611, 
  "Tor@@": 4612, 
  "Ausgrenzung": 4613, 
  "Übernachtung": 4614, 
  "entdeckt": 4615, 
  "gungen": 4616, 
  "Erwerb": 4617, 
  "Wirtschaftsraum": 4618, 
  "Video@@": 4619, 
  "04": 4620, 
  "Betten": 4621, 
  "Buch@@": 4622, 
  "Planeten": 4623, 
  "which": 4624, 
  "beeinflussen": 4625, 
  "anzupassen": 4626, 
  "ft@@": 4627, 
  "erörtern": 4628, 
  "Fi@@": 4629, 
  "64": 4630, 
  "ausländischen": 4631, 
  "Grundlagen": 4632, 
  "zimmer": 4633, 
  "Best": 4634, 
  "berechnet": 4635, 
  "pa@@": 4636, 
  "Fortsetzung": 4637, 
  "karte": 4638, 
  "Präsenz": 4639, 
  "gn@@": 4640, 
  "liegenden": 4641, 
  "Verordnungen": 4642, 
  "wider@@": 4643, 
  "Opposition": 4644, 
  "heutzutage": 4645, 
  "gewünschten": 4646, 
  "könnt": 4647, 
  "Do@@": 4648, 
  "könne": 4649, 
  "Fax": 4650, 
  "schwedischen": 4651, 
  "Arbeitgeber": 4652, 
  "Teams": 4653, 
  "Nizza": 4654, 
  "Abendessen": 4655, 
  "Stärke": 4656, 
  "nützlich": 4657, 
  "European": 4658, 
  "Mess@@": 4659, 
  "werfen": 4660, 
  "Tausende": 4661, 
  "Straßen@@": 4662, 
  "hinweg": 4663, 
  "fortsetzen": 4664, 
  "gegenseitige": 4665, 
  "20@@": 4666, 
  "Distribution": 4667, 
  "Universitäten": 4668, 
  "Straßburg": 4669, 
  "dung": 4670, 
  "reagiert": 4671, 
  "anzunehmen": 4672, 
  "sucht": 4673, 
  "auffordern": 4674, 
  "angebracht": 4675, 
  "vorzunehmen": 4676, 
  "offiziell": 4677, 
  "tur@@": 4678, 
  "Einnahmen": 4679, 
  "Boden@@": 4680, 
  "Bürger@@": 4681, 
  "Ratifizierung": 4682, 
  "mu@@": 4683, 
  "ve@@": 4684, 
  "ausüben": 4685, 
  "Schreiben": 4686, 
  "dankbar": 4687, 
  "IS@@": 4688, 
  "diensten": 4689, 
  "Internationale": 4690, 
  "Garantien": 4691, 
  "gleich@@": 4692, 
  "innovativen": 4693, 
  "aufbauen": 4694, 
  "maschinen": 4695, 
  "Mutter": 4696, 
  "hervorragenden": 4697, 
  "material": 4698, 
  "PT": 4699, 
  "füllen": 4700, 
  "VER@@": 4701, 
  "Dynamik": 4702, 
  "Bio@@": 4703, 
  "Strom": 4704, 
  "anzuzeigen": 4705, 
  "decken": 4706, 
  "veröffentlichen": 4707, 
  "Go@@": 4708, 
  "Strecke": 4709, 
  "sieren": 4710, 
  "Hamburg": 4711, 
  "besucht": 4712, 
  "NRO": 4713, 
  "els": 4714, 
  "Aufhebung": 4715, 
  "plan": 4716, 
  "empfiehlt": 4717, 
  "zentraler": 4718, 
  "len@@": 4719, 
  "institutionelle": 4720, 
  "Parameter": 4721, 
  "Bush": 4722, 
  "Zunahme": 4723, 
  "Frühstücksbuffet": 4724, 
  "Dritte": 4725, 
  "heißen": 4726, 
  "organisationen": 4727, 
  "existiert": 4728, 
  "gerechtfertigt": 4729, 
  "mechanismus": 4730, 
  "medizinische": 4731, 
  "USB": 4732, 
  "Beschwerden": 4733, 
  "dasselbe": 4734, 
  "IV": 4735, 
  "Kredit@@": 4736, 
  "behörden": 4737, 
  "spreche": 4738, 
  "klassischen": 4739, 
  "Fahrt": 4740, 
  "ou": 4741, 
  "Eröffnung": 4742, 
  "ment@@": 4743, 
  "geringen": 4744, 
  "verzeichnen": 4745, 
  "Auto@@": 4746, 
  "fahrt": 4747, 
  "Binnenmarkts": 4748, 
  "index": 4749, 
  "for@@": 4750, 
  "sah": 4751, 
  "vorsieht": 4752, 
  "schätzen": 4753, 
  "Mittelmeerraum": 4754, 
  "Verzeichnis": 4755, 
  "Datum": 4756, 
  "gering": 4757, 
  "jüngste": 4758, 
  "Winter@@": 4759, 
  "Cor@@": 4760, 
  "Michel": 4761, 
  "oftmals": 4762, 
  "Vorrang": 4763, 
  "gegangen": 4764, 
  "geniessen": 4765, 
  "zweiter": 4766, 
  "dienstleistungen": 4767, 
  "England": 4768, 
  "problem": 4769, 
  "Shop": 4770, 
  "Bezeichnung": 4771, 
  "fortzusetzen": 4772, 
  "Haushalte": 4773, 
  "Vertretung": 4774, 
  "grossen": 4775, 
  "gründen": 4776, 
  "komplette": 4777, 
  "tions@@": 4778, 
  "ches": 4779, 
  "Ausnahmen": 4780, 
  "Fern@@": 4781, 
  "Export@@": 4782, 
  "aktuell": 4783, 
  "station": 4784, 
  "ueber": 4785, 
  "bahn": 4786, 
  "Maschine": 4787, 
  "erwähnen": 4788, 
  "No@@": 4789, 
  "Vorsitzenden": 4790, 
  "Versicherungs@@": 4791, 
  "Zentral@@": 4792, 
  "österreichischen": 4793, 
  "reiche": 4794, 
  "gefragt": 4795, 
  "Fläche": 4796, 
  "mitteln": 4797, 
  "Heizung": 4798, 
  "chinesische": 4799, 
  "Massen@@": 4800, 
  "effizienten": 4801, 
  "vertrag": 4802, 
  "pe@@": 4803, 
  "Kommissionspräsident": 4804, 
  "National@@": 4805, 
  "sauber": 4806, 
  "komfortable": 4807, 
  "außen": 4808, 
  "Verstärkung": 4809, 
  "TE": 4810, 
  "perfekte": 4811, 
  "weiten": 4812, 
  "Schüler": 4813, 
  "Apartment": 4814, 
  "täglichen": 4815, 
  "Wochenende": 4816, 
  "zwölf": 4817, 
  "Südafrika": 4818, 
  "bereichen": 4819, 
  "park": 4820, 
  "älteren": 4821, 
  "gingen": 4822, 
  "ori@@": 4823, 
  "Te@@": 4824, 
  "Erfolge": 4825, 
  "beibehalten": 4826, 
  "produzieren": 4827, 
  "Sohn": 4828, 
  "angekündigt": 4829, 
  "we@@": 4830, 
  "probleme": 4831, 
  "krise": 4832, 
  "zugestimmt": 4833, 
  "Länge": 4834, 
  "erzeugen": 4835, 
  "gang": 4836, 
  "König": 4837, 
  "Benutzung": 4838, 
  "vergeben": 4839, 
  "erkannt": 4840, 
  "branche": 4841, 
  "Reservierung": 4842, 
  "Ne@@": 4843, 
  "kontrolle": 4844, 
  "spanische": 4845, 
  "Ständigen": 4846, 
  "able": 4847, 
  "Arzneimittel": 4848, 
  "Rußland": 4849, 
  "fte": 4850, 
  "tel": 4851, 
  "Besitz": 4852, 
  "Marokko": 4853, 
  "Entspannung": 4854, 
  "time": 4855, 
  "Klimawandels": 4856, 
  "Orte": 4857, 
  "ven": 4858, 
  "gedacht": 4859, 
  "standen": 4860, 
  "Lei@@": 4861, 
  "Pan@@": 4862, 
  "OR@@": 4863, 
  "News": 4864, 
  "bild": 4865, 
  "erwiesen": 4866, 
  "·": 4867, 
  "Gipfeltreffen": 4868, 
  "Am@@": 4869, 
  "Steuer": 4870, 
  "zugelassen": 4871, 
  "welt": 4872, 
  "eventuell": 4873, 
  "Gar@@": 4874, 
  "Zwei@@": 4875, 
  "Partnerschaften": 4876, 
  "Ministerpräsident": 4877, 
  "überlassen": 4878, 
  "situation": 4879, 
  "Berufs@@": 4880, 
  "gesellschaftlichen": 4881, 
  "nice": 4882, 
  "software": 4883, 
  "eröffnen": 4884, 
  "ano": 4885, 
  "92": 4886, 
  "pu@@": 4887, 
  "Rechnungshof": 4888, 
  "ansonsten": 4889, 
  "Me@@": 4890, 
  "ki@@": 4891, 
  "dürften": 4892, 
  "zerstört": 4893, 
  "Wettbewerbs@@": 4894, 
  "anische": 4895, 
  "Zug": 4896, 
  "Amerikaner": 4897, 
  "Passwort": 4898, 
  "bezahlt": 4899, 
  "He@@": 4900, 
  "soeben": 4901, 
  "gewählten": 4902, 
  "niveau": 4903, 
  "zukommen": 4904, 
  "sichtbar": 4905, 
  "Kenntnisse": 4906, 
  "zug": 4907, 
  "chs": 4908, 
  "Deutschlands": 4909, 
  "ständige": 4910, 
  "Vertrieb": 4911, 
  "Kern": 4912, 
  "Weißbuch": 4913, 
  "93": 4914, 
  "stein": 4915, 
  "kostenlose": 4916, 
  "bedanken": 4917, 
  "0.@@": 4918, 
  "erenden": 4919, 
  "erstes": 4920, 
  "größter": 4921, 
  "Museen": 4922, 
  "polnischen": 4923, 
  "Anwender": 4924, 
  "tatsächlichen": 4925, 
  "Käufer": 4926, 
  "Macht@@": 4927, 
  "hart": 4928, 
  "freier": 4929, 
  "Symbol": 4930, 
  "einander": 4931, 
  "begegnen": 4932, 
  "alter": 4933, 
  "gestiegen": 4934, 
  "bildung": 4935, 
  "Produktivität": 4936, 
  "günstigen": 4937, 
  "Ausrüstung": 4938, 
  "solide": 4939, 
  "44": 4940, 
  "Street": 4941, 
  "Berliner": 4942, 
  "gene": 4943, 
  "Mark@@": 4944, 
  "unver@@": 4945, 
  "gebilligt": 4946, 
  "Anträge": 4947, 
  "cher@@": 4948, 
  "Leiter": 4949, 
  "Kaffee": 4950, 
  "geblieben": 4951, 
  "mögen": 4952, 
  "und@@": 4953, 
  "ment": 4954, 
  "West": 4955, 
  "geln": 4956, 
  "satz": 4957, 
  "tätigen": 4958, 
  "Kreditkarte": 4959, 
  "ses": 4960, 
  "Plan@@": 4961, 
  "House": 4962, 
  "Drogen@@": 4963, 
  "schi@@": 4964, 
  "Tschechischen": 4965, 
  "industriellen": 4966, 
  "schwierige": 4967, 
  "Resort": 4968, 
  "teilt": 4969, 
  "Schönheit": 4970, 
  "erst@@": 4971, 
  "Zeitung": 4972, 
  "bereitet": 4973, 
  "Holz": 4974, 
  "Innen@@": 4975, 
  "gewidmet": 4976, 
  "30.": 4977, 
  "Finanzmittel": 4978, 
  "Bibliothek": 4979, 
  "erneuerbare": 4980, 
  "verwendeten": 4981, 
  "Filme": 4982, 
  "dis@@": 4983, 
  "ausreichende": 4984, 
  "strukturen": 4985, 
  "sonstigen": 4986, 
  "Hohe": 4987, 
  "genauer": 4988, 
  "inen": 4989, 
  "froh": 4990, 
  "vermieden": 4991, 
  "jährliche": 4992, 
  "verfahrens": 4993, 
  "voraussichtlich": 4994, 
  "Stahl@@": 4995, 
  "Vizepräsidentin": 4996, 
  "Werten": 4997, 
  "Ansprüche": 4998, 
  "Kosten@@": 4999, 
  "ette": 5000, 
  "Herzegowina": 5001, 
  "ga": 5002, 
  "Zusatz@@": 5003, 
  "wesen": 5004, 
  "beschließen": 5005, 
  "Autos": 5006, 
  "Nicht": 5007, 
  "stehende": 5008, 
  "unterstreicht": 5009, 
  "unmittelbarer": 5010, 
  "Volksgesundheit": 5011, 
  "negative": 5012, 
  "unge@@": 5013, 
  "Haut": 5014, 
  "Ein": 5015, 
  "ju@@": 5016, 
  "Blut@@": 5017, 
  "späteren": 5018, 
  "Übrigen": 5019, 
  "Poker": 5020, 
  "Vorstellungen": 5021, 
  "Super@@": 5022, 
  "Wachstums@@": 5023, 
  "Zulassung": 5024, 
  "EM@@": 5025, 
  "Rad@@": 5026, 
  "Satz": 5027, 
  "Albanien": 5028, 
  "erstreckt": 5029, 
  "cu@@": 5030, 
  "Kor@@": 5031, 
  "sogenannte": 5032, 
  "hast": 5033, 
  "Fluss": 5034, 
  "ordnungsgemäß": 5035, 
  "selber": 5036, 
  "stell@@": 5037, 
  "manchen": 5038, 
  "wachsende": 5039, 
  "min": 5040, 
  "700": 5041, 
  "Netz@@": 5042, 
  "ähnlichen": 5043, 
  "Kohärenz": 5044, 
  "spezialisiert": 5045, 
  "Autobahn": 5046, 
  "El@@": 5047, 
  "para": 5048, 
  "planen": 5049, 
  "Betreuung": 5050, 
  "ations": 5051, 
  "ren@@": 5052, 
  "Leit@@": 5053, 
  "verbesserte": 5054, 
  "Abschluß": 5055, 
  "haften": 5056, 
  "Schlußfolgerungen": 5057, 
  "netze": 5058, 
  "ton": 5059, 
  "Mädchen": 5060, 
  "vorliegt": 5061, 
  "verwende": 5062, 
  "aktualisiert": 5063, 
  "......": 5064, 
  "jährigen": 5065, 
  "Tal": 5066, 
  "kleinere": 5067, 
  "märkte": 5068, 
  "ini": 5069, 
  "Update": 5070, 
  "dr@@": 5071, 
  "Montag": 5072, 
  "chemische": 5073, 
  "steigt": 5074, 
  "om": 5075, 
  "verschaffen": 5076, 
  "tt@@": 5077, 
  "Zugangs": 5078, 
  "fu@@": 5079, 
  "erneuerbaren": 5080, 
  "Tür": 5081, 
  "if": 5082, 
  "Euch": 5083, 
  "gek@@": 5084, 
  "mittel-": 5085, 
  "gelesen": 5086, 
  "Wähler": 5087, 
  "Innenstadt": 5088, 
  "spiel@@": 5089, 
  "bedroht": 5090, 
  "Wieder@@": 5091, 
  "Australien": 5092, 
  "heraus@@": 5093, 
  "great": 5094, 
  "Hardware": 5095, 
  "ausgehend": 5096, 
  "grünen": 5097, 
  "oni@@": 5098, 
  "és": 5099, 
  "Wei@@": 5100, 
  "Nachdruck": 5101, 
  "Stabilitäts-": 5102, 
  "modified": 5103, 
  "Drogen": 5104, 
  "Umweltfragen": 5105, 
  "Entfernung": 5106, 
  "niederländischen": 5107, 
  "Friedens@@": 5108, 
  "dauert": 5109, 
  "Speisen": 5110, 
  "ark@@": 5111, 
  "Parkplätze": 5112, 
  "rechts@@": 5113, 
  "Schloss": 5114, 
  "Konvent": 5115, 
  "Kom@@": 5116, 
  "beruhen": 5117, 
  "Einleitung": 5118, 
  "Paul": 5119, 
  "Begründung": 5120, 
  "Abteilung": 5121, 
  "Media": 5122, 
  "lichem": 5123, 
  "hinzugefügt": 5124, 
  "freut": 5125, 
  "bel": 5126, 
  "Indikatoren": 5127, 
  "SCH@@": 5128, 
  "überwacht": 5129, 
  "San@@": 5130, 
  "Theater": 5131, 
  "aufgeführt": 5132, 
  "Wer@@": 5133, 
  "Ki@@": 5134, 
  "Kapazität": 5135, 
  "Kurz@@": 5136, 
  "well": 5137, 
  "Schutzes": 5138, 
  "niedrigen": 5139, 
  "avec": 5140, 
  "To@@": 5141, 
  "fe@@": 5142, 
  "Palette": 5143, 
  "gr@@": 5144, 
  "Q@@": 5145, 
  "erende": 5146, 
  "Lebensmitteln": 5147, 
  "technologische": 5148, 
  "Ausübung": 5149, 
  "deutliche": 5150, 
  "Beamten": 5151, 
  "Lernen": 5152, 
  "armen": 5153, 
  "7.@@": 5154, 
  "fa@@": 5155, 
  "Russlands": 5156, 
  "ungeachtet": 5157, 
  "engen": 5158, 
  "Argumente": 5159, 
  "Minute": 5160, 
  "Infrastrukturen": 5161, 
  "modell": 5162, 
  "ba@@": 5163, 
  "forschung": 5164, 
  "behält": 5165, 
  "120": 5166, 
  "lösungen": 5167, 
  "EI@@": 5168, 
  "tung": 5169, 
  "Währungs@@": 5170, 
  "bewahren": 5171, 
  "Eigen@@": 5172, 
  "führer": 5173, 
  "seitdem": 5174, 
  "rasche": 5175, 
  "sprachen": 5176, 
  "Freund": 5177, 
  "sitzen": 5178, 
  "landwirtschaftliche": 5179, 
  "Drittstaaten": 5180, 
  "ei": 5181, 
  "fehlen": 5182, 
  "tete": 5183, 
  "steuer@@": 5184, 
  "wahr": 5185, 
  "ermitteln": 5186, 
  "Г": 5187, 
  "wider": 5188, 
  "Arbeitsweise": 5189, 
  "anlässlich": 5190, 
  "Nord": 5191, 
  "eingeräumt": 5192, 
  "unterschiedlicher": 5193, 
  "äre": 5194, 
  "erarbeitet": 5195, 
  "Fischereipolitik": 5196, 
  "herrlichen": 5197, 
  "geringer": 5198, 
  "verabschieden": 5199, 
  "Ton@@": 5200, 
  "Ministerrat": 5201, 
  "setzte": 5202, 
  "Ferienwohnung": 5203, 
  "üblichen": 5204, 
  "nutzt": 5205, 
  "unbe@@": 5206, 
  "langem": 5207, 
  "Gas": 5208, 
  "DEN": 5209, 
  "kümmern": 5210, 
  "Energiequellen": 5211, 
  "General": 5212, 
  "wirkliche": 5213, 
  "000@@": 5214, 
  "professionelle": 5215, 
  "veröffentlichte": 5216, 
  "Hilfs@@": 5217, 
  "geringe": 5218, 
  "umso": 5219, 
  "Detail": 5220, 
  "Häuser": 5221, 
  "Mu@@": 5222, 
  "ausgehen": 5223, 
  "dieselben": 5224, 
  "Spektrum": 5225, 
  "melden": 5226, 
  "more": 5227, 
  "na@@": 5228, 
  "Vordergrund": 5229, 
  "unentgeltlich": 5230, 
  "AT@@": 5231, 
  "verursachen": 5232, 
  "enormen": 5233, 
  "ante": 5234, 
  "Truppen": 5235, 
  "geschäft": 5236, 
  "Kan@@": 5237, 
  "messen": 5238, 
  "Album": 5239, 
  "Augenblick": 5240, 
  "mehrfach": 5241, 
  "glich": 5242, 
  "Spitze": 5243, 
  "erweiterten": 5244, 
  "Van": 5245, 
  "Pal@@": 5246, 
  "herzustellen": 5247, 
  "Operation": 5248, 
  "Umstände": 5249, 
  "Gen@@": 5250, 
  "räumen": 5251, 
  "Räume": 5252, 
  "41": 5253, 
  "kten": 5254, 
  "Gast@@": 5255, 
  "kar@@": 5256, 
  "46": 5257, 
  "ado": 5258, 
  "beeinträchtigen": 5259, 
  "tel@@": 5260, 
  "günstige": 5261, 
  "Festival": 5262, 
  "verbreitet": 5263, 
  "ss": 5264, 
  "Arbeitsgruppe": 5265, 
  "Pflichten": 5266, 
  "Kauf@@": 5267, 
  "technisch": 5268, 
  "PPE": 5269, 
  "Berichterstatters": 5270, 
  "Tabelle": 5271, 
  "Suite": 5272, 
  "Souveränität": 5273, 
  "Feststellung": 5274, 
  "Menschenrechts@@": 5275, 
  "stattgefunden": 5276, 
  "erteilen": 5277, 
  "Inn": 5278, 
  "ie@@": 5279, 
  "Email": 5280, 
  "belgischen": 5281, 
  "Vereinigtes": 5282, 
  "Immobilien": 5283, 
  "Unternehmer": 5284, 
  "Ges@@": 5285, 
  "befürwortet": 5286, 
  "Mengen": 5287, 
  "Oberfläche": 5288, 
  "ausgegeben": 5289, 
  "typischen": 5290, 
  "Dingen": 5291, 
  "externe": 5292, 
  "zt": 5293, 
  "get": 5294, 
  "Abfälle": 5295, 
  "Außenminister": 5296, 
  "Software@@": 5297, 
  "š@@": 5298, 
  "25.": 5299, 
  "Vorgehensweise": 5300, 
  "Vorsitzender": 5301, 
  "verpflichten": 5302, 
  "Jugoslawien": 5303, 
  "chi@@": 5304, 
  "kte": 5305, 
  "Konsultationen": 5306, 
  "ausschusses": 5307, 
  "zone": 5308, 
  "ff": 5309, 
  "6.@@": 5310, 
  "Rahmen@@": 5311, 
  "Fahrer": 5312, 
  "nahme": 5313, 
  "Fleisch": 5314, 
  "erkunden": 5315, 
  "free": 5316, 
  "neu@@": 5317, 
  "Wachstums": 5318, 
  "Saison": 5319, 
  "intensiv": 5320, 
  "Handlungen": 5321, 
  "Emissions@@": 5322, 
  "mitgeteilt": 5323, 
  "Informations-": 5324, 
  "geleitet": 5325, 
  "erfasst": 5326, 
  "Zielsetzungen": 5327, 
  "Ban@@": 5328, 
  "Pa@@": 5329, 
  "OLAF": 5330, 
  "sto@@": 5331, 
  "clean": 5332, 
  "Rahmens": 5333, 
  "ll@@": 5334, 
  "aufgestellt": 5335, 
  "umgehend": 5336, 
  "entgegen@@": 5337, 
  "langer": 5338, 
  "Radio": 5339, 
  "definieren": 5340, 
  "Abfall@@": 5341, 
  "Auflösung": 5342, 
  "geistigen": 5343, 
  "Lebensqualität": 5344, 
  "beträchtliche": 5345, 
  "Telefon@@": 5346, 
  "mat@@": 5347, 
  "Bestätigung": 5348, 
  "Föderation": 5349, 
  "Sozialpartner": 5350, 
  "Innen": 5351, 
  "zunehmenden": 5352, 
  "Bücher": 5353, 
  "tier@@": 5354, 
  "methoden": 5355, 
  "Zuständigkeiten": 5356, 
  "Einschätzung": 5357, 
  "durchgeführten": 5358, 
  "Belastung": 5359, 
  "SP@@": 5360, 
  "Ur@@": 5361, 
  "Ra@@": 5362, 
  "just": 5363, 
  "hochwertigen": 5364, 
  "fläche": 5365, 
  "Weltwirtschaft": 5366, 
  "friendly": 5367, 
  "Religion": 5368, 
  "Widerstand": 5369, 
  "ier@@": 5370, 
  "erungs@@": 5371, 
  "sparen": 5372, 
  "lösung": 5373, 
  "Gesetzes@@": 5374, 
  "unterbreitet": 5375, 
  "lau@@": 5376, 
  "German": 5377, 
  "Multi@@": 5378, 
  "realer": 5379, 
  "ität": 5380, 
  "Berg": 5381, 
  "verstoßen": 5382, 
  "geliefert": 5383, 
  "Spielen": 5384, 
  "gkeit": 5385, 
  "rechtlich": 5386, 
  "bewirken": 5387, 
  "Struktur@@": 5388, 
  "nehme": 5389, 
  "Betrug": 5390, 
  "ischem": 5391, 
  "Datenschutz": 5392, 
  "abgegeben": 5393, 
  "Boot": 5394, 
  "prä@@": 5395, 
  "drücken": 5396, 
  "maximal": 5397, 
  "drei@@": 5398, 
  "por@@": 5399, 
  "Alt@@": 5400, 
  "führten": 5401, 
  "stoff@@": 5402, 
  "funktion": 5403, 
  "Typ": 5404, 
  "ore": 5405, 
  "Händler": 5406, 
  "are@@": 5407, 
  "istischen": 5408, 
  "Zusammensetzung": 5409, 
  "derselben": 5410, 
  "anten": 5411, 
  "Arbeitskräfte": 5412, 
  "wege": 5413, 
  "Alternativen": 5414, 
  "oren": 5415, 
  "ären": 5416, 
  "mp@@": 5417, 
  "ierung": 5418, 
  "Erarbeitung": 5419, 
  "alisierung": 5420, 
  "Sonntag": 5421, 
  "city": 5422, 
  "räume": 5423, 
  "Aktionsplans": 5424, 
  "Obama": 5425, 
  "tro@@": 5426, 
  "spät": 5427, 
  "ki": 5428, 
  "kosten@@": 5429, 
  "Berge": 5430, 
  "Val@@": 5431, 
  "widmen": 5432, 
  "entfernen": 5433, 
  "Lern@@": 5434, 
  "versteht": 5435, 
  "Glas@@": 5436, 
  "keineswegs": 5437, 
  "Flash": 5438, 
  "Tages@@": 5439, 
  "bad": 5440, 
  "Vorgaben": 5441, 
  "fahr@@": 5442, 
  "Sieg": 5443, 
  "they": 5444, 
  "Jo@@": 5445, 
  "Libanon": 5446, 
  "Durchschnitt": 5447, 
  "ansprechen": 5448, 
  "linie": 5449, 
  "lenken": 5450, 
  "Traditionen": 5451, 
  "only": 5452, 
  "gelassen": 5453, 
  "stoffen": 5454, 
  "san@@": 5455, 
  "Dokumentation": 5456, 
  "sion": 5457, 
  "wechsel": 5458, 
  "aktiviert": 5459, 
  "fre@@": 5460, 
  "Frühjahr": 5461, 
  "Bade@@": 5462, 
  "Wald@@": 5463, 
  "Fisch@@": 5464, 
  "zusammenzuarbeiten": 5465, 
  "mail": 5466, 
  "è@@": 5467, 
  "stra@@": 5468, 
  "Privatsphäre": 5469, 
  "ata": 5470, 
  "Voll@@": 5471, 
  "desto": 5472, 
  "Jugend@@": 5473, 
  "hal@@": 5474, 
  "Ziels": 5475, 
  "einstimmig": 5476, 
  "ments": 5477, 
  "Auslegung": 5478, 
  "berichtet": 5479, 
  "beeinträchtigt": 5480, 
  "Spitzen@@": 5481, 
  "Saint": 5482, 
  "ierten": 5483, 
  "sse": 5484, 
  "lt": 5485, 
  "ansehen": 5486, 
  "Bus@@": 5487, 
  "haft": 5488, 
  "Ost@@": 5489, 
  "Osteuropa": 5490, 
  "verwaltet": 5491, 
  "win@@": 5492, 
  "Vorbereitungen": 5493, 
  "dungs@@": 5494, 
  "dahin": 5495, 
  "renoviert": 5496, 
  "Appartements": 5497, 
  "umgehen": 5498, 
  "zeichnen": 5499, 
  "Motor": 5500, 
  "ok@@": 5501, 
  "Ka@@": 5502, 
  "ID": 5503, 
  "Erlebnis": 5504, 
  "Hauptbahnhof": 5505, 
  "1,5": 5506, 
  "Kooperations@@": 5507, 
  "Konvention": 5508, 
  "greifen": 5509, 
  "Zweiten": 5510, 
  "Krieges": 5511, 
  "Beschäftigten": 5512, 
  "fern": 5513, 
  "Herkunft": 5514, 
  "komplexe": 5515, 
  "Entwickler": 5516, 
  "Klarheit": 5517, 
  "Spezialitäten": 5518, 
  "nummer": 5519, 
  "JavaScript": 5520, 
  "zunehmende": 5521, 
  "Bürgerbeauftragten": 5522, 
  "vermutlich": 5523, 
  "kostenlosen": 5524, 
  "konsequent": 5525, 
  "Prag": 5526, 
  "erer": 5527, 
  "Wal@@": 5528, 
  "kennt": 5529, 
  "Moldau": 5530, 
  "mt": 5531, 
  "Airport": 5532, 
  "länder": 5533, 
  "betrieb": 5534, 
  "Dublin": 5535, 
  "AM@@": 5536, 
  "erarbeiten": 5537, 
  "8.@@": 5538, 
  "tionen": 5539, 
  "hand@@": 5540, 
  "Bel@@": 5541, 
  "Fluggesellschaften": 5542, 
  "vermittelt": 5543, 
  "Wohnungen": 5544, 
  "Aussage": 5545, 
  "Großen": 5546, 
  "umfangreichen": 5547, 
  "behörde": 5548, 
  "anpassen": 5549, 
  "Orten": 5550, 
  "lebens@@": 5551, 
  "Unterkünfte": 5552, 
  "davor": 5553, 
  "ai@@": 5554, 
  "günstig": 5555, 
  "bearbeiten": 5556, 
  "ure": 5557, 
  "genen": 5558, 
  "Florenz": 5559, 
  "ernannt": 5560, 
  "¼": 5561, 
  "Gewinne": 5562, 
  "Zuverlässigkeit": 5563, 
  "gestellten": 5564, 
  "Risiko@@": 5565, 
  "Col@@": 5566, 
  "mithilfe": 5567, 
  "Prävention": 5568, 
  "Twitter": 5569, 
  "organisierte": 5570, 
  "Aktualisierung": 5571, 
  "47": 5572, 
  "solch": 5573, 
  "gar@@": 5574, 
  "kombiniert": 5575, 
  "Internetzugang": 5576, 
  "RO": 5577, 
  "wächst": 5578, 
  "freundlichen": 5579, 
  "views": 5580, 
  "technologischen": 5581, 
  "dan@@": 5582, 
  "Har@@": 5583, 
  "Nachbarschaftspolitik": 5584, 
  "Netzes": 5585, 
  "gebühren": 5586, 
  "Verfolgung": 5587, 
  "hervorragend": 5588, 
  "Resolution": 5589, 
  "Zusammen@@": 5590, 
  "arabischen": 5591, 
  "alt@@": 5592, 
  "Jahresbericht": 5593, 
  "com@@": 5594, 
  "Merkmale": 5595, 
  "wechseln": 5596, 
  "ente": 5597, 
  "eingebracht": 5598, 
  "Tro@@": 5599, 
  "beantwortet": 5600, 
  "ologie": 5601, 
  "jährige": 5602, 
  "Neben@@": 5603, 
  "Sonnen@@": 5604, 
  "Bewusstsein": 5605, 
  "medizinischen": 5606, 
  "NL": 5607, 
  "Existenz": 5608, 
  "Revision": 5609, 
  "ativen": 5610, 
  "ls": 5611, 
  "Br@@": 5612, 
  "Effekt": 5613, 
  "Strände": 5614, 
  "Jugendliche": 5615, 
  "tive": 5616, 
  "werten": 5617, 
  "gesetz": 5618, 
  "Sitzungen": 5619, 
  "einführen": 5620, 
  "entscheidet": 5621, 
  "net": 5622, 
  "derart": 5623, 
  "lädt": 5624, 
  "Kol@@": 5625, 
  "Gemeinschaftsrecht": 5626, 
  "fairen": 5627, 
  "Erhalt": 5628, 
  "beinahe": 5629, 
  "früh": 5630, 
  "cke": 5631, 
  "Zusammenschluss": 5632, 
  "kur@@": 5633, 
  "Ruf": 5634, 
  "51": 5635, 
  "linken": 5636, 
  "entstand": 5637, 
  "Ergänzung": 5638, 
  "Dok": 5639, 
  "russische": 5640, 
  "höchst": 5641, 
  "USS": 5642, 
  "staatlicher": 5643, 
  "verwirklichen": 5644, 
  "Generalsekretär": 5645, 
  "Vorfeld": 5646, 
  "flexibel": 5647, 
  "Ü@@": 5648, 
  "bet@@": 5649, 
  "Einfuhren": 5650, 
  "verwiesen": 5651, 
  "Diensten": 5652, 
  "Milch@@": 5653, 
  "hilfreich": 5654, 
  "detaillierte": 5655, 
  "gebunden": 5656, 
  "ic@@": 5657, 
  "feste": 5658, 
  "erweisen": 5659, 
  "atoren": 5660, 
  "Cookies": 5661, 
  "Argument": 5662, 
  "Wohnzimmer": 5663, 
  "telefonisch": 5664, 
  "raten": 5665, 
  "ruhige": 5666, 
  "Angabe": 5667, 
  "Motor@@": 5668, 
  "nächster": 5669, 
  "ard": 5670, 
  "Handel@@": 5671, 
  "stützt": 5672, 
  "Erzeuger": 5673, 
  "begründet": 5674, 
  "m2": 5675, 
  "Erkenntnisse": 5676, 
  "basis": 5677, 
  "VN": 5678, 
  "Französisch": 5679, 
  "Einzelnen": 5680, 
  "Lehrer": 5681, 
  "Problematik": 5682, 
  "lä@@": 5683, 
  "Ratschlag": 5684, 
  "ro": 5685, 
  "geklärt": 5686, 
  "Sk@@": 5687, 
  "Krisen": 5688, 
  "Mehrwert": 5689, 
  "zeigte": 5690, 
  "Erwachsene": 5691, 
  "Lieferanten": 5692, 
  "Samstag": 5693, 
  "gefährlich": 5694, 
  "ET@@": 5695, 
  "Offenheit": 5696, 
  "ka@@": 5697, 
  "Konzepte": 5698, 
  "31.": 5699, 
  "gerechte": 5700, 
  "grenzen": 5701, 
  "Rot@@": 5702, 
  "Güter": 5703, 
  "USD": 5704, 
  "bewußt": 5705, 
  "Verluste": 5706, 
  "mm@@": 5707, 
  "NICHT": 5708, 
  "Hu@@": 5709, 
  "geschichte": 5710, 
  "weitaus": 5711, 
  "Airbus": 5712, 
  "Inhalten": 5713, 
  "Marktwirtschaft": 5714, 
  "Pu@@": 5715, 
  "gaben": 5716, 
  "kern": 5717, 
  "vierten": 5718, 
  "Übersicht": 5719, 
  "Katalog": 5720, 
  "--": 5721, 
  "komplexen": 5722, 
  "Hei@@": 5723, 
  "Pol@@": 5724, 
  "Governance": 5725, 
  "sub@@": 5726, 
  "Aufzug": 5727, 
  "ausgewählten": 5728, 
  "zielen": 5729, 
  "Publikum": 5730, 
  "globaler": 5731, 
  "staat": 5732, 
  "sam@@": 5733, 
  "dieselbe": 5734, 
  "Konzentration": 5735, 
  "UNION": 5736, 
  "Verteidigungs@@": 5737, 
  "Schwerpunkte": 5738, 
  "fanden": 5739, 
  "wies": 5740, 
  "Gebäuden": 5741, 
  "ungsverfahren": 5742, 
  "Telekommunikation": 5743, 
  "ertes": 5744, 
  "Stabilisierungs-": 5745, 
  "Atom@@": 5746, 
  "professionellen": 5747, 
  "Referenz@@": 5748, 
  "Objekte": 5749, 
  "gsten": 5750, 
  "Spannungen": 5751, 
  "press": 5752, 
  "förderung": 5753, 
  "existieren": 5754, 
  "hielt": 5755, 
  "leg@@": 5756, 
  "Sub@@": 5757, 
  "Office": 5758, 
  "Bildern": 5759, 
  "erläutert": 5760, 
  "tor@@": 5761, 
  "innere": 5762, 
  "Kriegs@@": 5763, 
  "nde": 5764, 
  "erfolgte": 5765, 
  "angenehmen": 5766, 
  "enthalt": 5767, 
  "investiert": 5768, 
  "gefährden": 5769, 
  "Sand@@": 5770, 
  "Richter": 5771, 
  "forderte": 5772, 
  "Soldaten": 5773, 
  "ada": 5774, 
  "quellen": 5775, 
  "biologischen": 5776, 
  "Philosophie": 5777, 
  "mehr@@": 5778, 
  "Trend": 5779, 
  "Doppelzimmer": 5780, 
  "sektors": 5781, 
  "Anmerkungen": 5782, 
  "formuliert": 5783, 
  "ke@@": 5784, 
  "leichte": 5785, 
  "52": 5786, 
  "trat": 5787, 
  "Steuerzahler": 5788, 
  "beseitigt": 5789, 
  "einzuleiten": 5790, 
  "beurteilen": 5791, 
  "bewegt": 5792, 
  "mel@@": 5793, 
  "Finanzdienstleistungen": 5794, 
  "parlamentarischen": 5795, 
  "karten": 5796, 
  "Million": 5797, 
  "Zucker@@": 5798, 
  "ECHO": 5799, 
  "Washington": 5800, 
  "abkommen": 5801, 
  "Ursprung": 5802, 
  "FÜR": 5803, 
  "ausgearbeitet": 5804, 
  "projekt": 5805, 
  "gs@@": 5806, 
  "digen": 5807, 
  "Kommentare": 5808, 
  "zustande": 5809, 
  "angebotenen": 5810, 
  "zo@@": 5811, 
  "Mitgliedstaats": 5812, 
  "ti": 5813, 
  "teil@@": 5814, 
  "Versprechen": 5815, 
  "Ste@@": 5816, 
  "nachhaltig": 5817, 
  "Bilanz": 5818, 
  "erlangen": 5819, 
  "Gegner": 5820, 
  "spiele": 5821, 
  "alität": 5822, 
  "Ursache": 5823, 
  "Kommissionsvorschlag": 5824, 
  "Folgendes": 5825, 
  "Mehrwertsteuer": 5826, 
  "abgeben": 5827, 
  "Friedens": 5828, 
  "Wellness": 5829, 
  "verliehen": 5830, 
  "Weltbank": 5831, 
  "einhalten": 5832, 
  "ative": 5833, 
  "Montenegro": 5834, 
  "Körper@@": 5835, 
  "Beschlusses": 5836, 
  "Heimat": 5837, 
  "ang": 5838, 
  "Fahrzeug": 5839, 
  "ON@@": 5840, 
  "sterben": 5841, 
  "gro@@": 5842, 
  "Werkzeug": 5843, 
  "Einschränkungen": 5844, 
  "wertvolle": 5845, 
  "Mag@@": 5846, 
  "Konjunktur@@": 5847, 
  "region": 5848, 
  "kontextuellen": 5849, 
  "zen@@": 5850, 
  "Win@@": 5851, 
  "Innovations@@": 5852, 
  "falsche": 5853, 
  "ärmsten": 5854, 
  "Wichtigkeit": 5855, 
  "portugiesischen": 5856, 
  "Annehmlichkeiten": 5857, 
  "entdeckst": 5858, 
  "gem@@": 5859, 
  "eindeutige": 5860, 
  "auswählen": 5861, 
  "Patent@@": 5862, 
  "tag": 5863, 
  "Listings": 5864, 
  "holen": 5865, 
  "Card": 5866, 
  "Fremdenverkehr": 5867, 
  "gestartet": 5868, 
  "Demokraten": 5869, 
  "Modul": 5870, 
  "ther@@": 5871, 
  "Ereignis": 5872, 
  "Betroffenen": 5873, 
  "Wälder": 5874, 
  "istische": 5875, 
  "Dienstleistungs@@": 5876, 
  "abrufbar": 5877, 
  "beiträgt": 5878, 
  "müsse": 5879, 
  "Finde": 5880, 
  "ess@@": 5881, 
  "integrieren": 5882, 
  "einzuhalten": 5883, 
  "hinzufugen": 5884, 
  "Venedig": 5885, 
  "lo": 5886, 
  "grammatisch": 5887, 
  "Branchen": 5888, 
  "car@@": 5889, 
  "kontextuell": 5890, 
  "24.": 5891, 
  "Sozialpolitik": 5892, 
  "rahmen": 5893, 
  "beider": 5894, 
  "AD@@": 5895, 
  "Wi@@": 5896, 
  "Lohn@@": 5897, 
  "Fakten": 5898, 
  "tik": 5899, 
  "gefährliche": 5900, 
  "Erwägung": 5901, 
  "AB@@": 5902, 
  "wohl@@": 5903, 
  "gemütliche": 5904, 
  "verstehe": 5905, 
  "basieren": 5906, 
  "getrennt": 5907, 
  "präzise": 5908, 
  "Anwendungs@@": 5909, 
  "verzichten": 5910, 
  "Schlusselphrase": 5911, 
  "Schlusselwort": 5912, 
  "up@@": 5913, 
  "wirklichen": 5914, 
  "aufgezahlt": 5915, 
  "super": 5916, 
  "befürworten": 5917, 
  "blieb": 5918, 
  "Ehre": 5919, 
  "Himmel": 5920, 
  "Klage": 5921, 
  "Perspektiven": 5922, 
  "orientierte": 5923, 
  "Bauern": 5924, 
  "352": 5925, 
  "kg": 5926, 
  "Ausgleich": 5927, 
  "Energiepolitik": 5928, 
  "ef@@": 5929, 
  "chtung": 5930, 
  "einstellen": 5931, 
  "ktion": 5932, 
  "beweisen": 5933, 
  "Gerichten": 5934, 
  "schem": 5935, 
  "Aufträge": 5936, 
  "22@@": 5937, 
  "Einsatz@@": 5938, 
  "kritischen": 5939, 
  "geltend": 5940, 
  "respektieren": 5941, 
  "Arbeitsbedingungen": 5942, 
  "elegante": 5943, 
  "löschen": 5944, 
  "alternative": 5945, 
  "Wind@@": 5946, 
  "Vermeidung": 5947, 
  "Ha@@": 5948, 
  "vier@@": 5949, 
  "erin": 5950, 
  "abzielen": 5951, 
  "stre@@": 5952, 
  "son@@": 5953, 
  "höchster": 5954, 
  "Global": 5955, 
  "verstärkten": 5956, 
  "Ost": 5957, 
  "Aussagen": 5958, 
  "Tools": 5959, 
  "Erleichterung": 5960, 
  "ph@@": 5961, 
  "derjenigen": 5962, 
  "Ausblick": 5963, 
  "geehrte": 5964, 
  "orientierten": 5965, 
  "Beitritts@@": 5966, 
  "rä@@": 5967, 
  "Nacht@@": 5968, 
  "Fer@@": 5969, 
  "eter": 5970, 
  "einst": 5971, 
  "konferenz": 5972, 
  "Rechner": 5973, 
  "passt": 5974, 
  "Java": 5975, 
  "Aussichten": 5976, 
  "Tu@@": 5977, 
  "Königreichs": 5978, 
  "lie@@": 5979, 
  "begrüßte": 5980, 
  "Schicksal": 5981, 
  "Ja": 5982, 
  "EU@@": 5983, 
  "Transaktionen": 5984, 
  "ziel": 5985, 
  "schreibt": 5986, 
  "Zusagen": 5987, 
  "moderner": 5988, 
  "Verletzungen": 5989, 
  "aufgerufen": 5990, 
  "anerkennen": 5991, 
  "geräten": 5992, 
  "strenge": 5993, 
  "behauptet": 5994, 
  "Ausschüsse": 5995, 
  "eingeladen": 5996, 
  "ältere": 5997, 
  "ausgewogenen": 5998, 
  "verk@@": 5999, 
  "de.htm": 6000, 
  "gli@@": 6001, 
  "Finanzmärkte": 6002, 
  "rau@@": 6003, 
  "Telekommunikations@@": 6004, 
  "ling": 6005, 
  "George": 6006, 
  "Lager": 6007, 
  "tor": 6008, 
  "Ernennung": 6009, 
  "kurzfristig": 6010, 
  "ursprüngliche": 6011, 
  "Brücke": 6012, 
  "preis@@": 6013, 
  "Lounge": 6014, 
  "sion@@": 6015, 
  "Polizei@@": 6016, 
  "Tagungen": 6017, 
  "funktionen": 6018, 
  "Robert": 6019, 
  "erörterte": 6020, 
  "betonte": 6021, 
  "stärkeren": 6022, 
  "Landes@@": 6023, 
  "Fisch": 6024, 
  "eres": 6025, 
  "betreffende": 6026, 
  "dauer": 6027, 
  "excellent": 6028, 
  "Subventionen": 6029, 
  "ehrlich": 6030, 
  "bezogen": 6031, 
  "Tool": 6032, 
  "Rassismus": 6033, 
  "Sekunden": 6034, 
  "bewegung": 6035, 
  "Centre": 6036, 
  "SA": 6037, 
  "endgültig": 6038, 
  "fs": 6039, 
  "überrascht": 6040, 
  "verurteilen": 6041, 
  "ann@@": 6042, 
  "Rechtsrahmen": 6043, 
  "breit": 6044, 
  "Audio": 6045, 
  "einiges": 6046, 
  "Bestände": 6047, 
  "Gewährung": 6048, 
  "ersch@@": 6049, 
  "ermittelt": 6050, 
  "vorgehen": 6051, 
  "Rahmenprogramm": 6052, 
  "br@@": 6053, 
  "Kuba": 6054, 
  "kleineren": 6055, 
  "Spaziergang": 6056, 
  "Meinungen": 6057, 
  "Western": 6058, 
  "Rezession": 6059, 
  "durchzusetzen": 6060, 
  "örtlichen": 6061, 
  "kommerziellen": 6062, 
  "Weltkrieg": 6063, 
  "Gottes": 6064, 
  "ierte": 6065, 
  "kurzer": 6066, 
  "gehandelt": 6067, 
  "Instrumenten": 6068, 
  "typisch": 6069, 
  "Elektro@@": 6070, 
  "Plaza": 6071, 
  "ratifiziert": 6072, 
  "unerlässlich": 6073, 
  "gelegenen": 6074, 
  "glichen": 6075, 
  "pen@@": 6076, 
  "ara": 6077, 
  "fährt": 6078, 
  "erzielte": 6079, 
  "Gruppen@@": 6080, 
  "Würde": 6081, 
  "Organen": 6082, 
  "vorrangig": 6083, 
  "Konferenzen": 6084, 
  "Generaldirektion": 6085, 
  "würdigen": 6086, 
  "Weine": 6087, 
  "Gesprächen": 6088, 
  "sions@@": 6089, 
  "EC@@": 6090, 
  "Termin": 6091, 
  "Einvernehmen": 6092, 
  "ändert": 6093, 
  "flexible": 6094, 
  "Rubrik": 6095, 
  "Immobilien@@": 6096, 
  "9.@@": 6097, 
  "Doha": 6098, 
  "56": 6099, 
  "Lizenz@@": 6100, 
  "tischer": 6101, 
  "Quoten": 6102, 
  "Erzeugnissen": 6103, 
  "Gleichbehandlung": 6104, 
  "Taten": 6105, 
  "Anti": 6106, 
  "Minderheit": 6107, 
  "ernsthafte": 6108, 
  "Modus": 6109, 
  "Felder": 6110, 
  "line": 6111, 
  "Werkzeuge": 6112, 
  "helpful": 6113, 
  "Vermarktung": 6114, 
  "54": 6115, 
  "Getränke": 6116, 
  "в@@": 6117, 
  "jeglicher": 6118, 
  "Verträgen": 6119, 
  "angewiesen": 6120, 
  "Gewinn": 6121, 
  "Ansprechpartner": 6122, 
  "War@@": 6123, 
  "linien": 6124, 
  "Tur@@": 6125, 
  "Gro@@": 6126, 
  "wirksamer": 6127, 
  "dro@@": 6128, 
  "Thomas": 6129, 
  "hiermit": 6130, 
  "Tauch@@": 6131, 
  "ökologische": 6132, 
  "IG@@": 6133, 
  "Studien@@": 6134, 
  "Konsolidierung": 6135, 
  "Zerstörung": 6136, 
  "22.": 6137, 
  "menge": 6138, 
  "arbeits@@": 6139, 
  "Gremien": 6140, 
  "angenehm": 6141, 
  "design": 6142, 
  "Rennen": 6143, 
  "mobile": 6144, 
  "Balkan": 6145, 
  "č@@": 6146, 
  "Bürokratie": 6147, 
  "Nieder@@": 6148, 
  "Im": 6149, 
  "regelmäßigen": 6150, 
  "ener": 6151, 
  "Formulierung": 6152, 
  "ba": 6153, 
  "beantragen": 6154, 
  "Anbindung": 6155, 
  "erwähnten": 6156, 
  "derartigen": 6157, 
  "Nichtraucherzimmer": 6158, 
  "eintreten": 6159, 
  "Autor": 6160, 
  "gener@@": 6161, 
  "Missbrauch": 6162, 
  "teilzunehmen": 6163, 
  "Konvergenz": 6164, 
  "schlechte": 6165, 
  "ins@@": 6166, 
  "Außenbeziehungen": 6167, 
  "streng": 6168, 
  "veröffentlichten": 6169, 
  "Investition": 6170, 
  "dos": 6171, 
  "FR": 6172, 
  "Hände": 6173, 
  "stoff": 6174, 
  "ir": 6175, 
  "ré@@": 6176, 
  "Menschheit": 6177, 
  "bilaterale": 6178, 
  "62": 6179, 
  "Unsicherheit": 6180, 
  "berühmte": 6181, 
  "Weiterbildung": 6182, 
  "grundlegender": 6183, 
  "vereinfachen": 6184, 
  "voran": 6185, 
  "AdR": 6186, 
  "lebenden": 6187, 
  "MySQL": 6188, 
  "flächen": 6189, 
  "Client": 6190, 
  "ausgestattete": 6191, 
  "etz@@": 6192, 
  "je@@": 6193, 
  "Terroristen": 6194, 
  "vertraut": 6195, 
  "23.": 6196, 
  "multilateralen": 6197, 
  "IC@@": 6198, 
  "Mischung": 6199, 
  "Plätze": 6200, 
  "bevorstehenden": 6201, 
  "Empfänger": 6202, 
  "Pri@@": 6203, 
  "schwieriger": 6204, 
  "Mas@@": 6205, 
  "informationen": 6206, 
  "nachzukommen": 6207, 
  "kontinuierlich": 6208, 
  "Sol@@": 6209, 
  "dauern": 6210, 
  "kom@@": 6211, 
  "TR@@": 6212, 
  "Prüf@@": 6213, 
  "unzureichend": 6214, 
  "ze@@": 6215, 
  "RA@@": 6216, 
  "irische": 6217, 
  "größerer": 6218, 
  "geschickt": 6219, 
  "inwieweit": 6220, 
  "vers@@": 6221, 
  "Unterlagen": 6222, 
  "mes": 6223, 
  "verarbeitet": 6224, 
  "Ausbeutung": 6225, 
  "nieder@@": 6226, 
  "Star@@": 6227, 
  "israelischen": 6228, 
  "genießt": 6229, 
  "Luxus": 6230, 
  "kt@@": 6231, 
  "gesichert": 6232, 
  "enn@@": 6233, 
  "zeichen": 6234, 
  "Min@@": 6235, 
  "Kreativität": 6236, 
  "Bestellungen": 6237, 
  "bre@@": 6238, 
  "Glauben": 6239, 
  "enti@@": 6240, 
  "Portal": 6241, 
  "hängen": 6242, 
  "ausgebaut": 6243, 
  "retten": 6244, 
  "Via": 6245, 
  "Zoll": 6246, 
  "ungarischen": 6247, 
  "HIV": 6248, 
  "bereitzustellen": 6249, 
  "daraufhin": 6250, 
  "Bahn@@": 6251, 
  "dé@@": 6252, 
  "Putin": 6253, 
  "eingeschränkt": 6254, 
  "Wander@@": 6255, 
  "José": 6256, 
  "realisiert": 6257, 
  "Skype": 6258, 
  "einzig": 6259, 
  "umfassendes": 6260, 
  "Nutz@@": 6261, 
  "einzubeziehen": 6262, 
  "Reinigung": 6263, 
  "Versuche": 6264, 
  "vereint": 6265, 
  "Auflagen": 6266, 
  "spar@@": 6267, 
  "religiösen": 6268, 
  "transparent": 6269, 
  "Erbe": 6270, 
  "rit@@": 6271, 
  "handel": 6272, 
  "wunderschöne": 6273, 
  "zahl": 6274, 
  "US@@": 6275, 
  "gleichwohl": 6276, 
  "realen": 6277, 
  "punkte": 6278, 
  "Rotary": 6279, 
  "Umstellung": 6280, 
  "unterscheidet": 6281, 
  "zog": 6282, 
  "Standpunkte": 6283, 
  "Berechnung": 6284, 
  "gültig": 6285, 
  "rechtfertigen": 6286, 
  "Beach": 6287, 
  "jahr": 6288, 
  "Anwendungsbereich": 6289, 
  "gehabt": 6290, 
  "Tor": 6291, 
  "Vertreters": 6292, 
  "potenziellen": 6293, 
  "konstruktive": 6294, 
  "Sach@@": 6295, 
  "ME@@": 6296, 
  "aufweisen": 6297, 
  "industrielle": 6298, 
  "Erhebung": 6299, 
  "Nachmittag": 6300, 
  "Amtszeit": 6301, 
  "Katastrophen": 6302, 
  "Seele": 6303, 
  "University": 6304, 
  "sten@@": 6305, 
  "werke": 6306, 
  "Amerikas": 6307, 
  "Volkspartei": 6308, 
  "prozesse": 6309, 
  "fort@@": 6310, 
  "GNU": 6311, 
  "Mittel-": 6312, 
  "inneren": 6313, 
  "Royal": 6314, 
  "Menschenrechtsverletzungen": 6315, 
  "Bre@@": 6316, 
  "Ta@@": 6317, 
  "mis@@": 6318, 
  "Parlaments@@": 6319, 
  "automatische": 6320, 
  "pool": 6321, 
  "voneinander": 6322, 
  "bestimmtes": 6323, 
  "Verteidigungspolitik": 6324, 
  "andernfalls": 6325, 
  "ordnung": 6326, 
  "Händen": 6327, 
  "Festplatte": 6328, 
  "Gal@@": 6329, 
  "aufgehoben": 6330, 
  "\\": 6331, 
  "Analysen": 6332, 
  "MS": 6333, 
  "Verfassungs@@": 6334, 
  "Gewinner": 6335, 
  "niedriger": 6336, 
  "womit": 6337, 
  "Zürich": 6338, 
  "zulässig": 6339, 
  "§": 6340, 
  "hebt": 6341, 
  "AG@@": 6342, 
  "era": 6343, 
  "Referendum": 6344, 
  "demokratischer": 6345, 
  "Visa": 6346, 
  "Mrd": 6347, 
  "dauerhafte": 6348, 
  "mehrerer": 6349, 
  "AU@@": 6350, 
  "stoßen": 6351, 
  "gender": 6352, 
  "kritische": 6353, 
  "Handy": 6354, 
  "behindern": 6355, 
  "Gesicht": 6356, 
  "biologische": 6357, 
  "einzurichten": 6358, 
  "Küsten@@": 6359, 
  "fl@@": 6360, 
  "EP": 6361, 
  "gend": 6362, 
  "gewinnt": 6363, 
  "hren": 6364, 
  "bezeichnen": 6365, 
  "bank": 6366, 
  "Köln": 6367, 
  "Bundesrepublik": 6368, 
  "ner@@": 6369, 
  "Best@@": 6370, 
  "ars": 6371, 
  "AIDS": 6372, 
  "ate@@": 6373, 
  "Bri@@": 6374, 
  "einnehmen": 6375, 
  "Außengrenzen": 6376, 
  "OECD": 6377, 
  "Hochschulen": 6378, 
  "burg": 6379, 
  "User": 6380, 
  "Arbeitsprogramm": 6381, 
  "bereitstellen": 6382, 
  "KOM": 6383, 
  "konzipiert": 6384, 
  "Fans": 6385, 
  "plan@@": 6386, 
  "eigentliche": 6387, 
  "view": 6388, 
  "lauf@@": 6389, 
  "beschreibt": 6390, 
  "91": 6391, 
  "Kongo": 6392, 
  "tiges": 6393, 
  "Summe": 6394, 
  "Rechtssicherheit": 6395, 
  "ting": 6396, 
  "Intervention": 6397, 
  "absolute": 6398, 
  "verbot": 6399, 
  "Bas@@": 6400, 
  "72": 6401, 
  "Kräften": 6402, 
  "finanziell": 6403, 
  "Stahl": 6404, 
  "Cal@@": 6405, 
  "maschine": 6406, 
  "Ferienwohnungen": 6407, 
  "spiegelt": 6408, 
  "á": 6409, 
  "dre@@": 6410, 
  "aden": 6411, 
  "stand@@": 6412, 
  "setzung": 6413, 
  "überwiegend": 6414, 
  "maximale": 6415, 
  "Muster": 6416, 
  "94": 6417, 
  "berichte": 6418, 
  "äu@@": 6419, 
  "zunehmen": 6420, 
  "Bitte": 6421, 
  "buch": 6422, 
  "tin": 6423, 
  "Dienstleistung": 6424, 
  "Hinter@@": 6425, 
  "Verstoß": 6426, 
  "qualifizierte": 6427, 
  "wozu": 6428, 
  "städtischen": 6429, 
  "gefährlichen": 6430, 
  "Genuss": 6431, 
  "Empfang": 6432, 
  "Qualifikationen": 6433, 
  "gelegene": 6434, 
  "finanzieller": 6435, 
  "version": 6436, 
  "mechanismen": 6437, 
  "gemessen": 6438, 
  "klarer": 6439, 
  "Show": 6440, 
  "Th@@": 6441, 
  "bedauerlich": 6442, 
  "teren": 6443, 
  "BR@@": 6444, 
  "Zimmerbeschreibung": 6445, 
  "Einwanderer": 6446, 
  "Burg": 6447, 
  "Tempo": 6448, 
  "gemütlichen": 6449, 
  "schenken": 6450, 
  "kre@@": 6451, 
  "Mittwoch": 6452, 
  "Schwer@@": 6453, 
  "hen": 6454, 
  "beeinflusst": 6455, 
  "stu@@": 6456, 
  "gut@@": 6457, 
  "Safe": 6458, 
  "д@@": 6459, 
  "Bett": 6460, 
  "sicherer": 6461, 
  "89": 6462, 
  "Ostsee": 6463, 
  "ablehnen": 6464, 
  "Spielraum": 6465, 
  "osteuropäischen": 6466, 
  "wahre": 6467, 
  "fällen": 6468, 
  "ausgenommen": 6469, 
  "Glas": 6470, 
  "gefasst": 6471, 
  "ermutigen": 6472, 
  "gesenkt": 6473, 
  "Konkurrenz": 6474, 
  "Direktor": 6475, 
  "gegenseitig": 6476, 
  "gesammelt": 6477, 
  "Tunesien": 6478, 
  "Lasten": 6479, 
  "Drei@@": 6480, 
  "Foto@@": 6481, 
  "herum": 6482, 
  "Bra@@": 6483, 
  "Konflikts": 6484, 
  "AC@@": 6485, 
  "gelingen": 6486, 
  "leitet": 6487, 
  "Fre@@": 6488, 
  "tar@@": 6489, 
  "regelungen": 6490, 
  "Mini@@": 6491, 
  "about": 6492, 
  "reg@@": 6493, 
  "ssi@@": 6494, 
  "Energieversorgung": 6495, 
  "SE": 6496, 
  "Beruf": 6497, 
  "Mac": 6498, 
  "Entscheidungs@@": 6499, 
  "erreichte": 6500, 
  "Rande": 6501, 
  "Einwände": 6502, 
  "Anwesenheit": 6503, 
  "endet": 6504, 
  "aux": 6505, 
  "koordiniert": 6506, 
  "einzugehen": 6507, 
  "ant@@": 6508, 
  "Erasmus": 6509, 
  "empfängt": 6510, 
  "verordnung": 6511, 
  "Ter@@": 6512, 
  "Hafen@@": 6513, 
  "negativ": 6514, 
  "beantragt": 6515, 
  "plötzlich": 6516, 
  "Vertragsparteien": 6517, 
  "centre": 6518, 
  "any": 6519, 
  "200@@": 6520, 
  "japanischen": 6521, 
  "gebildet": 6522, 
  "nötigen": 6523, 
  "Vergabe": 6524, 
  "diesmal": 6525, 
  "Zinsen": 6526, 
  "Original@@": 6527, 
  "eleganten": 6528, 
  "klären": 6529, 
  "wasser@@": 6530, 
  "Produzenten": 6531, 
  "geschlossenen": 6532, 
  "Fischler": 6533, 
  "dischen": 6534, 
  "и": 6535, 
  "A5": 6536, 
  "obgleich": 6537, 
  "Adressen": 6538, 
  "Präsentation": 6539, 
  "Medikamente": 6540, 
  "See@@": 6541, 
  "Gold@@": 6542, 
  "Por@@": 6543, 
  "Datenschutz@@": 6544, 
  "kontrollen": 6545, 
  "Anpassungen": 6546, 
  "hilfe": 6547, 
  "Bewohner": 6548, 
  "ausführlich": 6549, 
  "junger": 6550, 
  "gewünschte": 6551, 
  "frühere": 6552, 
  "Geräten": 6553, 
  "Ei@@": 6554, 
  "bezogenen": 6555, 
  "Bühne": 6556, 
  "eingebunden": 6557, 
  "gers": 6558, 
  "angehören": 6559, 
  "Menschenrechten": 6560, 
  "Reaktionen": 6561, 
  "sel@@": 6562, 
  "ty": 6563, 
  "Ser@@": 6564, 
  "ungsp@@": 6565, 
  "zahlungen": 6566, 
  "Umsatz": 6567, 
  "Hochschul@@": 6568, 
  "gehe": 6569, 
  "Informationsaustausch": 6570, 
  "Behinderungen": 6571, 
  "Hol@@": 6572, 
  "zy@@": 6573, 
  "treiben": 6574, 
  "quote": 6575, 
  "Phänomen": 6576, 
  "Gipfels": 6577, 
  "nützliche": 6578, 
  "Trends": 6579, 
  "teuer": 6580, 
  "ese": 6581, 
  "ausgaben": 6582, 
  "Fristen": 6583, 
  "Überwachungs@@": 6584, 
  "schule": 6585, 
  "strengen": 6586, 
  "anzeigen": 6587, 
  "Höchst@@": 6588, 
  "eigentlichen": 6589, 
  "problemlos": 6590, 
  "Büros": 6591, 
  "66": 6592, 
  "Benutzer@@": 6593, 
  "Umfrage": 6594, 
  "Image": 6595, 
  "Hostelsclub": 6596, 
  "53": 6597, 
  "gebe": 6598, 
  "29.": 6599, 
  "Verkaufs@@": 6600, 
  "regelmäßige": 6601, 
  "demokratisch": 6602, 
  "mente": 6603, 
  "wenigsten": 6604, 
  "faire": 6605, 
  "Subsidiarität": 6606, 
  "IM": 6607, 
  "Euroraum": 6608, 
  "ato": 6609, 
  "Kommissions@@": 6610, 
  "Wind": 6611, 
  "griechische": 6612, 
  "AL": 6613, 
  "Power": 6614, 
  "verwalten": 6615, 
  "63": 6616, 
  "gens": 6617, 
  "diesbezüglichen": 6618, 
  "Vorsitzende": 6619, 
  "alleine": 6620, 
  "Im@@": 6621, 
  "Bewirtschaftung": 6622, 
  "Express": 6623, 
  "ausschuß": 6624, 
  "unterwegs": 6625, 
  "ste@@": 6626, 
  "Mails": 6627, 
  "ley": 6628, 
  "tions": 6629, 
  "hundert": 6630, 
  "DI@@": 6631, 
  "aussehen": 6632, 
  "Bewertungen": 6633, 
  "Haushaltsplans": 6634, 
  "bedienen": 6635, 
  "ani@@": 6636, 
  "close": 6637, 
  "vol@@": 6638, 
  "Impulse": 6639, 
  "stes": 6640, 
  "26.": 6641, 
  "Schuld": 6642, 
  "interessanten": 6643, 
  "pan@@": 6644, 
  "daneben": 6645, 
  "Seen": 6646, 
  "Fuß@@": 6647, 
  "angebote": 6648, 
  "comfortable": 6649, 
  "Lehren": 6650, 
  "would": 6651, 
  "Eingliederung": 6652, 
  "Beschränkung": 6653, 
  "aner": 6654, 
  "vorbehalten": 6655, 
  "ausgewogene": 6656, 
  "ban@@": 6657, 
  "ors": 6658, 
  "tiefe": 6659, 
  "analysiert": 6660, 
  "Börse": 6661, 
  "Logik": 6662, 
  "gesorgt": 6663, 
  "post@@": 6664, 
  "12.@@": 6665, 
  "Events": 6666, 
  "anforderungen": 6667, 
  "Saal": 6668, 
  "normale": 6669, 
  "orientiert": 6670, 
  "Geschäften": 6671, 
  "Nor@@": 6672, 
  "vereinfacht": 6673, 
  "bezogene": 6674, 
  "Eine": 6675, 
  "Rio": 6676, 
  "ise": 6677, 
  "strategien": 6678, 
  "10.@@": 6679, 
  "Clubs": 6680, 
  "Hans": 6681, 
  "Gewerkschaften": 6682, 
  "versehene": 6683, 
  "located": 6684, 
  "Text@@": 6685, 
  "verabschiedete": 6686, 
  "sämtlichen": 6687, 
  "Aktien": 6688, 
  "EG@@": 6689, 
  "finanzierung": 6690, 
  "schla@@": 6691, 
  "Kabel": 6692, 
  "registriert": 6693, 
  "fügen": 6694, 
  "aktualisieren": 6695, 
  "sor@@": 6696, 
  "komplex": 6697, 
  "kette": 6698, 
  "restaurant": 6699, 
  "dauerhaften": 6700, 
  "starkes": 6701, 
  "Techniken": 6702, 
  "passieren": 6703, 
  "erworben": 6704, 
  "größe": 6705, 
  "Mitwirkung": 6706, 
  "erläutern": 6707, 
  "Angriffe": 6708, 
  "stieg": 6709, 
  "haltung": 6710, 
  "gebraucht": 6711, 
  "abend": 6712, 
  "IM@@": 6713, 
  "Zahn@@": 6714, 
  "Budget": 6715, 
  "Artikels": 6716, 
  "Schiffen": 6717, 
  "Objekt": 6718, 
  "J": 6719, 
  "Fehler@@": 6720, 
  "Leistungsfähigkeit": 6721, 
  "komfortablen": 6722, 
  "öffnet": 6723, 
  "France": 6724, 
  "Entwicklungspolitik": 6725, 
  "plätze": 6726, 
  "Liberalen": 6727, 
  "internationales": 6728, 
  "Professor": 6729, 
  "Erst@@": 6730, 
  "Module": 6731, 
  "passen": 6732, 
  "¶": 6733, 
  "vergleichen": 6734, 
  "cker": 6735, 
  "Marken@@": 6736, 
  "ohnehin": 6737, 
  "angeschlossen": 6738, 
  "angeblich": 6739, 
  "2,@@": 6740, 
  "Gebühr": 6741, 
  "language": 6742, 
  "Beträge": 6743, 
  "assoziierten": 6744, 
  "ländern": 6745, 
  "gleicher": 6746, 
  "versehen": 6747, 
  "besseres": 6748, 
  "Verzögerungen": 6749, 
  "dänischen": 6750, 
  "unterliegt": 6751, 
  "28.": 6752, 
  "Appartement": 6753, 
  "Rats@@": 6754, 
  "Halb@@": 6755, 
  ".org": 6756, 
  "Schnittstelle": 6757, 
  "Alltag": 6758, 
  "paket": 6759, 
  "Bro@@": 6760, 
  "Funktionsweise": 6761, 
  "esen": 6762, 
  "stan@@": 6763, 
  "Schätzungen": 6764, 
  "drängen": 6765, 
  "Life": 6766, 
  "Gesundheitswesen": 6767, 
  "stern": 6768, 
  "eck@@": 6769, 
  "niedrig": 6770, 
  "angelegt": 6771, 
  "jeweilige": 6772, 
  "Einschränkung": 6773, 
  "VON": 6774, 
  "Transfer": 6775, 
  "konzept": 6776, 
  "ski": 6777, 
  "friedlichen": 6778, 
  "59": 6779, 
  "Nation": 6780, 
  "Dach@@": 6781, 
  "Updates": 6782, 
  "Theorie": 6783, 
  "überdies": 6784, 
  "spielte": 6785, 
  "ll": 6786, 
  "Wünschen": 6787, 
  "Stabilisierung": 6788, 
  "typische": 6789, 
  "Libyen": 6790, 
  "östlichen": 6791, 
  "sta": 6792, 
  "Raum@@": 6793, 
  "durchschnittlich": 6794, 
  "like": 6795, 
  "Metall@@": 6796, 
  "modernes": 6797, 
  "Beförderung": 6798, 
  "analysieren": 6799, 
  "Partner@@": 6800, 
  "kor@@": 6801, 
  "respektiert": 6802, 
  "Gemeinschaftsebene": 6803, 
  "denselben": 6804, 
  "82": 6805, 
  "Wa@@": 6806, 
  "kommende": 6807, 
  "laufende": 6808, 
  "recht@@": 6809, 
  "Port": 6810, 
  "Edition": 6811, 
  "gendes": 6812, 
  "Vereinigung": 6813, 
  "marktes": 6814, 
  "standards": 6815, 
  "Profil": 6816, 
  "Versorgungs@@": 6817, 
  "Nichtraucherzonen": 6818, 
  "Wesen": 6819, 
  "Quartal": 6820, 
  "LI@@": 6821, 
  "Anzeige": 6822, 
  "durchschnittliche": 6823, 
  "Akteuren": 6824, 
  "äußerster": 6825, 
  "Amtsblatt": 6826, 
  "konstruktiven": 6827, 
  "11.@@": 6828, 
  "s-": 6829, 
  "Komponente": 6830, 
  "geschafft": 6831, 
  "Vermittlung": 6832, 
  "bri@@": 6833, 
  "Wortlaut": 6834, 
  "fiel": 6835, 
  "Spezialisten": 6836, 
  "Vertreterin": 6837, 
  "set": 6838, 
  "ausserdem": 6839, 
  "Gr@@": 6840, 
  "Verantwortlichen": 6841, 
  "bewiesen": 6842, 
  "Forscher": 6843, 
  "Haup@@": 6844, 
  "Hektar": 6845, 
  "Defizite": 6846, 
  "Fang@@": 6847, 
  "Abgeordneter": 6848, 
  "Krisen@@": 6849, 
  "enten": 6850, 
  "anstelle": 6851, 
  "Grundfreiheiten": 6852, 
  "vierte": 6853, 
  "geführten": 6854, 
  "Medi@@": 6855, 
  "Export": 6856, 
  "ns": 6857, 
  "ass@@": 6858, 
  "Gebietskörperschaften": 6859, 
  "Türen": 6860, 
  "Linien": 6861, 
  "Sound": 6862, 
  "Sicherheits-": 6863, 
  "Inhaber": 6864, 
  "untereinander": 6865, 
  "letztes": 6866, 
  "kra@@": 6867, 
  "Wald": 6868, 
  "schlag": 6869, 
  "Fahrzeug@@": 6870, 
  "Fein@@": 6871, 
  "87": 6872, 
  "Such@@": 6873, 
  "kostenfrei": 6874, 
  "sal@@": 6875, 
  "begleiten": 6876, 
  "Kredite": 6877, 
  "geholfen": 6878, 
  "Flugzeuge": 6879, 
  "GASP": 6880, 
  "tierten": 6881, 
  "sagten": 6882, 
  "Wetter": 6883, 
  "herstellen": 6884, 
  "poli@@": 6885, 
  "Funktionalität": 6886, 
  "IKT": 6887, 
  "behindert": 6888, 
  "Source": 6889, 
  "Erd@@": 6890, 
  "25@@": 6891, 
  "rü@@": 6892, 
  "way": 6893, 
  "gerechten": 6894, 
  "englischen": 6895, 
  "tw@@": 6896, 
  "58": 6897, 
  "verlängert": 6898, 
  "Budapest": 6899, 
  "Men@@": 6900, 
  "12.00": 6901, 
  "derung": 6902, 
  "är": 6903, 
  "ppen": 6904, 
  "Al": 6905, 
  "Plus": 6906, 
  "bed": 6907, 
  "gre@@": 6908, 
  "Kongress": 6909, 
  "Vertriebs@@": 6910, 
  "versetzt": 6911, 
  "vorherige": 6912, 
  "Louis": 6913, 
  "anzugehen": 6914, 
  "meistens": 6915, 
  "ernste": 6916, 
  "tis": 6917, 
  "è": 6918, 
  "immerhin": 6919, 
  "Gespräch": 6920, 
  "stay": 6921, 
  "Soziales": 6922, 
  "koordinieren": 6923, 
  "Einkommens@@": 6924, 
  "col@@": 6925, 
  "chs@@": 6926, 
  "gl@@": 6927, 
  "Maastricht": 6928, 
  "stellten": 6929, 
  "uren": 6930, 
  "vorherigen": 6931, 
  "Nichtregierungsorganisationen": 6932, 
  "jemals": 6933, 
  "bro@@": 6934, 
  "Can@@": 6935, 
  "lern": 6936, 
  "este": 6937, 
  "ders": 6938, 
  "einf@@": 6939, 
  "Besonderheiten": 6940, 
  "Last": 6941, 
  "Na@@": 6942, 
  "Marina": 6943, 
  "Gegebenheiten": 6944, 
  "einzustellen": 6945, 
  "Annäherung": 6946, 
  "27.": 6947, 
  "arbeitete": 6948, 
  "Speicher@@": 6949, 
  "Datei@@": 6950, 
  "brechen": 6951, 
  "Mat@@": 6952, 
  "Randlage": 6953, 
  "grüne": 6954, 
  "î@@": 6955, 
  "fälle": 6956, 
  "angemessener": 6957, 
  "ai": 6958, 
  "Bur@@": 6959, 
  "einzelner": 6960, 
  "Performance": 6961, 
  "ethnischen": 6962, 
  "Waren@@": 6963, 
  "ebene": 6964, 
  "Abstand": 6965, 
  "Training": 6966, 
  "unterrichtet": 6967, 
  "verglichen": 6968, 
  "ckt": 6969, 
  "Mer@@": 6970, 
  "effektiven": 6971, 
  "Gentoo": 6972, 
  "Roh@@": 6973, 
  "Waffen@@": 6974, 
  "Tochter": 6975, 
  "Abwicklung": 6976, 
  "gerufen": 6977, 
  "Dritter": 6978, 
  "getreten": 6979, 
  "steigenden": 6980, 
  "registrieren": 6981, 
  "leidet": 6982, 
  "Verfahrens@@": 6983, 
  "verankert": 6984, 
  "Hi@@": 6985, 
  "abzielt": 6986, 
  "Dreh@@": 6987, 
  "Art.": 6988, 
  "mitglieder": 6989, 
  "sei@@": 6990, 
  "Medizin": 6991, 
  "intensive": 6992, 
  "Flu@@": 6993, 
  "ED@@": 6994, 
  "bisschen": 6995, 
  "vorhaben": 6996, 
  "schalten": 6997, 
  "Bedingung": 6998, 
  "gew@@": 6999, 
  "gesunden": 7000, 
  "sicherheits@@": 7001, 
  "ces": 7002, 
  "Einwohnern": 7003, 
  "Nahrungsmittel@@": 7004, 
  "eigenem": 7005, 
  "bearbeitet": 7006, 
  "Beitrittsverhandlungen": 7007, 
  "ausgelöst": 7008, 
  "Instruments": 7009, 
  "kommerzielle": 7010, 
  "baut": 7011, 
  "ür@@": 7012, 
  "begangen": 7013, 
  "Verhaltenskodex": 7014, 
  "Sowjetunion": 7015, 
  "71": 7016, 
  "stri@@": 7017, 
  "Bergen": 7018, 
  "passende": 7019, 
  "Migranten": 7020, 
  "Kernel": 7021, 
  "theit": 7022, 
  "bekanntlich": 7023, 
  "lieben": 7024, 
  "sc@@": 7025, 
  "seh@@": 7026, 
  "Studium": 7027, 
  "Sony": 7028, 
  "non": 7029, 
  "Hilfen": 7030, 
  "Tre@@": 7031, 
  "inakzeptabel": 7032, 
  "EB@@": 7033, 
  "Filter": 7034, 
  "aufrechterhalten": 7035, 
  "ON": 7036, 
  "Prozess@@": 7037, 
  "Moskau": 7038, 
  "Motto": 7039, 
  "Eigenschaft": 7040, 
  "wasser": 7041, 
  "Check": 7042, 
  "Release": 7043, 
  "erbringen": 7044, 
  "gemeinschaftliche": 7045, 
  "untergraben": 7046, 
  "Dienststellen": 7047, 
  "lung": 7048, 
  "Pension": 7049, 
  "agentur": 7050, 
  "ade": 7051, 
  "Des@@": 7052, 
  "information": 7053, 
  "verwirklicht": 7054, 
  "Charme": 7055, 
  "Traum": 7056, 
  "Minibar": 7057, 
  "Integrität": 7058, 
  "Optimierung": 7059, 
  "wartet": 7060, 
  "Stock": 7061, 
  "angefangen": 7062, 
  "Zimmer@@": 7063, 
  "Tal@@": 7064, 
  "az@@": 7065, 
  "Anreiz": 7066, 
  "teilgenommen": 7067, 
  "grad": 7068, 
  "feiern": 7069, 
  "umgekehrt": 7070, 
  "Beobachter": 7071, 
  "sprache": 7072, 
  "ast@@": 7073, 
  "gewisser": 7074, 
  "88": 7075, 
  "ersuchen": 7076, 
  "Entstehung": 7077, 
  "Beendigung": 7078, 
  "SV": 7079, 
  "ausführliche": 7080, 
  "beliebigen": 7081, 
  "NI": 7082, 
  "Gemüse": 7083, 
  "elten": 7084, 
  "2.0": 7085, 
  "Alpen": 7086, 
  "Laufzeit": 7087, 
  "gest@@": 7088, 
  "nachhaltiges": 7089, 
  "gefolgt": 7090, 
  "Ordner": 7091, 
  "Flüchtlingen": 7092, 
  "Übergangs@@": 7093, 
  "zieren": 7094, 
  "fo@@": 7095, 
  "Sommer@@": 7096, 
  "prüft": 7097, 
  "droht": 7098, 
  "sierten": 7099, 
  "wirft": 7100, 
  "Fu@@": 7101, 
  "EP@@": 7102, 
  "schwerer": 7103, 
  "plant": 7104, 
  "Fa@@": 7105, 
  "Nahrungsmittel": 7106, 
  "trennen": 7107, 
  "Schulden@@": 7108, 
  "Los": 7109, 
  "Operationen": 7110, 
  "mal@@": 7111, 
  "Aktivität": 7112, 
  "deutscher": 7113, 
  "privater": 7114, 
  "Süd": 7115, 
  "Aufsicht": 7116, 
  "zahlt": 7117, 
  "aufeinander": 7118, 
  "getötet": 7119, 
  "versorgung": 7120, 
  "vernünftige": 7121, 
  "57": 7122, 
  "gutem": 7123, 
  "od@@": 7124, 
  "interessieren": 7125, 
  "acht@@": 7126, 
  "Dra@@": 7127, 
  "nt": 7128, 
  "Zusammenfassung": 7129, 
  "lin": 7130, 
  "welt@@": 7131, 
  "ona": 7132, 
  "Strand@@": 7133, 
  "nden": 7134, 
  "when": 7135, 
  "inn@@": 7136, 
  "Gol@@": 7137, 
  "schlechten": 7138, 
  "oberen": 7139, 
  "ken@@": 7140, 
  "Helsinki": 7141, 
  "unmittelbaren": 7142, 
  "Unterhaltung": 7143, 
  "2,5": 7144, 
  "engere": 7145, 
  "61": 7146, 
  "gesetzten": 7147, 
  "v.": 7148, 
  "wenngleich": 7149, 
  "nähere": 7150, 
  "breites": 7151, 
  "Finanz-": 7152, 
  "zahlreicher": 7153, 
  "gesunde": 7154, 
  "vereinbarungen": 7155, 
  "greift": 7156, 
  "Flugzeug": 7157, 
  "ire": 7158, 
  "Flüge": 7159, 
  "vorzubereiten": 7160, 
  "etc": 7161, 
  "Pflege": 7162, 
  "Lan@@": 7163, 
  "Gesetzes": 7164, 
  "wert@@": 7165, 
  "gesellschaftliche": 7166, 
  "new": 7167, 
  "spüren": 7168, 
  "Original": 7169, 
  "Ferien": 7170, 
  "losigkeit": 7171, 
  "reale": 7172, 
  "Ben@@": 7173, 
  "Begrenzung": 7174, 
  "Foundation": 7175, 
  "work": 7176, 
  "Lauf@@": 7177, 
  "dungen": 7178, 
  "verkehrs@@": 7179, 
  "sport": 7180, 
  "Wettbewerbspolitik": 7181, 
  "Fußball@@": 7182, 
  "schaften": 7183, 
  "reise": 7184, 
  "Trennung": 7185, 
  "loser": 7186, 
  "Lehre": 7187, 
  "begrenzte": 7188, 
  "Bildschirm": 7189, 
  "Palästinenser": 7190, 
  "Gärten": 7191, 
  "behandlung": 7192, 
  "Verbrauch": 7193, 
  "Wille": 7194, 
  "sischen": 7195, 
  "Strukturreformen": 7196, 
  "Zufriedenheit": 7197, 
  "Verfasser": 7198, 
  "kritisiert": 7199, 
  "vorgesehene": 7200, 
  "Sudan": 7201, 
  "band": 7202, 
  "Rechtssache": 7203, 
  "MB": 7204, 
  "chemischen": 7205, 
  "Haushaltsjahr": 7206, 
  "verbindungen": 7207, 
  "Leuten": 7208, 
  "rie@@": 7209, 
  "eingerichtete": 7210, 
  "Opfern": 7211, 
  "zwingen": 7212, 
  "friedliche": 7213, 
  "Corporate": 7214, 
  "Hostel": 7215, 
  "Netzwerk@@": 7216, 
  "fra@@": 7217, 
  "All@@": 7218, 
  "Zusage": 7219, 
  "Korea": 7220, 
  "erbaut": 7221, 
  "Rund@@": 7222, 
  "verstößt": 7223, 
  "einheit": 7224, 
  "Rechtsprechung": 7225, 
  "voraus@@": 7226, 
  "ang@@": 7227, 
  "Community": 7228, 
  "Finanzierungen": 7229, 
  "My@@": 7230, 
  "ueber@@": 7231, 
  "lat@@": 7232, 
  "Hal@@": 7233, 
  "tau@@": 7234, 
  "Konstruktion": 7235, 
  "bestens": 7236, 
  "Koordination": 7237, 
  "Kat@@": 7238, 
  "Fehlen": 7239, 
  "Zi@@": 7240, 
  "Stockholm": 7241, 
  "Auskünfte": 7242, 
  "keinesfalls": 7243, 
  "tierte": 7244, 
  "esse": 7245, 
  "unterbrochen": 7246, 
  "Indonesien": 7247, 
  "Äußerungen": 7248, 
  "vielfältigen": 7249, 
  "Bet@@": 7250, 
  "fan@@": 7251, 
  "Hoheitsgebiet": 7252, 
  "ite": 7253, 
  "elf": 7254, 
  "Hau@@": 7255, 
  "Karriere": 7256, 
  "pri@@": 7257, 
  "Allgemeine": 7258, 
  "Übermittlung": 7259, 
  "hafte": 7260, 
  "Eigentümer": 7261, 
  "Simbabwe": 7262, 
  "Satelliten@@": 7263, 
  "EFTA": 7264, 
  "bedingt": 7265, 
  "ließen": 7266, 
  "verknüpft": 7267, 
  "Forschungs-": 7268, 
  "schützt": 7269, 
  "aren": 7270, 
  "nachdenken": 7271, 
  "felder": 7272, 
  "gebäude": 7273, 
  "hervor@@": 7274, 
  "angehen": 7275, 
  "gelernt": 7276, 
  "Ratsvorsitzes": 7277, 
  "Beitrittsländer": 7278, 
  "zurückzu@@": 7279, 
  "Direkt@@": 7280, 
  "Wild@@": 7281, 
  "Aufnahmen": 7282, 
  "Erneuerung": 7283, 
  "name": 7284, 
  "Vo@@": 7285, 
  "blicken": 7286, 
  "Internetseite": 7287, 
  "Sam@@": 7288, 
  "schwedische": 7289, 
  "auszubauen": 7290, 
  "Straf@@": 7291, 
  "teilnehmenden": 7292, 
  "ane": 7293, 
  "Mel@@": 7294, 
  "druck@@": 7295, 
  "dens": 7296, 
  "Israels": 7297, 
  "Register": 7298, 
  "schlimmer": 7299, 
  "vorzuschlagen": 7300, 
  "Wahrnehmung": 7301, 
  "Grün@@": 7302, 
  "dig": 7303, 
  "Zielsetzung": 7304, 
  "stecken": 7305, 
  "Breitband@@": 7306, 
  "gratis": 7307, 
  "ökonomischen": 7308, 
  "Gültigkeit": 7309, 
  "dein": 7310, 
  "Genf": 7311, 
  "ET": 7312, 
  "Evaluierung": 7313, 
  "umwelt@@": 7314, 
  "Obst": 7315, 
  "Gewinn@@": 7316, 
  "Drittländer": 7317, 
  "Menschenhandel": 7318, 
  "Realisierung": 7319, 
  "Fehl@@": 7320, 
  "fen@@": 7321, 
  "regionen": 7322, 
  "OSZE": 7323, 
  "ek": 7324, 
  "kritisch": 7325, 
  "fehlende": 7326, 
  "tatsächliche": 7327, 
  "eingerichteten": 7328, 
  "angenehme": 7329, 
  "zumal": 7330, 
  "live": 7331, 
  "Anregungen": 7332, 
  "bekräftigen": 7333, 
  "Datenbanken": 7334, 
  "PS": 7335, 
  "lungen": 7336, 
  "Virus": 7337, 
  "zz@@": 7338, 
  "systematisch": 7339, 
  "Aufrechterhaltung": 7340, 
  "üblich": 7341, 
  "verweist": 7342, 
  "EVP": 7343, 
  "chern": 7344, 
  "liegende": 7345, 
  "namens": 7346, 
  "Bezahlung": 7347, 
  "einziges": 7348, 
  "technologie": 7349, 
  "betrug": 7350, 
  "uni@@": 7351, 
  "fel@@": 7352, 
  "zurückkehren": 7353, 
  "vernünftig": 7354, 
  "HTML": 7355, 
  "Regimes": 7356, 
  "fall@@": 7357, 
  "fügt": 7358, 
  "Themen@@": 7359, 
  "nu@@": 7360, 
  "Golf@@": 7361, 
  "Data": 7362, 
  "gemeinschaft": 7363, 
  "Infrastruktur@@": 7364, 
  "Welthandelsorganisation": 7365, 
  "Met@@": 7366, 
  "führender": 7367, 
  "por": 7368, 
  "erwähnte": 7369, 
  "Beweise": 7370, 
  "genetisch": 7371, 
  "längere": 7372, 
  "kultur": 7373, 
  "port@@": 7374, 
  "Konflikten": 7375, 
  "val@@": 7376, 
  "Sti@@": 7377, 
  "Frankreichs": 7378, 
  "Ankündigung": 7379, 
  "engagiert": 7380, 
  "Einfuhr": 7381, 
  "verleiht": 7382, 
  "binnen": 7383, 
  "har@@": 7384, 
  "Entschädigung": 7385, 
  "Kirchen": 7386, 
  "bedenken": 7387, 
  "Heimatland": 7388, 
  "ruhiger": 7389, 
  "zivilen": 7390, 
  "Fo@@": 7391, 
  "site": 7392, 
  "Ferien@@": 7393, 
  "Urlaubs@@": 7394, 
  "Einbindung": 7395, 
  "Adobe": 7396, 
  "enttäuscht": 7397, 
  "Beste": 7398, 
  "linge": 7399, 
  "komfortabel": 7400, 
  "landes": 7401, 
  "erneuerbarer": 7402, 
  "vereinbaren": 7403, 
  "eure": 7404, 
  "Stellvertreter": 7405, 
  "Vol@@": 7406, 
  "strukturellen": 7407, 
  "legung": 7408, 
  "unterhalb": 7409, 
  "eien": 7410, 
  "ausführen": 7411, 
  "vorkommen": 7412, 
  "betriebe": 7413, 
  "lige": 7414, 
  "ungsmaßnahmen": 7415, 
  "gkeits@@": 7416, 
  "Digital": 7417, 
  "Wert@@": 7418, 
  "Milch": 7419, 
  "67": 7420, 
  "Stand@@": 7421, 
  "äl@@": 7422, 
  "home": 7423, 
  "belegt": 7424, 
  "Kluft": 7425, 
  "ville": 7426, 
  "Chemikalien": 7427, 
  "81": 7428, 
  "Berater": 7429, 
  "dige": 7430, 
  "verständlich": 7431, 
  "extra": 7432, 
  "chter": 7433, 
  "alisiert": 7434, 
  "qualifizierter": 7435, 
  "code": 7436, 
  "Halle": 7437, 
  "Miet@@": 7438, 
  "Bewegungen": 7439, 
  "stücke": 7440, 
  "Handelspolitik": 7441, 
  "Effekte": 7442, 
  "freundliches": 7443, 
  "MwSt": 7444, 
  "Schiff@@": 7445, 
  "schönes": 7446, 
  "Jan": 7447, 
  "bewirkt": 7448, 
  "errichten": 7449, 
  "Ermittlung": 7450, 
  "hersteller": 7451, 
  "ps": 7452, 
  "Gel@@": 7453, 
  "dra@@": 7454, 
  "einmalige": 7455, 
  "Konfiguration": 7456, 
  "WWU": 7457, 
  "30@@": 7458, 
  "benannt": 7459, 
  "erweiterte": 7460, 
  "bedauere": 7461, 
  "Tabak@@": 7462, 
  "enz": 7463, 
  "Erreichen": 7464, 
  "gere": 7465, 
  "uneingeschränkte": 7466, 
  "Basis@@": 7467, 
  "sierte": 7468, 
  "Herrschaft": 7469, 
  "voranzutreiben": 7470, 
  "beschreiben": 7471, 
  "area": 7472, 
  "Geschlechter": 7473, 
  "ziel@@": 7474, 
  "verbieten": 7475, 
  "Cam@@": 7476, 
  "oc@@": 7477, 
  "mündlichen": 7478, 
  "Argentinien": 7479, 
  "Abstimmungen": 7480, 
  "cor@@": 7481, 
  "ž@@": 7482, 
  "par": 7483, 
  "falschen": 7484, 
  "Sy@@": 7485, 
  "Prüfungen": 7486, 
  "folgendes": 7487, 
  "zwanzig": 7488, 
  "Anleger": 7489, 
  "enorm": 7490, 
  "leitung": 7491, 
  "entnehmen": 7492, 
  "projekten": 7493, 
  "genauen": 7494, 
  "lohnt": 7495, 
  "zeitraum": 7496, 
  "Cap@@": 7497, 
  "SS@@": 7498, 
  "effektiver": 7499, 
  "Palace": 7500, 
  "fliegen": 7501, 
  "mb@@": 7502, 
  "IL@@": 7503, 
  "fli@@": 7504, 
  "GR@@": 7505, 
  "geschätzt": 7506, 
  "gegebenen": 7507, 
  "Aufruf": 7508, 
  "Übersetzungen": 7509, 
  "realisieren": 7510, 
  "stabile": 7511, 
  "68": 7512, 
  "schließe": 7513, 
  "AV@@": 7514, 
  "Schnell@@": 7515, 
  "eck": 7516, 
  "Neue": 7517, 
  "alismus": 7518, 
  "müßte": 7519, 
  "over": 7520, 
  "Flug": 7521, 
  "Back@@": 7522, 
  "klassische": 7523, 
  "Fernseher": 7524, 
  "versetzen": 7525, 
  "größtenteils": 7526, 
  "ted": 7527, 
  "tere": 7528, 
  "vertrauen": 7529, 
  "Bewerberländer": 7530, 
  "Inanspruchnahme": 7531, 
  "übergeben": 7532, 
  "Statistik": 7533, 
  "Kurse": 7534, 
  "Bes@@": 7535, 
  "inbegriffen": 7536, 
  "vorn": 7537, 
  "Säule": 7538, 
  "wendet": 7539, 
  "hof": 7540, 
  "allmählich": 7541, 
  "betragen": 7542, 
  "sexuellen": 7543, 
  "bit": 7544, 
  "verb@@": 7545, 
  "ett": 7546, 
  "Lin@@": 7547, 
  "erstatten": 7548, 
  "wofür": 7549, 
  "Textes": 7550, 
  "glaubt": 7551, 
  "Botschafter": 7552, 
  "ella": 7553, 
  "vorzugehen": 7554, 
  "Zwecken": 7555, 
  "multi@@": 7556, 
  "Flotte": 7557, 
  "Autoren": 7558, 
  "inner@@": 7559, 
  "Karten@@": 7560, 
  "Beratungs@@": 7561, 
  "ov@@": 7562, 
  "schlechter": 7563, 
  "ligen": 7564, 
  "Verhinderung": 7565, 
  "Arbeit@@": 7566, 
  "mü@@": 7567, 
  "pra@@": 7568, 
  "Jahrzehnte": 7569, 
  "Aufteilung": 7570, 
  "Naturkatastrophen": 7571, 
  "wa": 7572, 
  "C.": 7573, 
  "asi@@": 7574, 
  "Besitzer": 7575, 
  "Ansätze": 7576, 
  "herrliche": 7577, 
  "nennt": 7578, 
  "wahrnehmen": 7579, 
  "Anzeichen": 7580, 
  "fließen": 7581, 
  "Armen": 7582, 
  "Puerto": 7583, 
  "Han@@": 7584, 
  "Verstöße": 7585, 
  "Rand": 7586, 
  "AK@@": 7587, 
  "ungst@@": 7588, 
  "Tourismus@@": 7589, 
  "verkauf": 7590, 
  "steckt": 7591, 
  "verbindung": 7592, 
  "Abenteuer": 7593, 
  "märkten": 7594, 
  "Wartung": 7595, 
  "ausgelegt": 7596, 
  "att@@": 7597, 
  "los@@": 7598, 
  "Straftaten": 7599, 
  "Gegenwart": 7600, 
  "ßen": 7601, 
  "aum": 7602, 
  "Regel@@": 7603, 
  "prozeß": 7604, 
  "900": 7605, 
  "machten": 7606, 
  "nachkommen": 7607, 
  "Frauen@@": 7608, 
  "Taiwan": 7609, 
  "old": 7610, 
  "inger": 7611, 
  "Pat@@": 7612, 
  "Verkäufer": 7613, 
  "verhandeln": 7614, 
  "beitreten": 7615, 
  "Zentren": 7616, 
  "zutiefst": 7617, 
  "wünscht": 7618, 
  "unterstrichen": 7619, 
  "mark@@": 7620, 
  "Heil@@": 7621, 
  "eigen@@": 7622, 
  "fünf@@": 7623, 
  "fach@@": 7624, 
  "vermögen": 7625, 
  "ärer": 7626, 
  "Kommissare": 7627, 
  "ehrgeizige": 7628, 
  "bin@@": 7629, 
  "Tendenz": 7630, 
  "Verschlechterung": 7631, 
  "akzeptabel": 7632, 
  "James": 7633, 
  "kol@@": 7634, 
  "Handels-": 7635, 
  "Schiffs@@": 7636, 
  "bli@@": 7637, 
  "südlich": 7638, 
  "gäbe": 7639, 
  "tausend": 7640, 
  "Wahrscheinlichkeit": 7641, 
  "Pla@@": 7642, 
  "Personen@@": 7643, 
  "vorhandene": 7644, 
  "77": 7645, 
  "Bedienung": 7646, 
  "Thailand": 7647, 
  "jugoslawische": 7648, 
  "ili@@": 7649, 
  "73": 7650, 
  "AP@@": 7651, 
  "gewünscht": 7652, 
  "Tragödie": 7653, 
  "Vollendung": 7654, 
  "eingehende": 7655, 
  "angeben": 7656, 
  "abzuschließen": 7657, 
  "bur@@": 7658, 
  "rel@@": 7659, 
  "MO@@": 7660, 
  "Anweisungen": 7661, 
  "schrieb": 7662, 
  "nördlichen": 7663, 
  "bist": 7664, 
  "preisen": 7665, 
  "amen": 7666, 
  "24@@": 7667, 
  "Front": 7668, 
  "tschechischen": 7669, 
  "gewählte": 7670, 
  "beauftragt": 7671, 
  "9,@@": 7672, 
  "gener": 7673, 
  "Hör@@": 7674, 
  "Sozialfonds": 7675, 
  "Halbinsel": 7676, 
  "Sicherheit@@": 7677, 
  "OS@@": 7678, 
  "Wel@@": 7679, 
  "Bor@@": 7680, 
  "Vis@@": 7681, 
  "häuser": 7682, 
  "Jahrzehnt": 7683, 
  "klares": 7684, 
  "Politik@@": 7685, 
  "beschleunigt": 7686, 
  "auszuüben": 7687, 
  "Designer": 7688, 
  "verschärft": 7689, 
  "Attraktionen": 7690, 
  "ingen": 7691, 
  "ón": 7692, 
  "tä@@": 7693, 
  "rec@@": 7694, 
  "Legitimität": 7695, 
  "mieten": 7696, 
  "ello": 7697, 
  "å@@": 7698, 
  "Privatisierung": 7699, 
  "begrenzen": 7700, 
  "с@@": 7701, 
  "78": 7702, 
  "Gewässern": 7703, 
  "Gegenstände": 7704, 
  "ves": 7705, 
  "Ein-": 7706, 
  "bereitgestellten": 7707, 
  "qualifizierten": 7708, 
  "abgehalten": 7709, 
  "Cas@@": 7710, 
  "lehnen": 7711, 
  "durchgesetzt": 7712, 
  "nbsp": 7713, 
  "cks": 7714, 
  "Landwirten": 7715, 
  "eignen": 7716, 
  "Automobilindustrie": 7717, 
  "ris@@": 7718, 
  "Rechtsakte": 7719, 
  "Wie": 7720, 
  "Dor@@": 7721, 
  "wenigstens": 7722, 
  "Scheitern": 7723, 
  "Renn@@": 7724, 
  "Sar@@": 7725, 
  "sionen": 7726, 
  "freiheit": 7727, 
  "Mit": 7728, 
  "gebühr": 7729, 
  "neueste": 7730, 
  "ding": 7731, 
  "Verwaltungen": 7732, 
  "Ganzes": 7733, 
  "Ausgang": 7734, 
  "Brand@@": 7735, 
  "politiken": 7736, 
  "methode": 7737, 
  "Aufstellung": 7738, 
  "Augen@@": 7739, 
  "center": 7740, 
  "Augenmerk": 7741, 
  "wahl": 7742, 
  "Besch@@": 7743, 
  "Dienst@@": 7744, 
  "Gesellschafts@@": 7745, 
  "mangelnde": 7746, 
  "exklusiven": 7747, 
  "ANGENOMMENE": 7748, 
  "korrekte": 7749, 
  "Besuchern": 7750, 
  "TA": 7751, 
  "s.": 7752, 
  "fahrten": 7753, 
  "sz@@": 7754, 
  "Strasse": 7755, 
  "Aufwand": 7756, 
  "unterhalten": 7757, 
  "schw@@": 7758, 
  "dauerhaft": 7759, 
  "Instanz": 7760, 
  "Führungs@@": 7761, 
  "Mailand": 7762, 
  "Arzt": 7763, 
  "vorhin": 7764, 
  "Mallorca": 7765, 
  "Metern": 7766, 
  "Anhänger": 7767, 
  "steuer": 7768, 
  "ri": 7769, 
  "bra@@": 7770, 
  "traditionell": 7771, 
  "nung": 7772, 
  "reine": 7773, 
  "AT": 7774, 
  "Barnier": 7775, 
  "exklusive": 7776, 
  "ignoriert": 7777, 
  "belegen": 7778, 
  "Unterdrückung": 7779, 
  "Fahrzeugen": 7780, 
  "Garten@@": 7781, 
  "heim": 7782, 
  "marquis": 7783, 
  "mor@@": 7784, 
  "Gefängnis": 7785, 
  "Kopf@@": 7786, 
  "zweimal": 7787, 
  "Wettbewerber": 7788, 
  "jo@@": 7789, 
  "Hauptziel": 7790, 
  "Franz": 7791, 
  "tal": 7792, 
  "schaden": 7793, 
  "Eigentums": 7794, 
  "Lau@@": 7795, 
  "materialien": 7796, 
  "leichten": 7797, 
  "Wirtschaft@@": 7798, 
  "Massage": 7799, 
  "abends": 7800, 
  "ère": 7801, 
  "verwöhnen": 7802, 
  "dementsprechend": 7803, 
  "Reserve": 7804, 
  "Papier@@": 7805, 
  "Europäisches": 7806, 
  "gezielt": 7807, 
  "AC": 7808, 
  "Mobile": 7809, 
  "Wiener": 7810, 
  "Teilnehmern": 7811, 
  "mündliche": 7812, 
  "Hügel": 7813, 
  "nah@@": 7814, 
  "nationales": 7815, 
  "riesige": 7816, 
  "Freizeit@@": 7817, 
  "Schatten": 7818, 
  "demnach": 7819, 
  "betreibt": 7820, 
  "Ecke": 7821, 
  "vorangegangenen": 7822, 
  "Entscheidungsträger": 7823, 
  "lig": 7824, 
  "Konferenz@@": 7825, 
  "ungsin@@": 7826, 
  "kapazität": 7827, 
  "durchsetzen": 7828, 
  "kurs": 7829, 
  "Hamas": 7830, 
  "gas": 7831, 
  "bal@@": 7832, 
  "erinnere": 7833, 
  "nissen": 7834, 
  "erreichten": 7835, 
  "wünschenswert": 7836, 
  "Finanziellen": 7837, 
  "86": 7838, 
  "BMW": 7839, 
  "Kohäsionsfonds": 7840, 
  "stabilen": 7841, 
  "Diese": 7842, 
  "kriterien": 7843, 
  "las@@": 7844, 
  "Verzögerung": 7845, 
  "Satelliten": 7846, 
  "Phasen": 7847, 
  "Gran": 7848, 
  "IA": 7849, 
  "Vietnam": 7850, 
  "unverändert": 7851, 
  "SAP": 7852, 
  "üben": 7853, 
  "kompatibel": 7854, 
  "Ersatz": 7855, 
  "etten": 7856, 
  "intelligente": 7857, 
  "Verhütung": 7858, 
  "lichsten": 7859, 
  "etwaige": 7860, 
  "startet": 7861, 
  "Bevölkerungsgruppen": 7862, 
  "Tickets": 7863, 
  "della": 7864, 
  "Islam": 7865, 
  "emp@@": 7866, 
  "Gerichts@@": 7867, 
  "gewöhnlich": 7868, 
  "AUF": 7869, 
  "VI": 7870, 
  "Arbeiter": 7871, 
  "anbietet": 7872, 
  "Geschäft@@": 7873, 
  "gewahrt": 7874, 
  "harte": 7875, 
  "benötigten": 7876, 
  "begrenzten": 7877, 
  "Institute": 7878, 
  "pos@@": 7879, 
  "basierte": 7880, 
  "bedingten": 7881, 
  "back": 7882, 
  "gste": 7883, 
  "nutzbar": 7884, 
  "les@@": 7885, 
  "weißen": 7886, 
  "geänderten": 7887, 
  "can@@": 7888, 
  "het": 7889, 
  "day": 7890, 
  "Unternehmen@@": 7891, 
  "Galileo": 7892, 
  "Touren": 7893, 
  "Ufer": 7894, 
  "deten": 7895, 
  "Desktop": 7896, 
  "längst": 7897, 
  "gezielte": 7898, 
  "76": 7899, 
  "ates": 7900, 
  "Zivil@@": 7901, 
  "basierend": 7902, 
  "Ereignissen": 7903, 
  "höchstens": 7904, 
  "Board": 7905, 
  "Statut": 7906, 
  "Handlungs@@": 7907, 
  "Spar@@": 7908, 
  "suche": 7909, 
  "Jacques": 7910, 
  "demnächst": 7911, 
  "Dienstes": 7912, 
  "vielfältige": 7913, 
  "hört": 7914, 
  "Betriebssystem": 7915, 
  "Dach": 7916, 
  "Substanzen": 7917, 
  "fügte": 7918, 
  "frisch": 7919, 
  "zwangsläufig": 7920, 
  "Apple": 7921, 
  "Herstellern": 7922, 
  "ID@@": 7923, 
  "wal@@": 7924, 
  "verband": 7925, 
  "Canon": 7926, 
  "Verhältnisse": 7927, 
  "indirekt": 7928, 
  "einzigartig": 7929, 
  "Wertpapier@@": 7930, 
  "deckt": 7931, 
  "Poly@@": 7932, 
  "Einladung": 7933, 
  "Vergnügen": 7934, 
  "veranstaltet": 7935, 
  "sämtlicher": 7936, 
  "Einheiten": 7937, 
  "ED": 7938, 
  "gewiss": 7939, 
  "Feld@@": 7940, 
  "österreichische": 7941, 
  "fahrer": 7942, 
  "ige": 7943, 
  "mi": 7944, 
  "Reding": 7945, 
  "Ausstellungen": 7946, 
  "verabschiedeten": 7947, 
  "nah": 7948, 
  "Da@@": 7949, 
  "At@@": 7950, 
  "Zusammenbruch": 7951, 
  "tik@@": 7952, 
  "übersetzt": 7953, 
  "deutlicher": 7954, 
  "Luftverkehrs@@": 7955, 
  "abgeschafft": 7956, 
  "Stellenwert": 7957, 
  "Del@@": 7958, 
  "überlegen": 7959, 
  "Entschließungen": 7960, 
  "Verbindungs@@": 7961, 
  "Zucker": 7962, 
  "irgendwelche": 7963, 
  "Treibhausgasemissionen": 7964, 
  "ic": 7965, 
  "Berichterstattung": 7966, 
  "Vereinbarkeit": 7967, 
  "außergewöhnliche": 7968, 
  "Korrektur": 7969, 
  "Vorbild": 7970, 
  "Zimmerservice": 7971, 
  "Box": 7972, 
  "Gepäckraum": 7973, 
  "Galerie": 7974, 
  "Wechsel": 7975, 
  "ach": 7976, 
  "Aktien@@": 7977, 
  "een": 7978, 
  "seiten": 7979, 
  "transeuropäischen": 7980, 
  "Content": 7981, 
  "Streitkräfte": 7982, 
  "Sitz@@": 7983, 
  "ältesten": 7984, 
  "tn@@": 7985, 
  "wir@@": 7986, 
  "Eintritt": 7987, 
  "personenbezogenen": 7988, 
  "CS": 7989, 
  "Chile": 7990, 
  "elte": 7991, 
  "quelle": 7992, 
  "pe": 7993, 
  "zuverlässige": 7994, 
  "Las": 7995, 
  "Strecken": 7996, 
  "tat": 7997, 
  "Pf@@": 7998, 
  "steigende": 7999, 
  "Sicherstellung": 8000, 
  "Wissens@@": 8001, 
  "Workshops": 8002, 
  "saubere": 8003, 
  "asiatischen": 8004, 
  "1988": 8005, 
  "unteren": 8006, 
  "í": 8007, 
  "Kreis": 8008, 
  "small": 8009, 
  "3,@@": 8010, 
  "ermutigt": 8011, 
  "transparente": 8012, 
  "abhängen": 8013, 
  "Absichten": 8014, 
  "Schrift@@": 8015, 
  "leiter": 8016, 
  "Reich": 8017, 
  "Master": 8018, 
  "Industri@@": 8019, 
  "ologischen": 8020, 
  "79": 8021, 
  "Angleichung": 8022, 
  "gelang": 8023, 
  "gef@@": 8024, 
  "art@@": 8025, 
  "69": 8026, 
  "Demokratischen": 8027, 
  "nis@@": 8028, 
  "streben": 8029, 
  "gefällt": 8030, 
  "züge": 8031, 
  "anstreben": 8032, 
  "garten": 8033, 
  "verschiedensten": 8034, 
  "Schwimmbad": 8035, 
  "Münzen": 8036, 
  "gekauft": 8037, 
  "koennen": 8038, 
  "OL@@": 8039, 
  "klasse": 8040, 
  "allgemeiner": 8041, 
  "Aktionsprogramm": 8042, 
  "eingereichten": 8043, 
  "begeistert": 8044, 
  "Free": 8045, 
  "fle@@": 8046, 
  "Hongkong": 8047, 
  "Mil@@": 8048, 
  "Temperatur": 8049, 
  "let": 8050, 
  "B5": 8051, 
  "Übersetzungs@@": 8052, 
  "Palästina": 8053, 
  "hab@@": 8054, 
  "mas": 8055, 
  "some": 8056, 
  "Hor@@": 8057, 
  "Ashton": 8058, 
  "adi@@": 8059, 
  "deutsch": 8060, 
  "Währungen": 8061, 
  "tungs@@": 8062, 
  "Gaza": 8063, 
  "ausmachen": 8064, 
  "A4": 8065, 
  "zügig": 8066, 
  "unterzeichnen": 8067, 
  "nten": 8068, 
  "Verkehrsmittel": 8069, 
  "Konzern": 8070, 
  "Zentralbanken": 8071, 
  "ück@@": 8072, 
  "cia": 8073, 
  "urs": 8074, 
  "Hotelsafe": 8075, 
  "Event": 8076, 
  "starker": 8077, 
  "weitem": 8078, 
  "halb@@": 8079, 
  "idealen": 8080, 
  "geeinigt": 8081, 
  "zuverlässig": 8082, 
  "Café": 8083, 
  "Gesundheitsversorgung": 8084, 
  "Mak@@": 8085, 
  "optimalen": 8086, 
  "Industriepolitik": 8087, 
  "50@@": 8088, 
  "American": 8089, 
  "vereinbarung": 8090, 
  "other": 8091, 
  "wor@@": 8092, 
  "getroffenen": 8093, 
  "besetzt": 8094, 
  "Architekten": 8095, 
  "Wiederaufnahme": 8096, 
  "alternativen": 8097, 
  "Finanzrahmen": 8098, 
  "Zug@@": 8099, 
  "Elementen": 8100, 
  "runden": 8101, 
  "Italiens": 8102, 
  "Fin@@": 8103, 
  "versicherung": 8104, 
  "Hel@@": 8105, 
  "UK": 8106, 
  "li": 8107, 
  "intensiven": 8108, 
  "Herberge": 8109, 
  "verteilung": 8110, 
  "EC": 8111, 
  "ry": 8112, 
  "Archiv": 8113, 
  "Mini": 8114, 
  "Gelegenheiten": 8115, 
  "fähige": 8116, 
  "Ärzte": 8117, 
  "amt": 8118, 
  "Fol@@": 8119, 
  "stein@@": 8120, 
  "denden": 8121, 
  "volles": 8122, 
  "gesucht": 8123, 
  "analyse": 8124, 
  "häufiger": 8125, 
  "Luftverkehr": 8126, 
  "EGF": 8127, 
  "verbundene": 8128, 
  "Anreise": 8129, 
  "beihilfen": 8130, 
  "Leid": 8131, 
  "Justiz@@": 8132, 
  "gesundheits@@": 8133, 
  "zukünftig": 8134, 
  "Blut": 8135, 
  "ca@@": 8136, 
  "Voraus": 8137, 
  "Patten": 8138, 
  "Party": 8139, 
  "Handlung": 8140, 
  "CH": 8141, 
  "möglichkeit": 8142, 
  "auszuarbeiten": 8143, 
  "XP": 8144, 
  "Geb@@": 8145, 
  "been": 8146, 
  "bedauerlicherweise": 8147, 
  "pol@@": 8148, 
  "befreit": 8149, 
  "unmittelbare": 8150, 
  "vorge@@": 8151, 
  "Birma": 8152, 
  "kompletten": 8153, 
  "schen@@": 8154, 
  "Liechtenstein": 8155, 
  "dynamischen": 8156, 
  "bestände": 8157, 
  "Sierra": 8158, 
  "Stoffen": 8159, 
  "listen": 8160, 
  "Effektivität": 8161, 
  "geren": 8162, 
  "idealer": 8163, 
  "sol@@": 8164, 
  "niedrige": 8165, 
  "Friedensprozess": 8166, 
  "ary": 8167, 
  "hinzuweisen": 8168, 
  "83": 8169, 
  "Zusammenhalts": 8170, 
  "dert": 8171, 
  "namen": 8172, 
  "arme": 8173, 
  "Bedrohungen": 8174, 
  "ide@@": 8175, 
  "sozial": 8176, 
  "edi@@": 8177, 
  "banken": 8178, 
  "ación": 8179, 
  "TS": 8180, 
  "met@@": 8181, 
  "reich@@": 8182, 
  "Fortschritten": 8183, 
  "qui@@": 8184, 
  "westliche": 8185, 
  "aussch@@": 8186, 
  "lichkeiten": 8187, 
  "trans@@": 8188, 
  "stellungen": 8189, 
  "comp@@": 8190, 
  "position": 8191, 
  "tägliche": 8192, 
  "türkische": 8193, 
  "hel@@": 8194, 
  "Temperaturen": 8195, 
  "mehrmals": 8196, 
  "schnelles": 8197, 
  "Rechtsetzung": 8198, 
  "Trek": 8199, 
  "verbesserten": 8200, 
  "Implementierung": 8201, 
  "Tan@@": 8202, 
  "Index": 8203, 
  "bedürfen": 8204, 
  "teste": 8205, 
  "untersagt": 8206, 
  "350": 8207, 
  "Leben@@": 8208, 
  "Playa": 8209, 
  "I.": 8210, 
  "Regulierungs@@": 8211, 
  "Asyl": 8212, 
  "tei@@": 8213, 
  "kurse": 8214, 
  "place": 8215, 
  "Richard": 8216, 
  "assi@@": 8217, 
  "Brief": 8218, 
  "Manuel": 8219, 
  "zukommt": 8220, 
  "ous": 8221, 
  "EFRE": 8222, 
  "verteilen": 8223, 
  "Erbringung": 8224, 
  "Eurostat": 8225, 
  "wissenschaftlicher": 8226, 
  "verehrten": 8227, 
  "Heiligen": 8228, 
  "Tee": 8229, 
  "Stad@@": 8230, 
  "anderswo": 8231, 
  "weit@@": 8232, 
  "Dienstag": 8233, 
  "amerikanischer": 8234, 
  "Fi": 8235, 
  "kompliziert": 8236, 
  "vorsichtig": 8237, 
  "diert": 8238, 
  "Formel": 8239, 
  "Rock": 8240, 
  "Alkohol": 8241, 
  "ack@@": 8242, 
  "tierung": 8243, 
  "sau@@": 8244, 
  "gemeldet": 8245, 
  "Lobby": 8246, 
  "arbeiter": 8247, 
  "Stra@@": 8248, 
  "Foren": 8249, 
  "Finanzminister": 8250, 
  "Flächen": 8251, 
  "Renten@@": 8252, 
  "Dringlichkeit": 8253, 
  "nachhaltiger": 8254, 
  "schulen": 8255, 
  "Vertiefung": 8256, 
  "ola": 8257, 
  "Begriffe": 8258, 
  "UNESCO": 8259, 
  "Arzneimitteln": 8260, 
  "tab@@": 8261, 
  "Subsidiaritätsprinzip": 8262, 
  "We@@": 8263, 
  "Lager@@": 8264, 
  "Straßenverkehr": 8265, 
  "habt": 8266, 
  "Kam@@": 8267, 
  "Afrikas": 8268, 
  "Kathedrale": 8269, 
  "Nachbarschaft": 8270, 
  "buch@@": 8271, 
  "vorausgesetzt": 8272, 
  "vorbereiten": 8273, 
  "kal@@": 8274, 
  "netzen": 8275, 
  "worauf": 8276, 
  "Reihenfolge": 8277, 
  "ignorieren": 8278, 
  "aufgeführten": 8279, 
  "Tief@@": 8280, 
  "first": 8281, 
  "2016": 8282, 
  "getestet": 8283, 
  "Force": 8284, 
  "gefährlicher": 8285, 
  "korrigieren": 8286, 
  "umfassender": 8287, 
  "verbleibenden": 8288, 
  "ppe": 8289, 
  "Schw@@": 8290, 
  "Mittelmeer@@": 8291, 
  "Siemens": 8292, 
  "Fl@@": 8293, 
  "Mitgliedsstaaten": 8294, 
  "Geschäftsbedingungen": 8295, 
  "offen@@": 8296, 
  "Erfassung": 8297, 
  "bil@@": 8298, 
  "Taste": 8299, 
  "auseinander": 8300, 
  "Tatsachen": 8301, 
  "Material@@": 8302, 
  "fenster": 8303, 
  "Airlines": 8304, 
  "Chr.": 8305, 
  "fähigen": 8306, 
  "sichert": 8307, 
  "überschritten": 8308, 
  "entsprechender": 8309, 
  "geachtet": 8310, 
  "tungen": 8311, 
  "elemente": 8312, 
  "denkt": 8313, 
  "raschen": 8314, 
  "beträchtlichen": 8315, 
  "verbindlich": 8316, 
  "transatlantischen": 8317, 
  "Erkrankungen": 8318, 
  "vorrangigen": 8319, 
  "leitungen": 8320, 
  "fair": 8321, 
  "Stu@@": 8322, 
  "eli@@": 8323, 
  "wahr@@": 8324, 
  "130": 8325, 
  "verschieben": 8326, 
  "tt": 8327, 
  "Griechenlands": 8328, 
  "rat@@": 8329, 
  "saal": 8330, 
  "amtierender": 8331, 
  "verbreiten": 8332, 
  "my@@": 8333, 
  "engagieren": 8334, 
  "verbindliche": 8335, 
  "Fleisch@@": 8336, 
  "Sen@@": 8337, 
  "Sicherheitsrat": 8338, 
  "Algerien": 8339, 
  "Spuren": 8340, 
  "Gelände": 8341, 
  "mas@@": 8342, 
  "Weiter@@": 8343, 
  "Green": 8344, 
  "einheiten": 8345, 
  "Gesamtheit": 8346, 
  "firmen": 8347, 
  "verliert": 8348, 
  "Europ@@": 8349, 
  "Presse@@": 8350, 
  "35@@": 8351, 
  "voranzubringen": 8352, 
  "alisieren": 8353, 
  "Schottland": 8354, 
  "Award": 8355, 
  "frischen": 8356, 
  "deinen": 8357, 
  "Geber": 8358, 
  "langjährige": 8359, 
  "ron@@": 8360, 
  "Auseinandersetzung": 8361, 
  "State": 8362, 
  "bekanntesten": 8363, 
  "kraft@@": 8364, 
  "illegal": 8365, 
  "Reichtum": 8366, 
  "betrag": 8367, 
  "pfen": 8368, 
  "Logo": 8369, 
  "Parlamenten": 8370, 
  "Panorama": 8371, 
  "territorialen": 8372, 
  "prüfung": 8373, 
  "Umweltschutz@@": 8374, 
  "zwecken": 8375, 
  "SO@@": 8376, 
  "Geschenk": 8377, 
  "hu@@": 8378, 
  "volumen": 8379, 
  "vergleichbar": 8380, 
  "gesetzliche": 8381, 
  "Ausfahrt": 8382, 
  "berufen": 8383, 
  "Absch@@": 8384, 
  "Kraft@@": 8385, 
  "innovativer": 8386, 
  "schlage": 8387, 
  "verursachten": 8388, 
  "ani": 8389, 
  "Kanal": 8390, 
  "mes@@": 8391, 
  "verschoben": 8392, 
  "Alexander": 8393, 
  "film": 8394, 
  "Betrugsbekämpfung": 8395, 
  "Schließung": 8396, 
  "в": 8397, 
  "anzusehen": 8398, 
  "Nachteil": 8399, 
  "tim@@": 8400, 
  "Ausfuhren": 8401, 
  "Uni@@": 8402, 
  "baus": 8403, 
  "entscheidungen": 8404, 
  "ehrgeizigen": 8405, 
  "iPhone": 8406, 
  "ihrerseits": 8407, 
  "beachtet": 8408, 
  "ausgedrückt": 8409, 
  "Werk@@": 8410, 
  "unterstützten": 8411, 
  "Stellvertretender": 8412, 
  "23@@": 8413, 
  "tz": 8414, 
  "Sozialdemokraten": 8415, 
  "real": 8416, 
  "Ausfuhr@@": 8417, 
  "Bil@@": 8418, 
  "gänge": 8419, 
  "einsetzt": 8420, 
  "eingegangenen": 8421, 
  "alo@@": 8422, 
  "ord@@": 8423, 
  "netzes": 8424, 
  "Überwindung": 8425, 
  "lich@@": 8426, 
  "Cre@@": 8427, 
  "hän@@": 8428, 
  "Kontakt@@": 8429, 
  "intensivieren": 8430, 
  "finanzierten": 8431, 
  "zuzu@@": 8432, 
  "aufgaben": 8433, 
  "ç@@": 8434, 
  "Administration": 8435, 
  "forum": 8436, 
  "Leidenschaft": 8437, 
  "genügt": 8438, 
  "Gemeinschaftsrechts": 8439, 
  "big": 8440, 
  "angestrebt": 8441, 
  "vel@@": 8442, 
  "Variante": 8443, 
  "datum": 8444, 
  "ó": 8445, 
  "Sand": 8446, 
  "veränderten": 8447, 
  "Kriterium": 8448, 
  "anerkannten": 8449, 
  "Kroes": 8450, 
  "mengen": 8451, 
  "normal": 8452, 
  "beschränkungen": 8453, 
  "personal": 8454, 
  "sä@@": 8455, 
  "Feuer": 8456, 
  "Montage": 8457, 
  "Monats": 8458, 
  "sinken": 8459, 
  "normen": 8460, 
  "vorne": 8461, 
  "ehe": 8462, 
  "Listen": 8463, 
  "einbringen": 8464, 
  "zerstören": 8465, 
  "40@@": 8466, 
  "the@@": 8467, 
  "benachteiligten": 8468, 
  "Berichterstattern": 8469, 
  "Beibehaltung": 8470, 
  "Wärme": 8471, 
  "äußerte": 8472, 
  "Mobilfunk@@": 8473, 
  "weitergegeben": 8474, 
  "Wenn": 8475, 
  "Denken": 8476, 
  "Start@@": 8477, 
  "Lizenzen": 8478, 
  "Gri@@": 8479, 
  "strengere": 8480, 
  "Ton": 8481, 
  "Aufklärung": 8482, 
  "Zwangs@@": 8483, 
  "Minimum": 8484, 
  "strukturelle": 8485, 
  "zusätzlicher": 8486, 
  "grundlegend": 8487, 
  "ausgewählte": 8488, 
  "Bier": 8489, 
  "Bon@@": 8490, 
  "viel@@": 8491, 
  "elektronischer": 8492, 
  "Ausgangs@@": 8493, 
  "irgendeiner": 8494, 
  "Kampf@@": 8495, 
  "bestehender": 8496, 
  "abschließen": 8497, 
  "Karl": 8498, 
  "Demokratisierung": 8499, 
  "Design@@": 8500, 
  "verträge": 8501, 
  "Côte": 8502, 
  "herzlichen": 8503, 
  "diverse": 8504, 
  "rechtlicher": 8505, 
  "bot": 8506, 
  "chtes": 8507, 
  "bern": 8508, 
  "off@@": 8509, 
  "Fertigung": 8510, 
  "not@@": 8511, 
  "maßgeblich": 8512, 
  "Sorgfalt": 8513, 
  "teils": 8514, 
  "transparenter": 8515, 
  "standard": 8516, 
  "polnische": 8517, 
  "Nachfolger": 8518, 
  "Rechnungs@@": 8519, 
  "gerechnet": 8520, 
  "Swimmingpool": 8521, 
  "bt": 8522, 
  "IC": 8523, 
  "Nuklear@@": 8524, 
  "lauf": 8525, 
  "entworfen": 8526, 
  "breit@@": 8527, 
  "zei@@": 8528, 
  "Anna": 8529, 
  "Les@@": 8530, 
  "hofft": 8531, 
  "Mode": 8532, 
  "runde": 8533, 
  "ari": 8534, 
  "©": 8535, 
  "fun@@": 8536, 
  "kel@@": 8537, 
  "ordnungsgemäße": 8538, 
  "Charles": 8539, 
  "religiöse": 8540, 
  "wissenschaftlich": 8541, 
  "Zugangs@@": 8542, 
  "stands": 8543, 
  "Schluß": 8544, 
  "grenze": 8545, 
  "ausreichen": 8546, 
  "hinzu@@": 8547, 
  "freiwillige": 8548, 
  "ausgegangen": 8549, 
  "Fischereiabkommen": 8550, 
  "status": 8551, 
  "Basi@@": 8552, 
  "fü@@": 8553, 
  "s.@@": 8554, 
  "EUROPÄISCHEN": 8555, 
  "Max": 8556, 
  "denk@@": 8557, 
  "gewachsen": 8558, 
  "Erdbeben": 8559, 
  "EK@@": 8560, 
  "Dar@@": 8561, 
  "Vor": 8562, 
  "lands": 8563, 
  "Ungleichheit": 8564, 
  "geteilt": 8565, 
  "Heim@@": 8566, 
  "ost@@": 8567, 
  "Insel@@": 8568, 
  "geschützten": 8569, 
  "Artikeln": 8570, 
  "erhebt": 8571, 
  "Seeverkehr": 8572, 
  "Geldpolitik": 8573, 
  "konkreter": 8574, 
  "realistisch": 8575, 
  "dy": 8576, 
  "anmelden": 8577, 
  "entfallen": 8578, 
  "Störungen": 8579, 
  "anrufen": 8580, 
  "Kra@@": 8581, 
  "befürworte": 8582, 
  "Lebensbedingungen": 8583, 
  "Nordirland": 8584, 
  "than": 8585, 
  "Anmerkung": 8586, 
  "luxuriöse": 8587, 
  "ah": 8588, 
  "ausgestatteten": 8589, 
  "vorsehen": 8590, 
  "Befehl": 8591, 
  "Hindernis": 8592, 
  "Piazza": 8593, 
  "ton@@": 8594, 
  "ausgeübt": 8595, 
  "Wohlbefinden": 8596, 
  "stück": 8597, 
  "parlamentarische": 8598, 
  "Konvents": 8599, 
  "Signale": 8600, 
  "Main": 8601, 
  "Buchungs@@": 8602, 
  "abzulehnen": 8603, 
  "festgehalten": 8604, 
  "AR": 8605, 
  "werks": 8606, 
  "Biotechnologie": 8607, 
  "G20": 8608, 
  "schutzes": 8609, 
  "erfassen": 8610, 
  "ausgestellt": 8611, 
  "berührt": 8612, 
  "geschlagen": 8613, 
  "optimieren": 8614, 
  "Obergrenze": 8615, 
  "bindet": 8616, 
  "glücklich": 8617, 
  "Eu@@": 8618, 
  "gesetzlich": 8619, 
  "A.": 8620, 
  "All": 8621, 
  "gent@@": 8622, 
  "fünfzehn": 8623, 
  "orten": 8624, 
  "Sevilla": 8625, 
  "Persönlichkeiten": 8626, 
  "Neues": 8627, 
  "Tr@@": 8628, 
  "Rechnungshofs": 8629, 
  "Komplexität": 8630, 
  "Komplettpreise": 8631, 
  "ess": 8632, 
  "Zeitraums": 8633, 
  "vielfach": 8634, 
  "Herz@@": 8635, 
  "dynamische": 8636, 
  "gründlich": 8637, 
  "erhielten": 8638, 
  "fangen": 8639, 
  "fach": 8640, 
  "ön@@": 8641, 
  "Kopie": 8642, 
  "ero": 8643, 
  "Stadium": 8644, 
  "gestützt": 8645, 
  "uner@@": 8646, 
  "außergewöhnlichen": 8647, 
  "Umweltpolitik": 8648, 
  "dateien": 8649, 
  "partner": 8650, 
  "geltende": 8651, 
  "ausgeweitet": 8652, 
  "Pakt": 8653, 
  "Menschen@@": 8654, 
  "Wikitravel": 8655, 
  "Freien": 8656, 
  "Real": 8657, 
  "Tipps": 8658, 
  "lager": 8659, 
  "erb@@": 8660, 
  "echter": 8661, 
  "Whirlpool": 8662, 
  "Speicher": 8663, 
  "Juden": 8664, 
  "Salzburg": 8665, 
  "Auftraggeber": 8666, 
  "could": 8667, 
  "Todes@@": 8668, 
  "Fragestunde": 8669, 
  "Verpackung": 8670, 
  "gter": 8671, 
  "Fil@@": 8672, 
  "überarbeitet": 8673, 
  "groß@@": 8674, 
  "Sh@@": 8675, 
  "begreifen": 8676, 
  "Modalitäten": 8677, 
  "bung": 8678, 
  "Ga@@": 8679, 
  "freiwillig": 8680, 
  "doppelt": 8681, 
  "Trans@@": 8682, 
  "UR@@": 8683, 
  "Kernenergie": 8684, 
  "gültigen": 8685, 
  "Ausdehnung": 8686, 
  "fil@@": 8687, 
  "night": 8688, 
  "bestellt": 8689, 
  "damaligen": 8690, 
  "Interventionen": 8691, 
  "Termin@@": 8692, 
  "su": 8693, 
  "Für": 8694, 
  "musik": 8695, 
  "infolgedessen": 8696, 
  "Geltungsbereich": 8697, 
  "Ungleichgewichte": 8698, 
  "gas@@": 8699, 
  "stoppen": 8700, 
  "Stein": 8701, 
  "finnischen": 8702, 
  "Bestandteile": 8703, 
  "Regulierungsbehörden": 8704, 
  "Einsparungen": 8705, 
  "mittelfristig": 8706, 
  "MP3": 8707, 
  "beobachtet": 8708, 
  "Beitrittsländern": 8709, 
  "Diversifizierung": 8710, 
  "most": 8711, 
  "Orientierung": 8712, 
  "Streitigkeiten": 8713, 
  "ía": 8714, 
  "billigen": 8715, 
  "bedeutendsten": 8716, 
  "wen": 8717, 
  "Nachteile": 8718, 
  "180": 8719, 
  "mobilen": 8720, 
  "schriftlichen": 8721, 
  "bestanden": 8722, 
  "museum": 8723, 
  "oh@@": 8724, 
  "beschloss": 8725, 
  "Lang@@": 8726, 
  "bedauern": 8727, 
  "potenzielle": 8728, 
  "Beschwerde": 8729, 
  "europaweit": 8730, 
  "Gleichheit": 8731, 
  "Nutzern": 8732, 
  "Umwelt-": 8733, 
  "Maßstab": 8734, 
  "Pra@@": 8735, 
  "ey": 8736, 
  "Griff": 8737, 
  "Übereinkunft": 8738, 
  "eti@@": 8739, 
  "Assoziierungsabkommen": 8740, 
  "bekämpft": 8741, 
  "Ratstagung": 8742, 
  "dor@@": 8743, 
  "standes": 8744, 
  "Schwächen": 8745, 
  "automatischen": 8746, 
  "Sta@@": 8747, 
  "zes": 8748, 
  "Verein": 8749, 
  "übrig": 8750, 
  "Kindes": 8751, 
  "Features": 8752, 
  "gehörte": 8753, 
  "demzufolge": 8754, 
  "klausel": 8755, 
  "Stuttgart": 8756, 
  "Rohstoffe": 8757, 
  "Norm": 8758, 
  "höherer": 8759, 
  "drehen": 8760, 
  "Staat@@": 8761, 
  "medi@@": 8762, 
  "alem": 8763, 
  "ik": 8764, 
  "bl@@": 8765, 
  "Dir": 8766, 
  "Zwischenzeit": 8767, 
  "Aufsichts@@": 8768, 
  "verfasst": 8769, 
  "Ausbruch": 8770, 
  "PSE": 8771, 
  "Kommentar": 8772, 
  "tigkeit": 8773, 
  "problematisch": 8774, 
  "ni": 8775, 
  "essen@@": 8776, 
  "vorschlägt": 8777, 
  "eingehend": 8778, 
  "Fußball": 8779, 
  "dahingehend": 8780, 
  "berühmt": 8781, 
  "Gefangenen": 8782, 
  "Fahrplan": 8783, 
  "Zellen": 8784, 
  "dorf": 8785, 
  "malerischen": 8786, 
  "Kolumbien": 8787, 
  "ktionen": 8788, 
  "gemachten": 8789, 
  "Far@@": 8790, 
  "chambres": 8791, 
  "direkter": 8792, 
  "Autonomie": 8793, 
  "mission": 8794, 
  "bild@@": 8795, 
  "versehenen": 8796, 
  "Gem@@": 8797, 
  "Grafiken": 8798, 
  "PR@@": 8799, 
  "â@@": 8800, 
  "aufrechtzuerhalten": 8801, 
  "Stadtteil": 8802, 
  "Folge@@": 8803, 
  "geführte": 8804, 
  "schieben": 8805, 
  "Folter": 8806, 
  "Seiten@@": 8807, 
  "ativ": 8808, 
  "inc@@": 8809, 
  "Busse": 8810, 
  "Lieferungen": 8811, 
  "gezahlt": 8812, 
  "güter": 8813, 
  "nachzudenken": 8814, 
  "Verheugen": 8815, 
  "Projek@@": 8816, 
  "licht": 8817, 
  "Binnen@@": 8818, 
  "Pen@@": 8819, 
  "Aufstockung": 8820, 
  "Beamte": 8821, 
  "Heiz@@": 8822, 
  "Szene": 8823, 
  "Zentrums": 8824, 
  "gewann": 8825, 
  "gkeiten": 8826, 
  "ci": 8827, 
  "rufe": 8828, 
  "besticht": 8829, 
  "Kommissars": 8830, 
  "zin@@": 8831, 
  "Mauer": 8832, 
  "meint": 8833, 
  "überschreiten": 8834, 
  "erschienen": 8835, 
  "morgens": 8836, 
  "kel": 8837, 
  "umfaßt": 8838, 
  "vertiefen": 8839, 
  "einbeziehen": 8840, 
  "nte": 8841, 
  "Wurzeln": 8842, 
  "Potential": 8843, 
  "sis": 8844, 
  "Pap@@": 8845, 
  "Beobachtung": 8846, 
  "beheben": 8847, 
  "Einfluß": 8848, 
  "Spaniens": 8849, 
  "Vorwand": 8850, 
  "tende": 8851, 
  "Einfuhr@@": 8852, 
  "box": 8853, 
  "wiederherzustellen": 8854, 
  "Beschleunigung": 8855, 
  "vorschlag": 8856, 
  "setzten": 8857, 
  "zuversichtlich": 8858, 
  "Technologie@@": 8859, 
  "fühlt": 8860, 
  "Sicherheitsrates": 8861, 
  "befreien": 8862, 
  "Netzwerke": 8863, 
  "Vista": 8864, 
  "Spanisch": 8865, 
  "Kreuz@@": 8866, 
  "abzugeben": 8867, 
  "zw@@": 8868, 
  "erhöhte": 8869, 
  "wertvollen": 8870, 
  "aufweist": 8871, 
  "Antonio": 8872, 
  "mitzuteilen": 8873, 
  "eventuelle": 8874, 
  "sexuelle": 8875, 
  "Plattformen": 8876, 
  "Level": 8877, 
  "Handelsbeziehungen": 8878, 
  "Fokus": 8879, 
  "beliebten": 8880, 
  "Organismen": 8881, 
  "angeführt": 8882, 
  "enes": 8883, 
  "ole": 8884, 
  "Bit": 8885, 
  "besagt": 8886, 
  "warmen": 8887, 
  "Segel@@": 8888, 
  "Büro@@": 8889, 
  "Innern": 8890, 
  "Versand": 8891, 
  "mus": 8892, 
  "zugenommen": 8893, 
  "sitz": 8894, 
  "beweist": 8895, 
  "einrichten": 8896, 
  "Ungleichheiten": 8897, 
  "handels@@": 8898, 
  "Eintrag": 8899, 
  "zweites": 8900, 
  "Not": 8901, 
  "tal@@": 8902, 
  "Politikbereiche": 8903, 
  "geld": 8904, 
  "TH@@": 8905, 
  "Zinssätze": 8906, 
  "os@@": 8907, 
  "Zubehör": 8908, 
  "glücklicherweise": 8909, 
  "Konzepts": 8910, 
  "erender": 8911, 
  "Stimmung": 8912, 
  "Neuigkeiten": 8913, 
  "interessierten": 8914, 
  "Wand@@": 8915, 
  "Früchte": 8916, 
  "Service@@": 8917, 
  "GB": 8918, 
  "harten": 8919, 
  "Dem@@": 8920, 
  "two": 8921, 
  "islamischen": 8922, 
  "Regen@@": 8923, 
  "Integrations@@": 8924, 
  "frische": 8925, 
  "Buchstabe": 8926, 
  "kul@@": 8927, 
  "Halbjahr": 8928, 
  "förder@@": 8929, 
  "Beitrittskandidaten": 8930, 
  "Toleranz": 8931, 
  "gei@@": 8932, 
  "dende": 8933, 
  "faktor": 8934, 
  "verhandelt": 8935, 
  "Begleitung": 8936, 
  "zonen": 8937, 
  "1987": 8938, 
  "überwachung": 8939, 
  "Gesam@@": 8940, 
  "Peking": 8941, 
  "Em@@": 8942, 
  "aufgezeigt": 8943, 
  "Kl@@": 8944, 
  "Central": 8945, 
  "demselben": 8946, 
  "Unregelmäßigkeiten": 8947, 
  "spezifischer": 8948, 
  "Interoperabilität": 8949, 
  "niederländische": 8950, 
  "Christen": 8951, 
  "wunderbare": 8952, 
  "Exporte": 8953, 
  "Park@@": 8954, 
  "Bay": 8955, 
  "ay@@": 8956, 
  "Treiber": 8957, 
  "BER@@": 8958, 
  "Befreiung": 8959, 
  "rücken": 8960, 
  "Zeitungen": 8961, 
  "03@@": 8962, 
  "diplomatischen": 8963, 
  "global": 8964, 
  "Ski": 8965, 
  "Beitritts": 8966, 
  "mar": 8967, 
  "statistischen": 8968, 
  "Hunger": 8969, 
  "therapie": 8970, 
  "Baden": 8971, 
  "zeitlich": 8972, 
  "pla@@": 8973, 
  "Literatur": 8974, 
  "Maschinen@@": 8975, 
  "IE": 8976, 
  "Angehörigen": 8977, 
  "fertigen": 8978, 
  "verhängt": 8979, 
  "tic@@": 8980, 
  "Territorium": 8981, 
  "bilder": 8982, 
  "SI@@": 8983, 
  "erkennbar": 8984, 
  "Porto": 8985, 
  "weiterentwickelt": 8986, 
  "Parks": 8987, 
  "Kli@@": 8988, 
  "chtet": 8989, 
  "Erdgas@@": 8990, 
  "Schengener": 8991, 
  "lichste": 8992, 
  "their": 8993, 
  "Son@@": 8994, 
  "Tar@@": 8995, 
  "hol@@": 8996, 
  "verkehrs": 8997, 
  "bauten": 8998, 
  "Gastfreundschaft": 8999, 
  "massive": 9000, 
  "BO@@": 9001, 
  "Cu@@": 9002, 
  "profitiert": 9003, 
  "reform": 9004, 
  "stei@@": 9005, 
  "eit@@": 9006, 
  "Dich": 9007, 
  "sur@@": 9008, 
  "wesens": 9009, 
  "Mac@@": 9010, 
  "Stufen": 9011, 
  "Singapur": 9012, 
  "84": 9013, 
  "zweier": 9014, 
  "schwarzen": 9015, 
  "netz@@": 9016, 
  "Гј@@": 9017, 
  "Arbeitszeit": 9018, 
  "best": 9019, 
  "bedingte": 9020, 
  "themen": 9021, 
  "Gesetzen": 9022, 
  "bewährte": 9023, 
  "Gerichts": 9024, 
  "steuerung": 9025, 
  "gischen": 9026, 
  "Landwirtschafts@@": 9027, 
  "max": 9028, 
  "werken": 9029, 
  "Landschaften": 9030, 
  "Demokratien": 9031, 
  "zung": 9032, 
  "1986": 9033, 
  "kti@@": 9034, 
  "EF@@": 9035, 
  "dienst@@": 9036, 
  "Präsidium": 9037, 
  "desselben": 9038, 
  "Christian": 9039, 
  "Tier": 9040, 
  "food": 9041, 
  "ist@@": 9042, 
  "problemen": 9043, 
  "Nationalpark": 9044, 
  "id": 9045, 
  "Monti": 9046, 
  "ungsphase": 9047, 
  "tiere": 9048, 
  "gehalt": 9049, 
  "kunst": 9050, 
  "Bonus": 9051, 
  "wo@@": 9052, 
  "tolle": 9053, 
  "Zertifizierung": 9054, 
  "Mitgliedstaates": 9055, 
  "CO": 9056, 
  "kultureller": 9057, 
  "gefühl": 9058, 
  "hervorzuheben": 9059, 
  "kopieren": 9060, 
  "Golfplatz": 9061, 
  "unweit": 9062, 
  "Fra@@": 9063, 
  "niedrigeren": 9064, 
  "IP@@": 9065, 
  "Km": 9066, 
  "schlug": 9067, 
  "Ganzen": 9068, 
  "beurteilt": 9069, 
  "maßnahme": 9070, 
  "Bestrebungen": 9071, 
  "verschwinden": 9072, 
  "stärkt": 9073, 
  "stabil": 9074, 
  "reservieren": 9075, 
  "OM@@": 9076, 
  "gtes": 9077, 
  "besichtigen": 9078, 
  "1985": 9079, 
  "Tschetschenien": 9080, 
  "gestellte": 9081, 
  "informellen": 9082, 
  "entwurf": 9083, 
  "Top@@": 9084, 
  "zugesagt": 9085, 
  "verlängern": 9086, 
  "OT@@": 9087, 
  "großartige": 9088, 
  "faktoren": 9089, 
  "vorrangige": 9090, 
  "Logistik": 9091, 
  "Freihandelsabkommen": 9092, 
  "Pack": 9093, 
  "kri@@": 9094, 
  "Tran@@": 9095, 
  "vo": 9096, 
  "user": 9097, 
  "best@@": 9098, 
  "pal@@": 9099, 
  "ständiger": 9100, 
  "identifizieren": 9101, 
  "Lam@@": 9102, 
  "Taxi": 9103, 
  "Pe@@": 9104, 
  "Network": 9105, 
  "Nachweis": 9106, 
  "bek@@": 9107, 
  "werk@@": 9108, 
  "schöner": 9109, 
  "Vorbehalte": 9110, 
  "itäts@@": 9111, 
  "sätze": 9112, 
  "Indi@@": 9113, 
  "Projektes": 9114, 
  "Meinungsäußerung": 9115, 
  "server": 9116, 
  "befindlichen": 9117, 
  "hinterlassen": 9118, 
  "ENT@@": 9119, 
  "Mühe": 9120, 
  "diesjährigen": 9121, 
  "persönlicher": 9122, 
  "unvergesslichen": 9123, 
  "Christdemokraten": 9124, 
  "Zer@@": 9125, 
  "büro": 9126, 
  "viertel": 9127, 
  "Swiss": 9128, 
  "MP@@": 9129, 
  "streichen": 9130, 
  "Bundesminister": 9131, 
  "Netto@@": 9132, 
  "sozusagen": 9133, 
  "hinter@@": 9134, 
  "nahen": 9135, 
  "op": 9136, 
  "Q": 9137, 
  "Echtzeit": 9138, 
  "süd@@": 9139, 
  "у@@": 9140, 
  "lang@@": 9141, 
  "sat@@": 9142, 
  "erschien": 9143, 
  "teilung": 9144, 
  "Rand@@": 9145, 
  "Kompromisse": 9146, 
  "GPS": 9147, 
  "gestrichen": 9148, 
  "Sonn@@": 9149, 
  "widerspiegeln": 9150, 
  "School": 9151, 
  "Schritten": 9152, 
  "haftet": 9153, 
  "basierten": 9154, 
  "Prä@@": 9155, 
  "ats@@": 9156, 
  "Gutachten": 9157, 
  "mache": 9158, 
  "späten": 9159, 
  "SIS": 9160, 
  "bemerken": 9161, 
  "Rettungs@@": 9162, 
  "Bru@@": 9163, 
  "Aktions@@": 9164, 
  "ance": 9165, 
  "qui": 9166, 
  "stat@@": 9167, 
  "Schlaf@@": 9168, 
  "deli@@": 9169, 
  "Volkswirtschaft": 9170, 
  "Dörfer": 9171, 
  "zwecke": 9172, 
  "wunder@@": 9173, 
  "Legislativ@@": 9174, 
  "verhältnis": 9175, 
  "Einsetzung": 9176, 
  "110": 9177, 
  "hinausgehen": 9178, 
  "Passagiere": 9179, 
  "LE": 9180, 
  "satzes": 9181, 
  "Masse": 9182, 
  "Überschwemmungen": 9183, 
  "Sortiment": 9184, 
  "chn@@": 9185, 
  "nor@@": 9186, 
  "Weihnachts@@": 9187, 
  "Ly@@": 9188, 
  "Mur@@": 9189, 
  "Cha@@": 9190, 
  "sinn@@": 9191, 
  "fehler": 9192, 
  "Ci@@": 9193, 
  "festhalten": 9194, 
  "Verschmutzung": 9195, 
  "erholen": 9196, 
  "spezi@@": 9197, 
  "beliebt": 9198, 
  "zig": 9199, 
  "Künstlern": 9200, 
  "unterzogen": 9201, 
  "Klärung": 9202, 
  "oni": 9203, 
  "CDs": 9204, 
  "e-": 9205, 
  "Blue": 9206, 
  "kli@@": 9207, 
  "Gleich@@": 9208, 
  "Geschichten": 9209, 
  "Völkern": 9210, 
  "vernünftigen": 9211, 
  "eit": 9212, 
  "Sammel@@": 9213, 
  "Produktion@@": 9214, 
  "boden": 9215, 
  "Fitness": 9216, 
  "ALE": 9217, 
  "Pilot@@": 9218, 
  "ity": 9219, 
  "Char@@": 9220, 
  "Haushaltsmittel": 9221, 
  "legislativen": 9222, 
  "Tau@@": 9223, 
  "Bandbreite": 9224, 
  "attraktive": 9225, 
  "Einblick": 9226, 
  "minutes": 9227, 
  "Vertrauens": 9228, 
  "ware": 9229, 
  "atischen": 9230, 
  "Konzert": 9231, 
  "oberste": 9232, 
  "ros": 9233, 
  "kat@@": 9234, 
  "spieler": 9235, 
  "Mol@@": 9236, 
  "zusammengefasst": 9237, 
  "Control": 9238, 
  "Net@@": 9239, 
  "Länder@@": 9240, 
  "flu@@": 9241, 
  "Verknüpfung": 9242, 
  "Mari@@": 9243, 
  "74": 9244, 
  "veranstaltungen": 9245, 
  "LAN": 9246, 
  "Mitglieds@@": 9247, 
  "Akzeptanz": 9248, 
  "Internetseiten": 9249, 
  "unlängst": 9250, 
  "agieren": 9251, 
  "Massnahmen": 9252, 
  "Räumen": 9253, 
  "wahrgenommen": 9254, 
  "Erfolgs@@": 9255, 
  "Nationalen": 9256, 
  "gri@@": 9257, 
  "Terrorismusbekämpfung": 9258, 
  "derartiger": 9259, 
  "gehende": 9260, 
  "Wil@@": 9261, 
  "ena": 9262, 
  "bewegungen": 9263, 
  "Ermittlungen": 9264, 
  "Gemein@@": 9265, 
  "Benutzern": 9266, 
  "tiefen": 9267, 
  "strasse": 9268, 
  "meister": 9269, 
  "Kohäsion": 9270, 
  "tiven": 9271, 
  "Gesch@@": 9272, 
  "schwach": 9273, 
  "beläuft": 9274, 
  "abteilung": 9275, 
  "13.@@": 9276, 
  "unterrichten": 9277, 
  "ine@@": 9278, 
  "Konsumenten": 9279, 
  "Darfur": 9280, 
  "EIN@@": 9281, 
  "aktivitäten": 9282, 
  "tief@@": 9283, 
  "passenden": 9284, 
  "car": 9285, 
  "gelegentlich": 9286, 
  "massiven": 9287, 
  "Premium": 9288, 
  "aktiver": 9289, 
  "Casa": 9290, 
  "aufgeteilt": 9291, 
  "einleiten": 9292, 
  "ated": 9293, 
  "irgendwann": 9294, 
  "Ansatzes": 9295, 
  "Ausgaben@@": 9296, 
  "tage": 9297, 
  "IF@@": 9298, 
  "Rindfleisch": 9299, 
  "Kaiser": 9300, 
  "vari@@": 9301, 
  "Wettbewerbsverzerrungen": 9302, 
  "Route": 9303, 
  "Erwachsenen": 9304, 
  "Ministerpräsidenten": 9305, 
  "ł@@": 9306, 
  "beratende": 9307, 
  "frist": 9308, 
  "Rahmenrichtlinie": 9309, 
  "geladen": 9310, 
  "spor@@": 9311, 
  "stetig": 9312, 
  "Sri": 9313, 
  "anhaltende": 9314, 
  "LA": 9315, 
  "dri@@": 9316, 
  "Anbau": 9317, 
  "lic@@": 9318, 
  "kreative": 9319, 
  "Luftfahrtunternehmen": 9320, 
  "berechtigten": 9321, 
  "Kirk": 9322, 
  "Ernährungs@@": 9323, 
  "lü@@": 9324, 
  "ologische": 9325, 
  "herunter": 9326, 
  "folgte": 9327, 
  "geografischen": 9328, 
  "Festung": 9329, 
  "M.": 9330, 
  "gefangen": 9331, 
  "easy": 9332, 
  "chts@@": 9333, 
  "Instabilität": 9334, 
  "englische": 9335, 
  "Teils": 9336, 
  "anfangen": 9337, 
  "Alpen@@": 9338, 
  "Kanäle": 9339, 
  "wür@@": 9340, 
  "Executive": 9341, 
  "Vorredner": 9342, 
  "verhältnisse": 9343, 
  "Fusionskontrollverordnung": 9344, 
  "sicht": 9345, 
  "Prof.": 9346, 
  "Vorjahr": 9347, 
  "bedeutender": 9348, 
  "moralische": 9349, 
  "ade@@": 9350, 
  "Gedankenaustausch": 9351, 
  "angemeldet": 9352, 
  "Stränden": 9353, 
  "Ca@@": 9354, 
  "Kühl@@": 9355, 
  "Captain": 9356, 
  "lingen": 9357, 
  "bewährten": 9358, 
  "operativen": 9359, 
  "ties": 9360, 
  "Ren@@": 9361, 
  "angegangen": 9362, 
  "sach@@": 9363, 
  "Wunder": 9364, 
  "iten": 9365, 
  "EH@@": 9366, 
  "gehenden": 9367, 
  "LT": 9368, 
  "kontinuierliche": 9369, 
  "Ac@@": 9370, 
  "ast": 9371, 
  "touristischen": 9372, 
  "Produk@@": 9373, 
  "Boot@@": 9374, 
  "Dom@@": 9375, 
  "Geburt": 9376, 
  "Werken": 9377, 
  "ever@@": 9378, 
  "begeben": 9379, 
  "Ticket": 9380, 
  "löst": 9381, 
  "Sä@@": 9382, 
  "schiffe": 9383, 
  "ausgedehnt": 9384, 
  "Ker@@": 9385, 
  "Kleidung": 9386, 
  "wirtschaftspolitischen": 9387, 
  "Ratspräsidenten": 9388, 
  "geschenkt": 9389, 
  "Domain": 9390, 
  "Kohle": 9391, 
  "Termine": 9392, 
  "öl@@": 9393, 
  "Kodex": 9394, 
  "Roten": 9395, 
  "cre@@": 9396, 
  "Lichte": 9397, 
  "belaufen": 9398, 
  "geschwindigkeit": 9399, 
  "WHO": 9400, 
  "manager": 9401, 
  "isch@@": 9402, 
  "energie@@": 9403, 
  "Gesundheits-": 9404, 
  "e.@@": 9405, 
  "hrt": 9406, 
  "CI@@": 9407, 
  "Schutzmaßnahmen": 9408, 
  "General@@": 9409, 
  "EM": 9410, 
  "world": 9411, 
  "aufhalten": 9412, 
  "koordinierte": 9413, 
  "geschäfte": 9414, 
  "04@@": 9415, 
  "Š@@": 9416, 
  "gericht": 9417, 
  "Zeitalter": 9418, 
  "durchschnittlichen": 9419, 
  "Fertigungs@@": 9420, 
  "tiv@@": 9421, 
  "Pakets": 9422, 
  "ergab": 9423, 
  "mung": 9424, 
  "Dre@@": 9425, 
  "anscheinend": 9426, 
  "anzuerkennen": 9427, 
  "Acht": 9428, 
  "Mutter@@": 9429, 
  "übermäßigen": 9430, 
  "IR@@": 9431, 
  "Schulung": 9432, 
  "Nigeria": 9433, 
  "app@@": 9434, 
  "Vermögen": 9435, 
  "Fuss": 9436, 
  "CHF": 9437, 
  "schneiden": 9438, 
  "ill@@": 9439, 
  "CE": 9440, 
  "Metro": 9441, 
  "ées": 9442, 
  "ausstattung": 9443, 
  "don": 9444, 
  "Verkehrs": 9445, 
  "Hoffnungen": 9446, 
  "met": 9447, 
  "beliebtesten": 9448, 
  "mil@@": 9449, 
  "Anlage@@": 9450, 
  "Neelie": 9451, 
  "dete": 9452, 
  "yp@@": 9453, 
  "abgedeckt": 9454, 
  "Fran@@": 9455, 
  "iranischen": 9456, 
  "ASEAN": 9457, 
  "Display": 9458, 
  "Vorstand": 9459, 
  "becken": 9460, 
  "fol@@": 9461, 
  "Tochtergesellschaft": 9462, 
  "team": 9463, 
  "stro@@": 9464, 
  "Kühlschrank": 9465, 
  "As@@": 9466, 
  "Bü@@": 9467, 
  "Intensivierung": 9468, 
  "ün@@": 9469, 
  "Erziehung": 9470, 
  "iner": 9471, 
  "flexiblen": 9472, 
  "versorgen": 9473, 
  "unternimmt": 9474, 
  "rein@@": 9475, 
  "ße": 9476, 
  "stände": 9477, 
  "Betrieben": 9478, 
  "Höhepunkt": 9479, 
  "Music": 9480, 
  "Aussch@@": 9481, 
  "Erfordernisse": 9482, 
  "makroökonomischen": 9483, 
  "angenommene": 9484, 
  "bach": 9485, 
  "Nokia": 9486, 
  "Haar@@": 9487, 
  "mäßig": 9488, 
  "60@@": 9489, 
  "Vorgang": 9490, 
  "Single": 9491, 
  "platten": 9492, 
  "Unterricht": 9493, 
  "Tibet": 9494, 
  "Mes@@": 9495, 
  "AM": 9496, 
  "Sanierung": 9497, 
  "kurzfristige": 9498, 
  "Loch": 9499, 
  "schafts@@": 9500, 
  "Mitteilungen": 9501, 
  "risiko": 9502, 
  "unterstützte": 9503, 
  "endem": 9504, 
  "ase": 9505, 
  "Fort@@": 9506, 
  "hielten": 9507, 
  "Umstand": 9508, 
  "Palacio": 9509, 
  "dei": 9510, 
  "anwendungen": 9511, 
  "traf": 9512, 
  "tten": 9513, 
  "sam": 9514, 
  "nnen": 9515, 
  "stands@@": 9516, 
  "Information@@": 9517, 
  "bekam": 9518, 
  "abgesch@@": 9519, 
  "ong": 9520, 
  "Automobil@@": 9521, 
  "wettbewerbs@@": 9522, 
  "ökonomische": 9523, 
  "igen": 9524, 
  "Banken@@": 9525, 
  "orte": 9526, 
  "Klausel": 9527, 
  "Streit@@": 9528, 
  "lö@@": 9529, 
  "kommunistischen": 9530, 
  "günstiger": 9531, 
  "Brenn@@": 9532, 
  "Mc@@": 9533, 
  "schien": 9534, 
  "strecken": 9535, 
  "illegaler": 9536, 
  "veränderte": 9537, 
  "dorthin": 9538, 
  "Beschäftigungspolitik": 9539, 
  "Getreide": 9540, 
  "anhaltenden": 9541, 
  "chtige": 9542, 
  "sport@@": 9543, 
  "Dafürhalten": 9544, 
  "stufe": 9545, 
  "Kap@@": 9546, 
  "erie": 9547, 
  "Jung@@": 9548, 
  "Ham@@": 9549, 
  "Behinderung": 9550, 
  "Security": 9551, 
  "sum@@": 9552, 
  "Konzerte": 9553, 
  "Studios": 9554, 
  "Kontinents": 9555, 
  "Lat@@": 9556, 
  "Standorten": 9557, 
  "bewundern": 9558, 
  "aut": 9559, 
  "fis@@": 9560, 
  "antiken": 9561, 
  "euer": 9562, 
  "Applikationen": 9563, 
  "bers": 9564, 
  "OK": 9565, 
  "landschaft": 9566, 
  "strategischer": 9567, 
  "viertens": 9568, 
  "red": 9569, 
  "zukunfts@@": 9570, 
  "ESF": 9571, 
  "Europäischer": 9572, 
  "Info": 9573, 
  "amtierenden": 9574, 
  "5.000": 9575, 
  "eingestuft": 9576, 
  "m.": 9577, 
  "Fundament": 9578, 
  "Unterstützungs@@": 9579, 
  "herkömmlichen": 9580, 
  "Fusion": 9581, 
  "fragt": 9582, 
  "bemerkt": 9583, 
  "zögern": 9584, 
  "pres@@": 9585, 
  "Joseph": 9586, 
  "breiter": 9587, 
  "indischen": 9588, 
  "amtierende": 9589, 
  "DC": 9590, 
  "ica": 9591, 
  "Preises": 9592, 
  "Sports": 9593, 
  "t-": 9594, 
  "chti@@": 9595, 
  "eni@@": 9596, 
  "sab@@": 9597, 
  "bisherige": 9598, 
  "Grenzwerte": 9599, 
  "Reisenden": 9600, 
  "stag": 9601, 
  "yl@@": 9602, 
  "One": 9603, 
  "Ad": 9604, 
  "korrigiert": 9605, 
  "bestehend": 9606, 
  "SE@@": 9607, 
  "gelöscht": 9608, 
  "star": 9609, 
  "bestrebt": 9610, 
  "natur@@": 9611, 
  "Meer@@": 9612, 
  "Belastungen": 9613, 
  "bereitschaft": 9614, 
  "Plat@@": 9615, 
  "into": 9616, 
  "Besetzung": 9617, 
  "lieb@@": 9618, 
  "bor@@": 9619, 
  "Technology": 9620, 
  "Fracht@@": 9621, 
  "Klick": 9622, 
  "ausgeben": 9623, 
  "Beruf@@": 9624, 
  "Tabellen": 9625, 
  "Basel": 9626, 
  "wirtschafts@@": 9627, 
  "produkt": 9628, 
  "Besteller": 9629, 
  "erbracht": 9630, 
  "beides": 9631, 
  "Lauf": 9632, 
  "Zutaten": 9633, 
  "historisch": 9634, 
  "gliche": 9635, 
  "Nordkorea": 9636, 
  "schwarz": 9637, 
  "eingeben": 9638, 
  "format": 9639, 
  "Karel": 9640, 
  "Copyright": 9641, 
  "weichen": 9642, 
  "Verk@@": 9643, 
  "Freizeit": 9644, 
  "Personals": 9645, 
  "ot": 9646, 
  "freiwilligen": 9647, 
  "Hunderte": 9648, 
  "modelle": 9649, 
  "cer@@": 9650, 
  "nächstes": 9651, 
  "vorgelegte": 9652, 
  "Aufschwung": 9653, 
  "Sol": 9654, 
  "Interessengruppen": 9655, 
  "stufen": 9656, 
  "Nero": 9657, 
  "ev@@": 9658, 
  "ausgerüstet": 9659, 
  "komponenten": 9660, 
  "schein@@": 9661, 
  "Organ": 9662, 
  "bahnen": 9663, 
  "Renten": 9664, 
  "probieren": 9665, 
  "rot": 9666, 
  "Schlacht@@": 9667, 
  "potenzial": 9668, 
  "Unions@@": 9669, 
  "zugreifen": 9670, 
  "japanische": 9671, 
  "Schle@@": 9672, 
  "vorzu@@": 9673, 
  "Mark": 9674, 
  "Auftrags@@": 9675, 
  "1980": 9676, 
  "feu@@": 9677, 
  "Urteils": 9678, 
  "Jahrhunderte": 9679, 
  "esti@@": 9680, 
  "pen": 9681, 
  "portugiesische": 9682, 
  "Ausschüssen": 9683, 
  "sia": 9684, 
  "Rue": 9685, 
  "auer": 9686, 
  "nachgewiesen": 9687, 
  "herbeizuführen": 9688, 
  "port": 9689, 
  "Gremium": 9690, 
  "Entdeckung": 9691, 
  "wald": 9692, 
  "Diktatur": 9693, 
  "Autorität": 9694, 
  "änderungen": 9695, 
  "Square": 9696, 
  "blieben": 9697, 
  "verweigert": 9698, 
  "richtung": 9699, 
  "belastet": 9700, 
  "möglicher": 9701, 
  "ellem": 9702, 
  "schlimmsten": 9703, 
  "Orts@@": 9704, 
  "Möbel": 9705, 
  "Schulungen": 9706, 
  "Mittagessen": 9707, 
  "PL@@": 9708, 
  "offener": 9709, 
  "markiert": 9710, 
  "hinzuzufügen": 9711, 
  "transparenten": 9712, 
  "Wissens": 9713, 
  "q": 9714, 
  "Corporation": 9715, 
  "beträchtlich": 9716, 
  "vi": 9717, 
  "British": 9718, 
  "vorübergehend": 9719, 
  "unabhängiger": 9720, 
  "Olympischen": 9721, 
  "planung": 9722, 
  "Doppelbett": 9723, 
  "müßten": 9724, 
  "kreis": 9725, 
  "Lande": 9726, 
  "ita": 9727, 
  "ungarische": 9728, 
  "stru@@": 9729, 
  "Explorer": 9730, 
  "wandern": 9731, 
  "services": 9732, 
  "xi@@": 9733, 
  "DS": 9734, 
  "erei": 9735, 
  "е": 9736, 
  "Piebalgs": 9737, 
  "Spielern": 9738, 
  "Jury": 9739, 
  "Überleben": 9740, 
  "Lesen": 9741, 
  "Engineering": 9742, 
  "mischen": 9743, 
  "Den": 9744, 
  "Zollunion": 9745, 
  "Behandlungen": 9746, 
  "ähnlicher": 9747, 
  "Ära": 9748, 
  "beglückwünsche": 9749, 
  "fein@@": 9750, 
  "Sü@@": 9751, 
  "Bot@@": 9752, 
  "assen": 9753, 
  "Reden": 9754, 
  "Reichweite": 9755, 
  "versprochen": 9756, 
  "abhängt": 9757, 
  "100@@": 9758, 
  "hau@@": 9759, 
  "tliche": 9760, 
  "ú@@": 9761, 
  "restlichen": 9762, 
  "bes": 9763, 
  "teilte": 9764, 
  "halben": 9765, 
  "eingesetzten": 9766, 
  "Messe@@": 9767, 
  "Wohlergehen": 9768, 
  "nis": 9769, 
  "anspruchsvolle": 9770, 
  "Löhne": 9771, 
  "J.": 9772, 
  "handelte": 9773, 
  "Eleganz": 9774, 
  "140": 9775, 
  "zugewiesen": 9776, 
  "Seminare": 9777, 
  "blockiert": 9778, 
  "Tru@@": 9779, 
  "aff@@": 9780, 
  "verlust": 9781, 
  "Edel@@": 9782, 
  "facto": 9783, 
  "gesendet": 9784, 
  "schwachen": 9785, 
  "bett": 9786, 
  "Rollen": 9787, 
  "Motoren": 9788, 
  "beziehungen": 9789, 
  "positives": 9790, 
  "aufrecht": 9791, 
  "abgerufen": 9792, 
  "Pierre": 9793, 
  "Versand@@": 9794, 
  "verläuft": 9795, 
  "Interview": 9796, 
  "Appell": 9797, 
  "niveaus": 9798, 
  "audiovisuellen": 9799, 
  "Patente": 9800, 
  "AF@@": 9801, 
  "DR@@": 9802, 
  "galt": 9803, 
  "Auslands@@": 9804, 
  "Association": 9805, 
  "Valencia": 9806, 
  "Tex@@": 9807, 
  "Gre@@": 9808, 
  "Versicherung": 9809, 
  "entscheidung": 9810, 
  "Lagerung": 9811, 
  "fung": 9812, 
  "Ap@@": 9813, 
  "Ständiger": 9814, 
  "Job": 9815, 
  "setz@@": 9816, 
  "auff@@": 9817, 
  "rates": 9818, 
  "Marketing@@": 9819, 
  "S.@@": 9820, 
  "Kontinuität": 9821, 
  "Begeisterung": 9822, 
  "Development": 9823, 
  "Tabak": 9824, 
  "Strafe": 9825, 
  "ele@@": 9826, 
  "herunter@@": 9827, 
  "ströme": 9828, 
  "kommunizieren": 9829, 
  "aufkommen": 9830, 
  "schrift": 9831, 
  "häufigsten": 9832, 
  "Buchstaben": 9833, 
  "Geh@@": 9834, 
  "HU": 9835, 
  "pflegen": 9836, 
  "Kr@@": 9837, 
  "Jordanien": 9838, 
  "besserer": 9839, 
  "Kalender": 9840, 
  "widerspiegelt": 9841, 
  "Ersuchen": 9842, 
  "Betrieb@@": 9843, 
  "schn@@": 9844, 
  "tagen": 9845, 
  "Bemühen": 9846, 
  "tät": 9847, 
  "Fan@@": 9848, 
  "Transaktion": 9849, 
  "Prüfungs@@": 9850, 
  "Vorkehrungen": 9851, 
  "ac": 9852, 
  "dien@@": 9853, 
  "Resultat": 9854, 
  "vis@@": 9855, 
  "wirkung": 9856, 
  "erzählt": 9857, 
  "Freilassung": 9858, 
  "plat@@": 9859, 
  "Modellen": 9860, 
  "HD": 9861, 
  "lar@@": 9862, 
  "Erkenntnis": 9863, 
  "datei": 9864, 
  "erfahrenen": 9865, 
  "Verkehr@@": 9866, 
  "Auswirkung": 9867, 
  "XML": 9868, 
  "Tat@@": 9869, 
  "business": 9870, 
  "bedient": 9871, 
  "uss@@": 9872, 
  "Dek@@": 9873, 
  "Kunststoff@@": 9874, 
  "Wärme@@": 9875, 
  "verdanken": 9876, 
  "Pr@@": 9877, 
  "facilities": 9878, 
  "einräumen": 9879, 
  "Auszeichnung": 9880, 
  "Arena": 9881, 
  "sofortige": 9882, 
  "Komm@@": 9883, 
  "45@@": 9884, 
  "bs": 9885, 
  "Fremd@@": 9886, 
  "ungsplan": 9887, 
  "Op@@": 9888, 
  "Haiti": 9889, 
  "Gut@@": 9890, 
  "Schlussfolgerung": 9891, 
  "Problem@@": 9892, 
  "Gegenden": 9893, 
  "Jahresende": 9894, 
  "llen": 9895, 
  "Weitergabe": 9896, 
  "renovierte": 9897, 
  "Partei@@": 9898, 
  "Szenario": 9899, 
  "Bruder": 9900, 
  "Kabel@@": 9901, 
  "Pl@@": 9902, 
  "Saudi": 9903, 
  "geringeren": 9904, 
  "Unfälle": 9905, 
  "mehrjährigen": 9906, 
  "Kooperationsabkommen": 9907, 
  "Angeboten": 9908, 
  "wiesen": 9909, 
  "en.@@": 9910, 
  "Wetter@@": 9911, 
  "ska": 9912, 
  "regierung": 9913, 
  "NI@@": 9914, 
  "Laser@@": 9915, 
  "operative": 9916, 
  "Seminar": 9917, 
  "bruch": 9918, 
  "Migrations@@": 9919, 
  "plätzen": 9920, 
[...]
